{
  "[UNK]": 0,
  "\n": 1,
  "!": 2,
  "\"": 3,
  "#": 4,
  "$": 5,
  "%": 6,
  "&": 7,
  "'": 8,
  "(": 9,
  ")": 10,
  "*": 11,
  "+": 12,
  ",": 13,
  "-": 14,
  ".": 15,
  "/": 16,
  "0": 17,
  "1": 18,
  "2": 19,
  "3": 20,
  "4": 21,
  "5": 22,
  "6": 23,
  "7": 24,
  "8": 25,
  "9": 26,
  ":": 27,
  ";": 28,
  "<": 29,
  "=": 30,
  ">": 31,
  "?": 32,
  "A": 33,
  "B": 34,
  "C": 35,
  "D": 36,
  "E": 37,
  "F": 38,
  "G": 39,
  "H": 40,
  "I": 41,
  "J": 42,
  "K": 43,
  "L": 44,
  "M": 45,
  "N": 46,
  "O": 47,
  "P": 48,
  "Q": 49,
  "R": 50,
  "S": 51,
  "T": 52,
  "U": 53,
  "V": 54,
  "W": 55,
  "X": 56,
  "Y": 57,
  "Z": 58,
  "[": 59,
  "\\": 60,
  "]": 61,
  "^": 62,
  "_": 63,
  "`": 64,
  "a": 65,
  "b": 66,
  "c": 67,
  "d": 68,
  "e": 69,
  "f": 70,
  "g": 71,
  "h": 72,
  "i": 73,
  "j": 74,
  "k": 75,
  "l": 76,
  "m": 77,
  "n": 78,
  "o": 79,
  "p": 80,
  "q": 81,
  "r": 82,
  "s": 83,
  "t": 84,
  "u": 85,
  "v": 86,
  "w": 87,
  "x": 88,
  "y": 89,
  "z": 90,
  "{": 91,
  "|": 92,
  "}": 93,
  "~": 94,
  "°": 95,
  "·": 96,
  "Ö": 97,
  "à": 98,
  "á": 99,
  "â": 100,
  "æ": 101,
  "ç": 102,
  "è": 103,
  "é": 104,
  "í": 105,
  "î": 106,
  "ñ": 107,
  "ö": 108,
  "ü": 109,
  "ā": 110,
  "ī": 111,
  "İ": 112,
  "Ś": 113,
  "ś": 114,
  "ū": 115,
  "ș": 116,
  "ə": 117,
  "ɦ": 118,
  "ɪ": 119,
  "ɾ": 120,
  "ʊ": 121,
  "ʻ": 122,
  "ʼ": 123,
  "ˈ": 124,
  "ː": 125,
  "ί": 126,
  "α": 127,
  "δ": 128,
  "θ": 129,
  "ν": 130,
  "ο": 131,
  "π": 132,
  "ς": 133,
  "ό": 134,
  "ँ": 135,
  "ं": 136,
  "ः": 137,
  "अ": 138,
  "आ": 139,
  "इ": 140,
  "ई": 141,
  "उ": 142,
  "ऊ": 143,
  "ऋ": 144,
  "ऍ": 145,
  "ए": 146,
  "ऐ": 147,
  "ऑ": 148,
  "ओ": 149,
  "औ": 150,
  "क": 151,
  "ख": 152,
  "ग": 153,
  "घ": 154,
  "ङ": 155,
  "च": 156,
  "छ": 157,
  "ज": 158,
  "झ": 159,
  "ञ": 160,
  "ट": 161,
  "ठ": 162,
  "ड": 163,
  "ढ": 164,
  "ण": 165,
  "त": 166,
  "थ": 167,
  "द": 168,
  "ध": 169,
  "न": 170,
  "प": 171,
  "फ": 172,
  "ब": 173,
  "भ": 174,
  "म": 175,
  "य": 176,
  "र": 177,
  "ल": 178,
  "ळ": 179,
  "व": 180,
  "श": 181,
  "ष": 182,
  "स": 183,
  "ह": 184,
  "़": 185,
  "ा": 186,
  "ि": 187,
  "ी": 188,
  "ु": 189,
  "ू": 190,
  "ृ": 191,
  "े": 192,
  "ै": 193,
  "ॉ": 194,
  "ॊ": 195,
  "ो": 196,
  "ौ": 197,
  "्": 198,
  "।": 199,
  "०": 200,
  "१": 201,
  "२": 202,
  "३": 203,
  "४": 204,
  "५": 205,
  "६": 206,
  "७": 207,
  "८": 208,
  "९": 209,
  "॰": 210,
  "ஃ": 211,
  "அ": 212,
  "ஆ": 213,
  "இ": 214,
  "ஈ": 215,
  "உ": 216,
  "ஊ": 217,
  "எ": 218,
  "ஏ": 219,
  "ஐ": 220,
  "ஒ": 221,
  "ஓ": 222,
  "க": 223,
  "ங": 224,
  "ச": 225,
  "ஜ": 226,
  "ஞ": 227,
  "ட": 228,
  "ண": 229,
  "த": 230,
  "ந": 231,
  "ன": 232,
  "ப": 233,
  "ம": 234,
  "ய": 235,
  "ர": 236,
  "ற": 237,
  "ல": 238,
  "ள": 239,
  "ழ": 240,
  "வ": 241,
  "ஷ": 242,
  "ஸ": 243,
  "ஹ": 244,
  "ா": 245,
  "ி": 246,
  "ீ": 247,
  "ு": 248,
  "ூ": 249,
  "ெ": 250,
  "ே": 251,
  "ை": 252,
  "ொ": 253,
  "ோ": 254,
  "ௌ": 255,
  "்": 256,
  "ం": 257,
  "ః": 258,
  "అ": 259,
  "ఆ": 260,
  "ఇ": 261,
  "ఈ": 262,
  "ఉ": 263,
  "ఋ": 264,
  "ఎ": 265,
  "ఏ": 266,
  "ఐ": 267,
  "ఒ": 268,
  "ఓ": 269,
  "ఔ": 270,
  "క": 271,
  "ఖ": 272,
  "గ": 273,
  "ఘ": 274,
  "చ": 275,
  "ఛ": 276,
  "జ": 277,
  "ఞ": 278,
  "ట": 279,
  "ఠ": 280,
  "డ": 281,
  "ఢ": 282,
  "ణ": 283,
  "త": 284,
  "థ": 285,
  "ద": 286,
  "ధ": 287,
  "న": 288,
  "ప": 289,
  "ఫ": 290,
  "బ": 291,
  "భ": 292,
  "మ": 293,
  "య": 294,
  "ర": 295,
  "ల": 296,
  "ళ": 297,
  "వ": 298,
  "శ": 299,
  "ష": 300,
  "స": 301,
  "హ": 302,
  "ా": 303,
  "ి": 304,
  "ీ": 305,
  "ు": 306,
  "ూ": 307,
  "ృ": 308,
  "ె": 309,
  "ే": 310,
  "ై": 311,
  "ొ": 312,
  "ో": 313,
  "ౌ": 314,
  "్": 315,
  "ṅ": 316,
  "ṇ": 317,
  "Ṛ": 318,
  "ṣ": 319,
  "ṭ": 320,
  "Ἰ": 321,
  "‌": 322,
  "‍": 323,
  "‎": 324,
  "–": 325,
  "—": 326,
  "‘": 327,
  "’": 328,
  "“": 329,
  "”": 330,
  "†": 331,
  "•": 332,
  "′": 333,
  "‹": 334,
  "›": 335,
  "⁡": 336,
  "₹": 337,
  "↑": 338,
  "−": 339,
  "▁": 340,
  "﻿": 341,
  "wi": 342,
  "ki": 343,
  "wiki": 344,
  "di": 345,
  "a.": 346,
  "or": 347,
  "tt": 348,
  ":/": 349,
  "htt": 350,
  "http": 351,
  "://": 352,
  "](": 353,
  "https": 354,
  "https://": 355,
  "pe": 356,
  "](https://": 357,
  "g/": 358,
  "org/": 359,
  "dia.": 360,
  "org/wiki": 361,
  "dia.org/wiki": 362,
  "dia.org/wiki/": 363,
  "wikipe": 364,
  "wikipedia.org/wiki/": 365,
  "▁[": 366,
  "te": 367,
  "▁\"": 368,
  "\")": 369,
  "in": 370,
  "்த": 371,
  ".wikipedia.org/wiki/": 372,
  "an": 373,
  "en": 374,
  "on": 375,
  "20": 376,
  "ிய": 377,
  "ti": 378,
  "re": 379,
  "th": 380,
  "ந்த": 381,
  "al": 382,
  "ar": 383,
  "ta.": 384,
  "்க": 385,
  "](https://ta.": 386,
  "](https://ta.wikipedia.org/wiki/": 387,
  "In": 388,
  "er": 389,
  "hi": 390,
  "ci": 391,
  "dia": 392,
  "ப்": 393,
  "es": 394,
  "இந்த": 395,
  "ம்": 396,
  "இந்திய": 397,
  "▁|": 398,
  "India": 399,
  "](https://en": 400,
  "ன்": 401,
  "](https://en.wikipedia.org/wiki/": 402,
  "்ட": 403,
  "▁ப": 404,
  "te_": 405,
  "of": 406,
  "#ci": 407,
  "#cite_": 408,
  "இந்தியா": 409,
  "om": 410,
  "tion": 411,
  "ல்": 412,
  "ப்ப": 413,
  "OT": 414,
  "ार": 415,
  "201": 416,
  "the": 417,
  "▁(": 418,
  "](https://hi": 419,
  "](https://hi.wikipedia.org/wiki/": 420,
  "is": 421,
  "▁क": 422,
  "oo": 423,
  "ou": 424,
  "க்க": 425,
  "19": 426,
  "ர்": 427,
  "and": 428,
  "து": 429,
  "200": 430,
  "ட்ட": 431,
  "▁-": 432,
  "्र": 433,
  "ri": 434,
  "▁of": 435,
  "le": 436,
  "](https://ta.wikipedia.org/wiki/இந்தியா": 437,
  "▁the": 438,
  "▁ம": 439,
  "-0": 440,
  "no": 441,
  "as": 442,
  "த்த": 443,
  "▁க": 444,
  "్ర": 445,
  "ள்": 446,
  "भार": 447,
  "भारत": 448,
  "](https://te": 449,
  "](https://te.wikipedia.org/wiki/": 450,
  "ve": 451,
  "ook": 452,
  "▁த": 453,
  "ரு": 454,
  "ref": 455,
  "▁स": 456,
  "te-": 457,
  "](https://ta.wikipedia.org/wiki/இந்தியா#cite_": 458,
  "note-": 459,
  "ref-": 460,
  "ార": 461,
  "[[": 462,
  "et": 463,
  "ac": 464,
  "\\_": 465,
  "ில்": 466,
  "li": 467,
  "78": 468,
  "ate": 469,
  "ation": 470,
  "-1": 471,
  "▁in": 472,
  "am": 473,
  "ும்": 474,
  "▁வ": 475,
  "ின்": 476,
  "id": 477,
  "FO": 478,
  "NOT": 479,
  "OTNOT": 480,
  "FOOTNOT": 481,
  "FOOTNOTE": 482,
  "ent": 483,
  "com": 484,
  "),": 485,
  "▁இ": 486,
  "▁C": 487,
  "ing": 488,
  "**": 489,
  "▁and": 490,
  "si": 491,
  "st": 492,
  "▁A": 493,
  "▁அ": 494,
  "சி": 495,
  "ag": 496,
  "at": 497,
  "ங்க": 498,
  ".\n": 499,
  "▁India": 500,
  "ற்": 501,
  "▁म": 502,
  "978": 503,
  "▁p": 504,
  "्य": 505,
  "▁S": 506,
  "](https://en.wikipedia.org/wiki/India": 507,
  "ப்பு": 508,
  "ww": 509,
  "த்": 510,
  "▁1": 511,
  "ைய": 512,
  "ad": 513,
  "▁[↑": 514,
  "ed": 515,
  "ான": 516,
  "ch": 517,
  "க்": 518,
  "lo": 519,
  "we": 520,
  "\"),": 521,
  "ాల": 522,
  "▁ந": 523,
  "our": 524,
  "▁201": 525,
  "▁f": 526,
  "रा": 527,
  "▁प": 528,
  "▁P": 529,
  "▁s": 530,
  "to": 531,
  "్య": 532,
  "lin": 533,
  "ul": 534,
  ").": 535,
  "ற்ற": 536,
  "ிர": 537,
  "um": 538,
  "-0)": 539,
  "00": 540,
  "edi": 541,
  "red": 542,
  "▁ச": 543,
  "ாக": 544,
  "book": 545,
  "21": 546,
  "భార": 547,
  "ாட்ட": 548,
  "](https://en.wikipedia.org/wiki/India#cite_": 549,
  "he": 550,
  "భారత": 551,
  "ic": 552,
  "దే": 553,
  "es/": 554,
  "ang": 555,
  "▁b": 556,
  "▁உ": 557,
  "books": 558,
  "దేశ": 559,
  "స్": 560,
  "ur": 561,
  "ें": 562,
  "ान": 563,
  "▁c": 564,
  "▁ஆ": 565,
  "டு": 566,
  "▁ప": 567,
  "=1": 568,
  "ce": 569,
  "us": 570,
  "தி": 571,
  "र्": 572,
  "ver": 573,
  "ண்": 574,
  "▁के": 575,
  ".[[": 576,
  "link": 577,
  "IS": 578,
  "▁R": 579,
  "](https://hi.wikipedia.org/wiki/भारत": 580,
  "action": 581,
  "ra": 582,
  "edit": 583,
  "▁M": 584,
  "సా": 585,
  "com/": 586,
  "ro": 587,
  "ண்ட": 588,
  "action=": 589,
  "?action=": 590,
  "ourc": 591,
  "▁ह": 592,
  "&red": 593,
  "link=1": 594,
  "edit&red": 595,
  "?action=edit&red": 596,
  "?action=edit&redlink=1": 597,
  "cal": 598,
  "pg": 599,
  "un": 600,
  "web": 601,
  "லை": 602,
  "23": 603,
  "IT": 604,
  "ter": 605,
  "BN": 606,
  "]](https://ta.wikipedia.org/wiki/இந்தியா#cite_": 607,
  "ర్": 608,
  "](https://ta.wikipedia.org/wiki/இந்தியா#cite_ref-": 609,
  "]](https://ta.wikipedia.org/wiki/இந்தியா#cite_note-": 610,
  "fi": 611,
  "ory": 612,
  "25": 613,
  "chi": 614,
  "ER": 615,
  "्त": 616,
  "▁m": 617,
  "10": 618,
  "EF": 619,
  "ISBN": 620,
  "Book": 621,
  "ITER": 622,
  "of_": 623,
  "ITEREF": 624,
  ".com/": 625,
  "199": 626,
  "_of_": 627,
  "న్": 628,
  "ources/": 629,
  "s/": 630,
  "it": 631,
  ":Book": 632,
  "Sources/": 633,
  ":BookSources/": 634,
  "ist": 635,
  "ாட்டு": 636,
  ":BookSources/978": 637,
  "சு": 638,
  "#C": 639,
  "▁T": 640,
  "26": 641,
  "#CITEREF": 642,
  "res": 643,
  "▁*": 644,
  ".org/": 645,
  "▁a": 646,
  "ொட": 647,
  "ள்ள": 648,
  "chive": 649,
  "ன்ன": 650,
  "ச்": 651,
  "या": 652,
  "il": 653,
  "िक": 654,
  "dian": 655,
  "tic": 656,
  "28": 657,
  "-0-": 658,
  ")\n": 659,
  "_த": 660,
  "▁|\n": 661,
  "24": 662,
  "கள": 663,
  "▁में": 664,
  "▁D": 665,
  "\")\n": 666,
  ".j": 667,
  "age": 668,
  "▁**": 669,
  "లు": 670,
  "enti": 671,
  "ीय": 672,
  "ld": 673,
  "▁In": 674,
  "▁B": 675,
  "▁to": 676,
  "de": 677,
  "ni": 678,
  "రా": 679,
  "▁अ": 680,
  "▁எ": 681,
  "-3": 682,
  "▁200": 683,
  "கு": 684,
  "www": 685,
  "-4": 686,
  "டி": 687,
  "ொடர்": 688,
  "ir": 689,
  "ment": 690,
  "ber": 691,
  "www.": 692,
  "▁[↑](https://ta.wikipedia.org/wiki/இந்தியா#cite_ref-": 693,
  "சிய": 694,
  "ay": 695,
  "](https://ta.wikipedia.org/wiki/ப": 696,
  "▁w": 697,
  "భారతదేశ": 698,
  "50": 699,
  "ig": 700,
  "identi": 701,
  "con": 702,
  "மை": 703,
  "ों": 704,
  "fier": 705,
  "identifier": 706,
  "cial": 707,
  "mp": 708,
  ".g": 709,
  ".శ": 710,
  ".శ.": 711,
  "లో": 712,
  "11": 713,
  "-8": 714,
  "సా.శ.": 715,
  "calf": 716,
  "ty": 717,
  "me": 718,
  "கள்": 719,
  "etcalf": 720,
  "ew": 721,
  "up": 722,
  "वि": 723,
  "sh": 724,
  "சிற": 725,
  "ol": 726,
  "ன்னாட்டு": 727,
  "22": 728,
  "▁క": 729,
  "ना": 730,
  "_(": 731,
  "ில": 732,
  "archive": 733,
  "_ப": 734,
  "▁ज": 735,
  "▁e": 736,
  "्ष": 737,
  "▁J": 738,
  "ly": 739,
  "30": 740,
  "ाल": 741,
  "க்கு": 742,
  "త్ర": 743,
  "identifier)": 744,
  "_क": 745,
  "du": 746,
  "ற்றும்": 747,
  "▁E": 748,
  "▁G": 749,
  "▁है": 750,
  "சிறப்பு": 751,
  "▁H": 752,
  "று": 753,
  "ాలు": 754,
  "▁re": 755,
  "து.": 756,
  "rom": 757,
  "ன்னாட்டுத்": 758,
  "రి": 759,
  "29": 760,
  "▁[\"": 761,
  "]](https://en.wikipedia.org/wiki/India#cite_": 762,
  "](https://en.wikipedia.org/wiki/India#cite_ref-": 763,
  "]](https://en.wikipedia.org/wiki/India#cite_note-": 764,
  "క్": 765,
  "▁N": 766,
  "▁द": 767,
  "](https://hi.wikipedia.org/wiki/भारत#cite_": 768,
  "ంద": 769,
  "gle": 770,
  "_in": 771,
  "18": 772,
  "▁20": 773,
  "▁மற்றும்": 774,
  "ateg": 775,
  "oogle": 776,
  "ని": 777,
  "त्र": 778,
  "▁இந்தியா": 779,
  "Metcalf": 780,
  "ார": 781,
  "mon": 782,
  "▁వ": 783,
  "?id": 784,
  "▁\"ப": 785,
  "राज": 786,
  "வு": 787,
  "▁on": 788,
  "op": 789,
  "\"](https://": 790,
  "ेश": 791,
  "·**": 792,
  "ary": 793,
  "books.g": 794,
  "▁**·**": 795,
  "books.google": 796,
  "ion": 797,
  "न्": 798,
  "▁ஒ": 799,
  "சிறப்பு:BookSources/978": 800,
  "▁19": 801,
  "ategory": 802,
  "15": 803,
  "books?id": 804,
  ".com/books?id": 805,
  "books.google.com/books?id": 806,
  "िया": 807,
  "angu": 808,
  "eve": 809,
  "ategory:": 810,
  "books.google.com/books?id=": 811,
  "se": 812,
  "Uni": 813,
  "_S": 814,
  "16": 815,
  "▁l": 816,
  "40": 817,
  "dia/": 818,
  "]](https://ta.wikipedia.org/wiki/இந்தியா#cite_note-FOOTNOTE": 819,
  "oun": 820,
  "ட்": 821,
  "ற்க": 822,
  "for": 823,
  "tu": 824,
  "27": 825,
  "ress": 826,
  "ub": 827,
  "और": 828,
  "ల్": 829,
  "ரா": 830,
  "17": 831,
  "go": 832,
  "భారతదేశం": 833,
  "ry": 834,
  "▁ब": 835,
  "archive.org/": 836,
  "The": 837,
  "ंग": 838,
  "ational": 839,
  "](https://ta.wikipedia.org/wiki/இந்தியா#CITEREF": 840,
  "▁[ISBN": 841,
  "ts": 842,
  ".in": 843,
  "▁h": 844,
  "▁भारत": 845,
  "▁की": 846,
  "▁[978": 847,
  "-9": 848,
  "ంగ": 849,
  "▁.": 850,
  "▁மு": 851,
  "▁[*": 852,
  "14": 853,
  "13": 854,
  "▁प्र": 855,
  "AA": 856,
  "ला": 857,
  "▁స": 858,
  "ma": 859,
  "▁त": 860,
  "भा": 861,
  "्व": 862,
  "ng": 863,
  "el": 864,
  "▁\"S": 865,
  "with": 866,
  "▁न": 867,
  ".jpg": 868,
  "▁से": 869,
  "orld": 870,
  "▁F": 871,
  "▁or": 872,
  "web.": 873,
  "ரி": 874,
  "▁మ": 875,
  "ish": 876,
  "web/": 877,
  "archive.org/web/": 878,
  "web.archive.org/web/": 879,
  "ak": 880,
  "tri": 881,
  "ால": 882,
  "_P": 883,
  "ab": 884,
  "வின்": 885,
  "ப்பட்ட": 886,
  "வில்": 887,
  "▁from": 888,
  "▁•": 889,
  "▁और": 890,
  "த்து": 891,
  "*](https://": 892,
  "ந்து": 893,
  "్రా": 894,
  "▁India\")": 895,
  "per": 896,
  "umb": 897,
  "▁का": 898,
  "_A": 899,
  "ge": 900,
  "▁th": 901,
  "_स": 902,
  "ானது": 903,
  "ీయ": 904,
  "pecial": 905,
  "வா": 906,
  "eved": 907,
  "▁./": 908,
  "्रे": 909,
  "ता": 910,
  "70": 911,
  "ండ": 912,
  "▁O": 913,
  "्ट": 914,
  "outh": 915,
  "_in_": 916,
  "a_": 917,
  "--": 918,
  "px": 919,
  "ிற": 920,
  "-5": 921,
  "av": 922,
  "▁[↑](https://en.wikipedia.org/wiki/India#cite_ref-": 923,
  "ண்டு": 924,
  "common": 925,
  "வை": 926,
  "http://": 927,
  "ep": 928,
  "Indian": 929,
  "▁n": 930,
  "im": 931,
  "anguage": 932,
  "load": 933,
  "జ్య": 934,
  "\").": 935,
  "▁[S": 936,
  "▁చ": 937,
  "-2": 938,
  "versi": 939,
  "▁கு": 940,
  ".wiki": 941,
  "upload": 942,
  "▁---": 943,
  "ங்கள": 944,
  "har": 945,
  "▁ப.": 946,
  "▁தொடர்": 947,
  "▁L": 948,
  ".wikime": 949,
  "Har": 950,
  "PA": 951,
  "▁\"भारत": 952,
  "ain": 953,
  "inal": 954,
  ")[[": 955,
  "తా": 956,
  "do": 957,
  "ஸ்": 958,
  "pedia/": 959,
  "dia.org/wikipedia/": 960,
  "upload.wikime": 961,
  "upload.wikimedia.org/wikipedia/": 962,
  "ము": 963,
  "](https://upload.wikimedia.org/wikipedia/": 964,
  "commons/": 965,
  "![": 966,
  "&pg": 967,
  "నా": 968,
  "&pg=": 969,
  "டை": 970,
  "thumb": 971,
  "](https://upload.wikimedia.org/wikipedia/commons/": 972,
  "கா": 973,
  "ம்ப": 974,
  "versity": 975,
  "తి": 976,
  "్ట": 977,
  "▁for": 978,
  "स्त": 979,
  "▁व": 980,
  "thumb/": 981,
  "\")*": 982,
  "▁பெ": 983,
  "राज्य": 984,
  "▁W": 985,
  "35": 986,
  "ாடு": 987,
  "▁*[": 988,
  "ct": 989,
  "2011": 990,
  "क्ष": 991,
  "றை": 992,
  "▁எண்": 993,
  "](https://upload.wikimedia.org/wikipedia/commons/thumb/": 994,
  "ित": 995,
  "est": 996,
  "ன்ற": 997,
  "px-": 998,
  "▁[↑](https://ta.wikipedia.org/wiki/இந்தியா#cite_ref-FOOTNOTE": 999,
  "సి": 1000,
  "india": 1001,
  "न्द": 1002,
  "త్": 1003,
  "ap": 1004,
  "ht": 1005,
  "36": 1006,
  "ot": 1007,
  "47": 1008,
  "▁t": 1009,
  "லா": 1010,
  "▁பொ": 1011,
  "ிரு": 1012,
  "_C": 1013,
  "கம்": 1014,
  "வி": 1015,
  "conom": 1016,
  "&pg=PA": 1017,
  "48": 1018,
  "▁आ": 1019,
  "les": 1020,
  "ther": 1021,
  "2006": 1022,
  "web.archive.org/web/201": 1023,
  "து.[[": 1024,
  "%2": 1025,
  "38": 1026,
  "ast": 1027,
  "षा": 1028,
  "pecial:BookSources/978": 1029,
  "*](https://books.google.com/books?id=": 1030,
  "ons": 1031,
  "पु": 1032,
  "sia": 1033,
  "▁p.": 1034,
  "▁ஒரு": 1035,
  "##": 1036,
  "_and": 1037,
  "ति": 1038,
  "tein": 1039,
  "ிரி": 1040,
  "ணி": 1041,
  "err": 1042,
  "2.": 1043,
  "ted": 1044,
  "ास": 1045,
  "▁K": 1046,
  "▁உள்ள": 1047,
  "▁(సా.శ.": 1048,
  "▁orig": 1049,
  "▁by": 1050,
  "ேர": 1051,
  "▁&": 1052,
  "▁2011": 1053,
  "mpl": 1054,
  "எண்": 1055,
  "యా": 1056,
  "ens": 1057,
  "லி": 1058,
  "▁தர": 1059,
  "ులు": 1060,
  "▁రా": 1061,
  "ages": 1062,
  "rit": 1063,
  "▁is": 1064,
  "ாள": 1065,
  "▁be": 1066,
  "University": 1067,
  "▁original": 1068,
  "–సా.శ.": 1069,
  "error": 1070,
  "-7": 1071,
  "'s": 1072,
  "ow": 1073,
  "▁అ": 1074,
  "▁d": 1075,
  "ப்பட": 1076,
  "ి.": 1077,
  "▁Indian": 1078,
  "/https://": 1079,
  "ம்\")": 1080,
  "hin": 1081,
  "ொழ": 1082,
  ".in/": 1083,
  "-6": 1084,
  "स्": 1085,
  "ரசு": 1086,
  "46": 1087,
  "ort": 1088,
  "artic": 1089,
  "▁கொ": 1090,
  "▁ప్ర": 1091,
  "▁வி": 1092,
  "%20": 1093,
  "49": 1094,
  "ిక": 1095,
  ".p": 1096,
  "india.": 1097,
  "mber": 1098,
  "39": 1099,
  "லக": 1100,
  "_தொடர்": 1101,
  "aj": 1102,
  "▁\"இந்திய": 1103,
  "▁[A": 1104,
  "▁(identifier)": 1105,
  "_(identifier)": 1106,
  "▁(identifier)\")": 1107,
  "](https://ta.wikipedia.org/wiki/இந்திய": 1108,
  "ப்_ப": 1109,
  "తం": 1110,
  "▁([": 1111,
  "_D": 1112,
  "pg/": 1113,
  "2018": 1114,
  "ான்": 1115,
  "und": 1116,
  "சிறப்பு:BookSources/978-0-": 1117,
  "ence": 1118,
  "art": 1119,
  "भाषा": 1120,
  "45": 1121,
  "▁போ": 1122,
  "_of_India": 1123,
  "ia": 1124,
  "](https://en.wikipedia.org/wiki/India#CITEREF": 1125,
  "_எண்": 1126,
  "मा": 1127,
  "▁को": 1128,
  "_தர": 1129,
  "son": 1130,
  "ru": 1131,
  "था": 1132,
  "ిన": 1133,
  "ியல்": 1134,
  "జ్యం": 1135,
  "ates": 1136,
  "▁g": 1137,
  "List": 1138,
  "]](https://hi.wikipedia.org/wiki/भारत#cite_": 1139,
  "ear": 1140,
  "▁[ப": 1141,
  "](https://ta.wikipedia.org/wiki/பன்னாட்டுத்": 1142,
  "](https://hi.wikipedia.org/wiki/भारत#cite_ref-": 1143,
  "▁\"பன்னாட்டுத்": 1144,
  "]](https://hi.wikipedia.org/wiki/भारत#cite_note-": 1145,
  "](https://ta.wikipedia.org/wiki/பன்னாட்டுத்_தர": 1146,
  "▁Category:": 1147,
  "▁The": 1148,
  "णी": 1149,
  "fn": 1150,
  "री": 1151,
  "▁எண்\")": 1152,
  "_தொடர்_எண்": 1153,
  "](https://ta.wikipedia.org/wiki/பன்னாட்டுத்_தர_தொடர்_எண்": 1154,
  "ல்க": 1155,
  "▁இரு": 1156,
  "opul": 1157,
  "1.": 1158,
  "ची": 1159,
  "జా": 1160,
  "देश": 1161,
  "gion": 1162,
  "ர்க": 1163,
  "▁ग": 1164,
  "ற்ப": 1165,
  "2009": 1166,
  "ingh": 1167,
  "_T": 1168,
  "ంచ": 1169,
  "కు": 1170,
  "37": 1171,
  "arg": 1172,
  "1998": 1173,
  "ड़": 1174,
  "etri": 1175,
  "▁இது": 1176,
  "▁[ISBN](https://ta.wikipedia.org/wiki/பன்னாட்டுத்_தர_தொடர்_எண்": 1177,
  "60": 1178,
  "](https://te.wikipedia.org/wiki/భారతదేశం": 1179,
  "lic": 1180,
  "_ம": 1181,
  "▁पर": 1182,
  "ha": 1183,
  "▁उ": 1184,
  "BA": 1185,
  "ong": 1186,
  "▁Retri": 1187,
  "▁Retrieved": 1188,
  "nd": 1189,
  "ను": 1190,
  "పూ": 1191,
  "▁ए": 1192,
  "%2C": 1193,
  "ud": 1194,
  "ensus": 1195,
  "2010": 1196,
  "ष्ट": 1197,
  "ाद": 1198,
  "ார்": 1199,
  "▁है।": 1200,
  "▁[978-0-": 1201,
  "QBA": 1202,
  "s,": 1203,
  "]](https://en.wikipedia.org/wiki/India#cite_note-FOOTNOTE": 1204,
  "QBAJ": 1205,
  "ற்கு": 1206,
  "led": 1207,
  "tern": 1208,
  "sher": 1209,
  "భా": 1210,
  "▁[C": 1211,
  "▁श": 1212,
  "_के": 1213,
  "gov": 1214,
  "ke": 1215,
  "▁\"C": 1216,
  "ut": 1217,
  "▁இந்திய": 1218,
  "p.": 1219,
  "ance": 1220,
  "ప్ర": 1221,
  "ரிய": 1222,
  "tim": 1223,
  "log": 1224,
  "all": 1225,
  "_in_India": 1226,
  "க்கிய": 1227,
  "ద్": 1228,
  "ింద": 1229,
  "ையில்": 1230,
  "▁[म": 1231,
  "▁பு": 1232,
  "्रेणी": 1233,
  ".jpg)": 1234,
  "▁de": 1235,
  "AAQBAJ": 1236,
  "_म": 1237,
  "gh": 1238,
  "od": 1239,
  "opulation": 1240,
  "▁ఉ": 1241,
  "श्रेणी": 1242,
  "லைக்க": 1243,
  "ष्ट्र": 1244,
  "ans": 1245,
  "ய்": 1246,
  "▁Press": 1247,
  "ం:": 1248,
  "os": 1249,
  ".jpg/": 1250,
  "Stein": 1251,
  "का": 1252,
  "](http://": 1253,
  "▁सं": 1254,
  "विश": 1255,
  "श्रेणी:": 1256,
  "33": 1257,
  "7.": 1258,
  "over": 1259,
  "▁[M": 1260,
  "Harv": 1261,
  "ll": 1262,
  "4.": 1263,
  "ले": 1264,
  "ore": 1265,
  "▁பா": 1266,
  "errors": 1267,
  "▁ఆ": 1268,
  "ib": 1269,
  "ने": 1270,
  "▁\"ம": 1271,
  "ff": 1272,
  "▁as": 1273,
  "MetcalfMetcalf": 1274,
  "ेत्र": 1275,
  "ங்கள்": 1276,
  "new": 1277,
  ",_": 1278,
  "s.": 1279,
  "▁I": 1280,
  "प्र": 1281,
  "म्": 1282,
  "திய": 1283,
  ").\n": 1284,
  "Category:": 1285,
  "▁pp.": 1286,
  "▁ర": 1287,
  "िल": 1288,
  "டிய": 1289,
  "80": 1290,
  "s-": 1291,
  "சா": 1292,
  "indu": 1293,
  "5.": 1294,
  "df": 1295,
  "_M": 1296,
  "Ro": 1297,
  "](https://en.wikipedia.org/wiki/S": 1298,
  "3.": 1299,
  "మా": 1300,
  "▁సా": 1301,
  "భారతీయ": 1302,
  "9.": 1303,
  "_ந": 1304,
  "land": 1305,
  "వా": 1306,
  "_के_": 1307,
  "▁st": 1308,
  "-10": 1309,
  "தே": 1310,
  "▁इ": 1311,
  "రు": 1312,
  "templ": 1313,
  "▁\"ISBN": 1314,
  "ISBN_(identifier)": 1315,
  "▁[2": 1316,
  "மி": 1317,
  "्या": 1318,
  "திப்ப": 1319,
  "nic": 1320,
  "2007": 1321,
  "90": 1322,
  "ations": 1323,
  "िय": 1324,
  "stan": 1325,
  "▁சம": 1326,
  "▁ஆக": 1327,
  "-p": 1328,
  "56": 1329,
  "ction": 1330,
  "▁[![": 1331,
  "த்தின்": 1332,
  "ame": 1333,
  "250": 1334,
  "వి": 1335,
  "ష్ట": 1336,
  "ార్": 1337,
  "పూ.": 1338,
  "PD": 1339,
  "हि": 1340,
  "ी](https://hi.wikipedia.org/wiki/": 1341,
  "▁\"M": 1342,
  "2008": 1343,
  "ज़": 1344,
  "ால்": 1345,
  "](https://ta.wikipedia.org/wiki/ம": 1346,
  "క్ష": 1347,
  "▁[1": 1348,
  "al_": 1349,
  "2004": 1350,
  "▁[B": 1351,
  "htm": 1352,
  "▁V": 1353,
  "ai": 1354,
  "bot": 1355,
  "-1)": 1356,
  "ated": 1357,
  "▁[↑](https://hi.wikipedia.org/wiki/भारत#cite_ref-": 1358,
  "స్థ": 1359,
  "రిత్ర": 1360,
  "सं": 1361,
  "सा": 1362,
  "77": 1363,
  "ust": 1364,
  "ank": 1365,
  "lish": 1366,
  "als": 1367,
  "▁பிர": 1368,
  "ity": 1369,
  "களின்": 1370,
  "rchive": 1371,
  "umm": 1372,
  "vi": 1373,
  "▁[ம": 1374,
  "*.": 1375,
  "ana": 1376,
  "albot": 1377,
  "1)": 1378,
  "त्त": 1379,
  "▁र": 1380,
  "▁with": 1381,
  "▁\"B": 1382,
  "times": 1383,
  "rchived": 1384,
  "▁no": 1385,
  "og": 1386,
  "▁நி": 1387,
  "న్న": 1388,
  "AAQBAJ&pg=PA": 1389,
  "_அ": 1390,
  "ard": 1391,
  "au": 1392,
  "ொழி": 1393,
  "](https://en.wikipedia.org/wiki/C": 1394,
  "ue": 1395,
  "6.": 1396,
  "றி": 1397,
  "istory": 1398,
  "df)": 1399,
  "_1": 1400,
  "கை": 1401,
  "கப்": 1402,
  "titu": 1403,
  "த்தில்": 1404,
  "▁அமை": 1405,
  "ட்சி": 1406,
  "34": 1407,
  "MetcalfMetcalf2006": 1408,
  "▁University": 1409,
  "▁செ": 1410,
  "▁di": 1411,
  "PDF": 1412,
  "_க": 1413,
  "र्व": 1414,
  "out": 1415,
  "▁(PDF": 1416,
  "ंड": 1417,
  "ஞ்": 1418,
  "த்திய": 1419,
  "ல்கலைக்க": 1420,
  "ல்கலைக்கழ": 1421,
  "_B": 1422,
  "Asher": 1423,
  "\\_with": 1424,
  "_N": 1425,
  "ec": 1426,
  "▁\"த": 1427,
  "க்கி": 1428,
  "திப்பகம்": 1429,
  "](https://te.wikipedia.org/wiki/భారతదేశం#cite_": 1430,
  "\\_with\\_": 1431,
  "em": 1432,
  "िस": 1433,
  "கிற": 1434,
  "மான": 1435,
  "▁\"A": 1436,
  "_R": 1437,
  "▁5": 1438,
  "_p": 1439,
  "గా": 1440,
  "](S": 1441,
  "राष्ट्र": 1442,
  "world": 1443,
  "nment": 1444,
  "ture": 1445,
  "ంట": 1446,
  "కి": 1447,
  "▁it": 1448,
  "conomic": 1449,
  "ஆம்": 1450,
  "மாக": 1451,
  "▁ल": 1452,
  "த்தி": 1453,
  "_G": 1454,
  "oli": 1455,
  "ன.": 1456,
  "▁[த": 1457,
  "](https://ta.wikipedia.org/wiki/த": 1458,
  "ச்சி": 1459,
  "ven": 1460,
  "మ్రా": 1461,
  "▁[P": 1462,
  "ష్ట్ర": 1463,
  "▁[↑](https://en.wikipedia.org/wiki/India#cite_ref-FOOTNOTE": 1464,
  "▁\"க": 1465,
  "▁सा": 1466,
  "குப்பு": 1467,
  "्षेत्र": 1468,
  "\"))": 1469,
  "ati": 1470,
  "ంత": 1471,
  "pecial:BookSources/978-0-": 1472,
  "▁[the": 1473,
  "-in": 1474,
  "▁Asia": 1475,
  "\"](https://web.archive.org/web/201": 1476,
  "cl": 1477,
  "ove": 1478,
  "चि": 1479,
  "வன": 1480,
  "குப்பு:": 1481,
  "ani": 1482,
  "cy": 1483,
  "ash": 1484,
  "मन": 1485,
  "ी_": 1486,
  "▁राज्य": 1487,
  "▁\"P": 1488,
  "▁\"இந்தியா": 1489,
  "ட்டி": 1490,
  "language": 1491,
  "ori": 1492,
  "cont": 1493,
  "](https://en.wikipedia.org/wiki/M": 1494,
  "पा": 1495,
  "்ட்": 1496,
  "/https://www.": 1497,
  ".pdf)": 1498,
  "india.gov": 1499,
  "श्रेणी:Harv": 1500,
  "పు": 1501,
  "ark": 1502,
  "▁–": 1503,
  "000": 1504,
  "_b": 1505,
  "जा": 1506,
  "ைக்": 1507,
  "▁[க": 1508,
  "▁\"म": 1509,
  "ப்படு": 1510,
  "ism": 1511,
  "-b": 1512,
  "8.": 1513,
  "85": 1514,
  "uly": 1515,
  "▁are": 1516,
  "னி": 1517,
  "ுள்ள": 1518,
  "▁3": 1519,
  "▁న": 1520,
  "▁भाषा": 1521,
  "▁இந்தியாவின்": 1522,
  "coun": 1523,
  "ik": 1524,
  "12": 1525,
  "வாக": 1526,
  "ாட": 1527,
  "ோர": 1528,
  "▁4": 1529,
  "ட்டியல்": 1530,
  "▁हैं": 1531,
  "▁that": 1532,
  "మి": 1533,
  "ాన": 1534,
  "ers": 1535,
  "10.": 1536,
  "பகுப்பு:": 1537,
  "▁य": 1538,
  "▁वि": 1539,
  "▁./பகுப்பு:": 1540,
  "Stein1998": 1541,
  "Dw": 1542,
  "](https://en.wikipedia.org/wiki/ISBN_(identifier)": 1543,
  "▁[ISBN](https://en.wikipedia.org/wiki/ISBN_(identifier)": 1544,
  "_s": 1545,
  "னர்": 1546,
  "▁भ": 1547,
  "ine": 1548,
  "పా": 1549,
  "▁ఇ": 1550,
  "▁త": 1551,
  "భాష": 1552,
  "தன்": 1553,
  "னை": 1554,
  "ex": 1555,
  "▁199": 1556,
  "eral": 1557,
  "riti": 1558,
  "ah": 1559,
  "ूची": 1560,
  "](https://ta.wikipedia.org/wiki/க": 1561,
  "ும்.": 1562,
  "mer": 1563,
  "ern": 1564,
  "ss": 1565,
  "▁an": 1566,
  "▁ex": 1567,
  "0.": 1568,
  "aki": 1569,
  "गर": 1570,
  "மம்": 1571,
  "ல்ல": 1572,
  "](https://ta.wikipedia.org/wiki/இந்தியா#cite_ref-FOOTNOTE": 1573,
  "2014": 1574,
  "పాల": 1575,
  "లీ": 1576,
  "ali": 1577,
  "▁was": 1578,
  "▁\"ச": 1579,
  "▁கா": 1580,
  "67": 1581,
  "rad": 1582,
  "lop": 1583,
  "ublic": 1584,
  ")\")": 1585,
  "▁மா": 1586,
  "ற்று": 1587,
  "▁7": 1588,
  "▁దేశ": 1589,
  "స్తా": 1590,
  "▁\"T": 1591,
  "\"\n": 1592,
  "44": 1593,
  "▁ஆண்டு": 1594,
  "dit": 1595,
  "ari": 1596,
  "tics": 1597,
  "Singh": 1598,
  "ेला": 1599,
  "ளி": 1600,
  "వర్": 1601,
  "ాయ": 1602,
  "▁து": 1603,
  "▁வெ": 1604,
  "▁retri": 1605,
  "250px-": 1606,
  "▁retrieved": 1607,
  "-s": 1608,
  "man": 1609,
  "▁[D": 1610,
  "sian": 1611,
  "udd": 1612,
  "हा": 1613,
  "\"](https://www.": 1614,
  "ef": 1615,
  "3)": 1616,
  "ழ்": 1617,
  "ன்று": 1618,
  "ட்டு": 1619,
  "▁கால": 1620,
  "ange": 1621,
  "சியா": 1622,
  "▁language": 1623,
  "ck": 1624,
  "/http://": 1625,
  "CS": 1626,
  "कार": 1627,
  "पर": 1628,
  "விய": 1629,
  "▁कर": 1630,
  "ंग्रे": 1631,
  "rid": 1632,
  "sion": 1633,
  "మ్రాజ్యం": 1634,
  "ult": 1635,
  "59": 1636,
  "क्त": 1637,
  "िर": 1638,
  "ोल": 1639,
  "ணை": 1640,
  "amb": 1641,
  "▁Com": 1642,
  "4)": 1643,
  "ford": 1644,
  "69": 1645,
  "ath": 1646,
  "कि": 1647,
  "मी": 1648,
  "மைய": 1649,
  "ord": 1650,
  "▁பகு": 1651,
  "దేశ్": 1652,
  "vis": 1653,
  "arget": 1654,
  "ess": 1655,
  "_ஆ": 1656,
  "நில": 1657,
  "▁அர": 1658,
  "டிமம்": 1659,
  "டிமம்:": 1660,
  "html": 1661,
  "mb": 1662,
  "ం](https://te.wikipedia.org/wiki/": 1663,
  "indi": 1664,
  "ummit": 1665,
  "▁\"சிறப்பு:BookSources/978-0-": 1666,
  "eng": 1667,
  "](https://ta.wikipedia.org/wiki/சிறப்பு:BookSources/978-0-": 1668,
  "](https://en.wikipedia.org/wiki/B": 1669,
  "▁வே": 1670,
  "ச்ச": 1671,
  "-81": 1672,
  "हिन्द": 1673,
  ".;": 1674,
  "▁July": 1675,
  "shi": 1676,
  "ंध": 1677,
  "ेष": 1678,
  "வெ": 1679,
  "▁\"E": 1680,
  "](https://ta.wikipedia.org/wiki/ச": 1681,
  "](https://hi.wikipedia.org/wiki/म": 1682,
  "க்கப்பட்ட": 1683,
  "2005": 1684,
  "](https://ta.wikipedia.org/wiki/படிமம்:": 1685,
  "Singh2009": 1686,
  "/artic": 1687,
  "ంబ": 1688,
  "టి": 1689,
  "▁\"D": 1690,
  "2)": 1691,
  "par": 1692,
  "▁con": 1693,
  "_E": 1694,
  "ी\")": 1695,
  "▁மி": 1696,
  "▁நில": 1697,
  "ाना": 1698,
  "▁अन": 1699,
  "news/": 1700,
  "▁2014": 1701,
  "▁[978-1": 1702,
  "iki": 1703,
  "द्": 1704,
  "से": 1705,
  "இல்": 1706,
  "டைய": 1707,
  "ంలో": 1708,
  "▁இந்த": 1709,
  "](https://www.": 1710,
  "▁[ச": 1711,
  "esh": 1712,
  "▁क्षेत्र": 1713,
  "▁whi": 1714,
  "స్తాన్": 1715,
  "51": 1716,
  "ile": 1717,
  "try": 1718,
  "onstitu": 1719,
  "-m": 1720,
  "..": 1721,
  "mund": 1722,
  "sv": 1723,
  "tries": 1724,
  "thermund": 1725,
  "ritish": 1726,
  "120": 1727,
  "மெ": 1728,
  "](https://en.wikipedia.org/wiki/P": 1729,
  "ர்\")": 1730,
  "▁18": 1731,
  "▁சு": 1732,
  "र्म": 1733,
  "![](https://upload.wikimedia.org/wikipedia/commons/thumb/": 1734,
  "gen": 1735,
  "ost": 1736,
  "qu": 1737,
  "గు": 1738,
  "డు": 1739,
  "నే": 1740,
  "్చ": 1741,
  "▁2021": 1742,
  "xford": 1743,
  "धान": 1744,
  "वा": 1745,
  "ोत": 1746,
  "தார": 1747,
  "▁2010": 1748,
  "ரிக்க": 1749,
  "pri": 1750,
  "yson": 1751,
  "▁\"List": 1752,
  "ass": 1753,
  "ata": 1754,
  "List_of_": 1755,
  "ate_": 1756,
  "census": 1757,
  "भि": 1758,
  "श्": 1759,
  "பு": 1760,
  "க்கள்": 1761,
  "oh": 1762,
  "మూ": 1763,
  "2003": 1764,
  "్రీ": 1765,
  "anguages": 1766,
  "జాత": 1767,
  "_F": 1768,
  "ece": 1769,
  "ho": 1770,
  "_In": 1771,
  "धार": 1772,
  "ृत": 1773,
  "மு": 1774,
  "▁\"அ": 1775,
  "▁ने": 1776,
  "National": 1777,
  "Talbot": 1778,
  "ding": 1779,
  "\").\n": 1780,
  "ulke": 1781,
  "AsherTalbot": 1782,
  "0%": 1783,
  "pril": 1784,
  "Ar": 1785,
  "PP": 1786,
  "లా": 1787,
  "्रा": 1788,
  "▁மே": 1789,
  "திக": 1790,
  "rap": 1791,
  "சிறப்பு:BookSources/978-1": 1792,
  "ంగా": 1793,
  "▁பொரு": 1794,
  "logy": 1795,
  "ms": 1796,
  "ov": 1797,
  "ficial": 1798,
  "521": 1799,
  "68": 1800,
  "cto": 1801,
  "ing\\_": 1802,
  "▁Octo": 1803,
  "▁October": 1804,
  "co": 1805,
  "fe": 1806,
  "போர": 1807,
  "ளா": 1808,
  "▁o": 1809,
  "ach": 1810,
  "களில்": 1811,
  "doi": 1812,
  "विशेष": 1813,
  "rou": 1814,
  "row": 1815,
  "Kulke": 1816,
  "డ్": 1817,
  "ిల్": 1818,
  "▁జ": 1819,
  "▁we": 1820,
  "▁\"G": 1821,
  "के": 1822,
  "உலக": 1823,
  "▁சி": 1824,
  "▁கோ": 1825,
  "▁தொ": 1826,
  "india-": 1827,
  "लेख": 1828,
  "▁[G": 1829,
  "ire": 1830,
  "sp": 1831,
  "▁li": 1832,
  "ood": 1833,
  "aw": 1834,
  "ன.[[": 1835,
  "ரை": 1836,
  "▁[अ": 1837,
  "▁மூ": 1838,
  "ங்கு": 1839,
  "▁கொண்டு": 1840,
  "▁இருந்த": 1841,
  "ledge": 1842,
  "లి": 1843,
  "▁2": 1844,
  "స్త్ర": 1845,
  "United": 1846,
  "▁U": 1847,
  "▁१": 1848,
  "த்தான": 1849,
  "▁உலக": 1850,
  "ीय_": 1851,
  "▁which": 1852,
  "mis": 1853,
  "▁[R": 1854,
  "ten": 1855,
  "▁\"R": 1856,
  "▁\"The": 1857,
  "conomy": 1858,
  "▁r": 1859,
  "▁17": 1860,
  "Com": 1861,
  "ंद": 1862,
  "ंत्र": 1863,
  "ूल": 1864,
  "ेल": 1865,
  "కా": 1866,
  "ణా": 1867,
  "దక్ష": 1868,
  "ధిక": 1869,
  "▁\"अ": 1870,
  "▁பதிப்பகம்": 1871,
  "ase": 1872,
  "க்ஸ்": 1873,
  "▁ప్రా": 1874,
  "▁Re": 1875,
  "une": 1876,
  "▁వి": 1877,
  "▁ति": 1878,
  "సియా": 1879,
  "▁एक": 1880,
  "జాతీయ": 1881,
  "6)": 1882,
  "hy": 1883,
  "inist": 1884,
  "62": 1885,
  "வே": 1886,
  "▁8": 1887,
  "▁[இந்திய": 1888,
  "▁[भारत": 1889,
  "](https://ta.wikipedia.org/wiki/அ": 1890,
  "▁பல்கலைக்கழ": 1891,
  "ack": 1892,
  "ின்ற": 1893,
  "▁அதிக": 1894,
  "▁पु": 1895,
  "विशेष:": 1896,
  "58": 1897,
  "ome": 1898,
  "ous": 1899,
  "▁South": 1900,
  "43": 1901,
  "ug": 1902,
  "వం": 1903,
  "▁[E": 1904,
  "ties": 1905,
  "▁History": 1906,
  "▁సం": 1907,
  "▁చరిత్ర": 1908,
  "jpg": 1909,
  "ोग": 1910,
  "பா": 1911,
  "ைப்": 1912,
  "C&pg=PA": 1913,
  "RI": 1914,
  "uc": 1915,
  "ree": 1916,
  "lig": 1917,
  "lopment": 1918,
  "hist": 1919,
  "harma": 1920,
  "िण": 1921,
  "கி": 1922,
  "arch": 1923,
  "▁மொழி": 1924,
  "▁உரு": 1925,
  "स्तान": 1926,
  "డి": 1927,
  "end": 1928,
  "ligion": 1929,
  "▁India's": 1930,
  "ஒக்ஸ்": 1931,
  "மானது": 1932,
  "ியா": 1933,
  "ர்கள்": 1934,
  "vision": 1935,
  "போர்ட்": 1936,
  "ஒக்ஸ்போர்ட்": 1937,
  "05": 1938,
  "ral": 1939,
  "val": 1940,
  "](https://en.wikipedia.org/wiki/E": 1941,
  "▁2007": 1942,
  "_ச": 1943,
  "ంధ": 1944,
  "▁com": 1945,
  "▁நீ": 1946,
  "స్త": 1947,
  "▁రాజ్యం": 1948,
  "▁సామ్రాజ్యం": 1949,
  "outledge": 1950,
  "వర్గ": 1951,
  "దక్షి": 1952,
  "▁பல்கலைக்கழகப்": 1953,
  "IN": 1954,
  "57": 1955,
  "a,": 1956,
  "ीप": 1957,
  "்கள்": 1958,
  "ும்,": 1959,
  "▁[T": 1960,
  "](https://en.wikipedia.org/wiki/T": 1961,
  "65": 1962,
  "దీ": 1963,
  "ండి": 1964,
  "వర్గం:": 1965,
  "▁\"स": 1966,
  "india/": 1967,
  "▁has": 1968,
  "▁प्रदेश": 1969,
  "isher": 1970,
  "▁பெரு": 1971,
  "क्षिण": 1972,
  "akistan": 1973,
  "DP": 1974,
  "[![](https://upload.wikimedia.org/wikipedia/commons/thumb/": 1975,
  "▁(201": 1976,
  "\")*.": 1977,
  "1_": 1978,
  "ames": 1979,
  "elhi": 1980,
  "\")*,": 1981,
  "गमन": 1982,
  "थि": 1983,
  "ளர்": 1984,
  "▁ஊ": 1985,
  "▁ஓ": 1986,
  "▁[स": 1987,
  "▁[அ": 1988,
  "ிரை": 1989,
  "ள்ளது.": 1990,
  "illi": 1991,
  "age/": 1992,
  "ublish": 1993,
  "வார்": 1994,
  "▁ஆகிய": 1995,
  "மெரிக்க": 1996,
  "తర": 1997,
  "ది": 1998,
  "▁బ": 1999,
  "▁ter": 2000,
  "/S": 2001,
  "ail": 2002,
  "▁pro": 2003,
  "DwAAQBAJ&pg=PA": 2004,
  "_L": 2005,
  "air": 2006,
  "द्य": 2007,
  "नी": 2008,
  "ी_स": 2009,
  "▁நட": 2010,
  "ிரா": 2011,
  "usin": 2012,
  "▁Hindu": 2013,
  "ேரரசு": 2014,
  "ர்கள": 2015,
  "▁तिथि": 2016,
  "7)": 2017,
  "ed.": 2018,
  "/978": 2019,
  "Pages": 2020,
  "bb": 2021,
  "national": 2022,
  "alth": 2023,
  "▁St": 2024,
  "nic.in/": 2025,
  "-20": 2026,
  "ँच": 2027,
  "यु": 2028,
  "ून": 2029,
  "ట్": 2030,
  "ిత": 2031,
  "▁Ch": 2032,
  "ters": 2033,
  "mpire": 2034,
  ".gov": 2035,
  "▁பொது": 2036,
  "தேச": 2037,
  "_the": 2038,
  "a\")": 2039,
  "iv": 2040,
  "pr": 2041,
  "port": 2042,
  "orth": 2043,
  "odern": 2044,
  "▁its": 2045,
  "%28": 2046,
  "%29": 2047,
  "330": 2048,
  "aper": 2049,
  "ure": 2050,
  "ys": 2051,
  "](https://en.wikipedia.org/wiki/D": 2052,
  "ternational": 2053,
  "ீன": 2054,
  "▁ख": 2055,
  "▁[இ": 2056,
  "his": 2057,
  "ன்ப": 2058,
  "](https://en.wikipedia.org/wiki/A": 2059,
  "▁வா": 2060,
  "▁நாடு": 2061,
  ".jpg)\n": 2062,
  "▁तिथि:": 2063,
  "Pages\\_": 2064,
  "*,": 2065,
  "ne": 2066,
  "▁te": 2067,
  "_చ": 2068,
  "ం\")": 2069,
  "▁\"మ": 2070,
  "inent": 2071,
  "ింది.": 2072,
  "மா": 2073,
  "▁25": 2074,
  "▁26": 2075,
  "tical": 2076,
  "துகா": 2077,
  "▁भारतीय": 2078,
  "india.gov.in/": 2079,
  "▁10": 2080,
  "▁[Archived": 2081,
  ".jpg/250px-": 2082,
  "▁[Archived](https://": 2083,
  "World": 2084,
  "ant": 2085,
  "▁se": 2086,
  "Rothermund": 2087,
  "Wiki": 2088,
  "जन": 2089,
  "ढ़": 2090,
  "धिक": 2091,
  "197": 2092,
  "hel": 2093,
  "▁अभि": 2094,
  "▁देश": 2095,
  "▁\"இந்தியாவில்": 2096,
  "▁अभिगमन": 2097,
  "2_": 2098,
  "▁ఎ": 2099,
  "▁[మ": 2100,
  "any": 2101,
  "▁(సా.శ.పూ.": 2102,
  "1/": 2103,
  "ined": 2104,
  "5)": 2105,
  "9)": 2106,
  "ran": 2107,
  "धर्म": 2108,
  "ணு": 2109,
  "▁பர": 2110,
  "க்கும்": 2111,
  "्री": 2112,
  "्रोत": 2113,
  "▁தொட": 2114,
  "ace": 2115,
  "▁உய": 2116,
  "▁2009": 2117,
  "▁जन": 2118,
  "▁तथा": 2119,
  "▁\"भारतीय": 2120,
  "ave": 2121,
  "▁15": 2122,
  "ound": 2123,
  "/0": 2124,
  "att": 2125,
  "eb": 2126,
  "▁ch": 2127,
  "](https://books.google.com/books?id=": 2128,
  "on-": 2129,
  "###": 2130,
  "ansk": 2131,
  "ती": 2132,
  "त्": 2133,
  "बर": 2134,
  "தாக": 2135,
  "ுக்கு": 2136,
  "ூட்ட": 2137,
  "ధ్య": 2138,
  "▁च": 2139,
  "▁గ": 2140,
  "▁శ": 2141,
  "▁\"क": 2142,
  "ంద్ర": 2143,
  ".jpg)](https://ta.wikipedia.org/wiki/படிமம்:": 2144,
  "▁हैं।": 2145,
  "▁pe": 2146,
  "anu": 2147,
  "berg": 2148,
  "▁An": 2149,
  "▁Aug": 2150,
  "ulture": 2151,
  "▁New": 2152,
  "pecial:BookSources/978-1": 2153,
  "▁August": 2154,
  "empl": 2155,
  "ili": 2156,
  "हर": 2157,
  "ूर्व": 2158,
  "्ल": 2159,
  "வர": 2160,
  "](https://ta.wikipedia.org/wiki/இந்தியாவில்": 2161,
  "▁இட": 2162,
  "anskrit": 2163,
  "▁\"In": 2164,
  "▁2006": 2165,
  "ridge": 2166,
  "ైన": 2167,
  "](https://te.wikipedia.org/wiki/మ": 2168,
  "▁April": 2169,
  "chw": 2170,
  "▁sub": 2171,
  "▁పే": 2172,
  "_d": 2173,
  "वं": 2174,
  "ரோ": 2175,
  "வது": 2176,
  "▁[N": 2177,
  "](https://hi.wikipedia.org/wiki/क": 2178,
  "க்கா": 2179,
  "▁தெ": 2180,
  "स्तक": 2181,
  "ிருந்து": 2182,
  "पुस्तक": 2183,
  "continent": 2184,
  "AsherTalbot2008": 2185,
  "विशेष:पुस्तक": 2186,
  "्रोत/978": 2187,
  "_m": 2188,
  "pend": 2189,
  "198": 2190,
  "98": 2191,
  "Hindu": 2192,
  "_India": 2193,
  "▁May": 2194,
  "मान": 2195,
  "ளைய": 2196,
  "ூர்": 2197,
  "ெடு": 2198,
  "tember": 2199,
  "ater": 2200,
  "िका": 2201,
  "டிப்பட": 2202,
  "▁जा": 2203,
  "eptember": 2204,
  "earch": 2205,
  "](http://www.": 2206,
  "राष्ट्रीय": 2207,
  "द्ध": 2208,
  "100": 2209,
  "a/": 2210,
  "ట్ట": 2211,
  "హింద": 2212,
  "▁భారతదేశం": 2213,
  "](https://en.wikipedia.org/wiki/List_of_": 2214,
  "ign": 2215,
  "ంగ్": 2216,
  "ద్ధ": 2217,
  "inistry": 2218,
  "2023": 2219,
  "isation": 2220,
  "rg": 2221,
  "usi": 2222,
  "दी": 2223,
  "रकार": 2224,
  "हार": 2225,
  "ிழ": 2226,
  "](https://hi.wikipedia.org/wiki/स": 2227,
  "gover": 2228,
  "पुर": 2229,
  "_K": 2230,
  "ope": 2231,
  "▁v": 2232,
  "▁at": 2233,
  "dition": 2234,
  "KulkeRothermund": 2235,
  "Edit": 2236,
  "E0%": 2237,
  "Fisher": 2238,
  "Page/": 2239,
  "les/": 2240,
  "▁un": 2241,
  "](https://en.wikipedia.org/wiki/G": 2242,
  "▁2018": 2243,
  "EditPage/": 2244,
  "ொத்த": 2245,
  "ించ": 2246,
  "▁ఒ": 2247,
  "▁24": 2248,
  "▁राज": 2249,
  "▁భాష": 2250,
  "▁[क": 2251,
  "▁[క": 2252,
  "▁\"ब": 2253,
  "ాల్": 2254,
  "1994": 2255,
  "विश्व": 2256,
  "▁इस": 2257,
  "onstitution": 2258,
  "2-0)": 2259,
  "cat": 2260,
  "o-": 2261,
  "▁ri": 2262,
  "ograp": 2263,
  "ashm": 2264,
  "_3": 2265,
  "▁\"N": 2266,
  "ind": 2267,
  "ament": 2268,
  "ambridge": 2269,
  "_%28": 2270,
  "வர்": 2271,
  "](https://en.wikipedia.org/wiki/R": 2272,
  "ric": 2273,
  "lection": 2274,
  "amil": 2275,
  "ங்காள": 2276,
  "▁मेला": 2277,
  "line": 2278,
  "▁World": 2279,
  "ிரித்தான": 2280,
  "times.com/": 2281,
  "sland": 2282,
  "▁[L": 2283,
  "mission": 2284,
  "4%": 2285,
  "]](https://te.wikipedia.org/wiki/భారతదేశం#cite_": 2286,
  "zberg": 2287,
  "చ్చ": 2288,
  "జీ": 2289,
  "ేంద్ర": 2290,
  "▁\"క": 2291,
  "Harle": 2292,
  "ctor": 2293,
  "artzberg": 2294,
  "](https://te.wikipedia.org/wiki/భారతదేశం#cite_ref-": 2295,
  "chwartzberg": 2296,
  "]](https://te.wikipedia.org/wiki/భారతదేశం#cite_note-": 2297,
  "गु": 2298,
  "▁[K": 2299,
  "tive": 2300,
  "ம்](https://ta.wikipedia.org/wiki/": 2301,
  "க்கள": 2302,
  "▁स्": 2303,
  "▁இர": 2304,
  "▁Archived": 2305,
  "த்_த": 2306,
  "रालेख": 2307,
  "▁சமய": 2308,
  "ram": 2309,
  "overnment": 2310,
  ",000": 2311,
  "-26": 2312,
  "1–": 2313,
  "oi": 2314,
  "▁21": 2315,
  "▁were": 2316,
  "ा_": 2317,
  "िव": 2318,
  "கின்ற": 2319,
  "▁9": 2320,
  "▁\"प": 2321,
  "்த்த": 2322,
  "▁பார": 2323,
  "2001": 2324,
  "▁தே": 2325,
  "▁September": 2326,
  "ையாக": 2327,
  "▁हु": 2328,
  "_की_स": 2329,
  "▁वर्": 2330,
  "_में": 2331,
  ":S": 2332,
  "త్య": 2333,
  "బ్": 2334,
  "మీ": 2335,
  "erv": 2336,
  "](https://te.wikipedia.org/wiki/ద": 2337,
  "్యా": 2338,
  "raven": 2339,
  "రాష్ట్ర": 2340,
  "▁./వర్గం:": 2341,
  "template": 2342,
  "330px-": 2343,
  ".sv": 2344,
  "4-0)": 2345,
  "rec": 2346,
  "▁coun": 2347,
  "evelopment": 2348,
  "1-0)": 2349,
  "bined": 2350,
  "uk": 2351,
  "ध्य": 2352,
  "्च": 2353,
  "சை": 2354,
  "ஜ்": 2355,
  "ழு": 2356,
  "ork": 2357,
  "▁[ब": 2358,
  "ese": 2359,
  "ப்பி": 2360,
  "](https://hi.wikipedia.org/wiki/अ": 2361,
  "ical": 2362,
  "ury": 2363,
  "र्थ": 2364,
  "ticles": 2365,
  "स्क": 2366,
  "ंग्रेज़": 2367,
  "RICS": 2368,
  "துகாப்பு": 2369,
  "रालेखित": 2370,
  "121": 2371,
  "3-0)": 2372,
  "8/": 2373,
  "bo": 2374,
  "roup": 2375,
  "File": 2376,
  "how": 2377,
  "ज्": 2378,
  "வல்": 2379,
  "ஸ்த": 2380,
  "ంక": 2381,
  "ప్": 2382,
  "యు": 2383,
  "ில்லி": 2384,
  "ill": 2385,
  "▁\"Special:BookSources/978-0-": 2386,
  "do-": 2387,
  "తంత్ర": 2388,
  "கிறது.": 2389,
  "](Special:BookSources/978-0-": 2390,
  "▁भी": 2391,
  "ளாதார": 2392,
  "దక్షిణ": 2393,
  "oci": 2394,
  "2000": 2395,
  "ople": 2396,
  "Articles": 2397,
  "-t": 2398,
  ".nic.in/": 2399,
  "Dyson": 2400,
  "por": 2401,
  "tro": 2402,
  "year": 2403,
  "now": 2404,
  "outh_A": 2405,
  "/p": 2406,
  "_भारत": 2407,
  "ces": 2408,
  "थान": 2409,
  "हास": 2410,
  "िट": 2411,
  "िश": 2412,
  "▁தலை": 2413,
  "▁cent": 2414,
  "iron": 2415,
  "irst": 2416,
  "▁June": 2417,
  "▁இந்தியாவில்": 2418,
  "imes": 2419,
  "चित्र": 2420,
  ":[": 2421,
  "government": 2422,
  "/A": 2423,
  "2/": 2424,
  "_స": 2425,
  "తము": 2426,
  "వే": 2427,
  "ష్": 2428,
  "ాన్": 2429,
  "▁\"Indian": 2430,
  "ofindia.": 2431,
  "స్క": 2432,
  "▁Metcalf": 2433,
  "ిల్లీ": 2434,
  "rary": 2435,
  "द्र": 2436,
  "फ़": 2437,
  "ुख": 2438,
  "கர்": 2439,
  "மன்ற": 2440,
  "](https://hi.wikipedia.org/wiki/ब": 2441,
  "ும்.[[": 2442,
  "ப்புரு": 2443,
  "ையின்": 2444,
  "▁2019": 2445,
  "uring": 2446,
  "கள்\")": 2447,
  "ிருந்த": 2448,
  "▁கொண்ட": 2449,
  "ongress": 2450,
  "▁./பகுப்பு:Pages\\_": 2451,
  "Combined": 2452,
  "_4": 2453,
  "_W": 2454,
  "arli": 2455,
  "urope": 2456,
  "_and_": 2457,
  "2018),": 2458,
  "▁(PDF)": 2459,
  "▁ad": 2460,
  "▁India:": 2461,
  "▁2012": 2462,
  "▁region": 2463,
  "_by": 2464,
  "ublishing": 2465,
  "-to": 2466,
  "शिया": 2467,
  "ீவு": 2468,
  "\"))\n": 2469,
  "▁இய": 2470,
  "ங்கி": 2471,
  "](https://hi.wikipedia.org/wiki/भारत_में": 2472,
  "த்துறை": 2473,
  "▁பகுதி": 2474,
  "வார்ப்புரு": 2475,
  "help": 2476,
  "_Indian": 2477,
  "viron": 2478,
  "జి": 2479,
  "ధాన": 2480,
  "బె": 2481,
  "king": 2482,
  "ారు": 2483,
  "lob": 2484,
  "▁కా": 2485,
  "-2)": 2486,
  "▁రాజ": 2487,
  "vironment": 2488,
  "_H": 2489,
  "▁0.": 2490,
  "ice": 2491,
  "-in-": 2492,
  "%E0%": 2493,
  "1,": 2494,
  "31": 2495,
  "cms": 2496,
  "oc": 2497,
  "rin": 2498,
  "ीन": 2499,
  "ஐக்கிய": 2500,
  "நா": 2501,
  "மீ": 2502,
  "ழி": 2503,
  "▁ஏ": 2504,
  "pedia": 2505,
  "▁\"இ": 2506,
  "2019": 2507,
  "ved": 2508,
  "▁सम": 2509,
  "▁உற்ப": 2510,
  "▁हि": 2511,
  "மைப்பு": 2512,
  "ேர்த": 2513,
  "त्तर": 2514,
  "ஞ்ச": 2515,
  "/c": 2516,
  "er,": 2517,
  "aste": 2518,
  "▁En": 2519,
  "7-1": 2520,
  "_at": 2521,
  "▁16": 2522,
  "▁2008": 2523,
  "▁2022": 2524,
  "RC": 2525,
  "_உ": 2526,
  "मिल": 2527,
  "ुस": 2528,
  "దు": 2529,
  "మ్": 2530,
  "శ్": 2531,
  "த்தை": 2532,
  "▁கட": 2533,
  "](https://te.wikipedia.org/wiki/క": 2534,
  "▁सूची": 2535,
  "▁வர": 2536,
  "్యవ": 2537,
  "ంది.": 2538,
  "▁குறி": 2539,
  "▁2011\n": 2540,
  "▁போது": 2541,
  "ikshi": 2542,
  "udden": 2543,
  "_చరిత్ర": 2544,
  "ikshit": 2545,
  "-language": 2546,
  "500": 2547,
  "ich": 2548,
  "ron": 2549,
  "▁6": 2550,
  "▁\"O": 2551,
  "▁2023": 2552,
  "matics": 2553,
  "32": 2554,
  "▁22": 2555,
  "▁\"K": 2556,
  "arti": 2557,
  "_Press": 2558,
  "ecember": 2559,
  "ris": 2560,
  "रु": 2561,
  "ूच": 2562,
  "ूर": 2563,
  "ணிய": 2564,
  "தல்": 2565,
  "வும்": 2566,
  "▁[प": 2567,
  "\\_errors": 2568,
  "▁நூ": 2569,
  "umber": 2570,
  "-80": 2571,
  "▁குடிய": 2572,
  "▁23": 2573,
  "cre": 2574,
  "yn": 2575,
  "ఢిల్లీ": 2576,
  "పంచ": 2577,
  "](File": 2578,
  "▁\"L": 2579,
  "alay": 2580,
  "](https://en.wikipedia.org/wiki/N": 2581,
  "ారి": 2582,
  "uman": 2583,
  "▁Ro": 2584,
  "మూస": 2585,
  "_இ": 2586,
  "कर": 2587,
  "ते": 2588,
  "நாட்டு": 2589,
  "▁[3": 2590,
  "ம்ஸ்": 2591,
  "▁सरकार": 2592,
  "▁அல்ல": 2593,
  "_and_S": 2594,
  "ளையாட்டு": 2595,
  "ashmir": 2596,
  "▁அல்லது": 2597,
  "min": 2598,
  "odi": 2599,
  "▁le": 2600,
  "▁[In": 2601,
  "ourn": 2602,
  "leshow": 2603,
  "leshow/": 2604,
  "▁errors": 2605,
  "▁this": 2606,
  "▁([help": 2607,
  "▁[978-0-19": 2608,
  "usic": 2609,
  "▁errors\"))\n": 2610,
  "JP": 2611,
  "NG": 2612,
  "पाल": 2613,
  "हु": 2614,
  "ा:": 2615,
  "ैद": 2616,
  "ोक": 2617,
  "டன்": 2618,
  "▁घ": 2619,
  "▁२": 2620,
  "▁பிற": 2621,
  "▁மலை": 2622,
  "▁Chin": 2623,
  "ங்கை": 2624,
  "](https://en.wikipedia.org/wiki/India#cite_ref-FOOTNOTE": 2625,
  "▁तक": 2626,
  "ffair": 2627,
  "साँच": 2628,
  "किस्तान": 2629,
  "8)": 2630,
  "వు": 2631,
  "▁\"భారతీయ": 2632,
  "rop": 2633,
  "▁have": 2634,
  "ibrary": 2635,
  "▁(PDF).": 2636,
  "illion": 2637,
  "las": 2638,
  "–1": 2639,
  "cies": 2640,
  "](https://en.wikipedia.org/wiki/In": 2641,
  "▁India,": 2642,
  "▁pl": 2643,
  "230": 2644,
  "10.10": 2645,
  "-21": 2646,
  "6-0)": 2647,
  "ght": 2648,
  "rac": 2649,
  "्ड": 2650,
  "டப்பட்ட": 2651,
  "பி": 2652,
  "ரச": 2653,
  "வ்": 2654,
  "▁[Metcalf": 2655,
  "ally": 2656,
  "்கள": 2657,
  "▁பட்டியல்": 2658,
  "ர்ந்த": 2659,
  "and\\_": 2660,
  "▁மக்கள்": 2661,
  "\\_and\\_": 2662,
  "](https://hi.wikipedia.org/wiki/भारतीय_": 2663,
  "ண்டா": 2664,
  "▁December": 2665,
  "▁ஒன்ற": 2666,
  "டைம்ஸ்": 2667,
  "ப்படும்": 2668,
  "▁நிறு": 2669,
  "ிரைப்பட": 2670,
  "டிப்படையில்": 2671,
  "thno": 2672,
  "▁[*The": 2673,
  "anuary": 2674,
  "4–": 2675,
  "na": 2676,
  "ple": 2677,
  "▁\"H": 2678,
  "ley": 2679,
  "▁India.": 2680,
  "view": 2681,
  "parame": 2682,
  "-f": 2683,
  "pic": 2684,
  "sc": 2685,
  "न\")": 2686,
  "सम": 2687,
  "జన": 2688,
  "టు": 2689,
  "టె": 2690,
  "▁[ந": 2691,
  "்க்க": 2692,
  "act": 2693,
  "▁இல": 2694,
  "▁Population": 2695,
  "▁ஆறு": 2696,
  "ों_की_स": 2697,
  "▁చె": 2698,
  "నాయ": 2699,
  "–సా.శ.పూ.": 2700,
  "ower": 2701,
  "▁ఆర్": 2702,
  "పాలిత": 2703,
  "श्चि": 2704,
  "స్త్రం:": 2705,
  "▁ప్రాంత": 2706,
  "ేంద్రపాలిత": 2707,
  "](https://te.wikipedia.org/wiki/దస్త్రం:": 2708,
  ".\"\n": 2709,
  "5-0)": 2710,
  "mar": 2711,
  "s\")": 2712,
  "ves": 2713,
  "ority": 2714,
  "entre": 2715,
  "▁Asian": 2716,
  "▁languages": 2717,
  ":EditPage/": 2718,
  "Sharma": 2719,
  "ton": 2720,
  "aman": 2721,
  "1997": 2722,
  "duc": 2723,
  "%2F": 2724,
  "▁not": 2725,
  "Sfn": 2726,
  "_c": 2727,
  "_19": 2728,
  "ओं": 2729,
  "गण": 2730,
  "ीं": 2731,
  "ूप": 2732,
  "தா": 2733,
  "ேற்கு": 2734,
  "▁Y": 2735,
  "▁si": 2736,
  "▁\"ந": 2737,
  "eneral": 2738,
  "](https://hi.wikipedia.org/wiki/प": 2739,
  "▁அரசு": 2740,
  "ையானது": 2741,
  "களை": 2742,
  "identifiers": 2743,
  "archived": 2744,
  "ங்களில்": 2745,
  "▁பொ.": 2746,
  "]](https://hi.wikipedia.org/wiki/भारत#cite_note-FOOTNOTE": 2747,
  "▁பிரதேச": 2748,
  "▁பொருளாதார": 2749,
  "▁ஊ.": 2750,
  "emplate": 2751,
  ".html": 2752,
  "5_": 2753,
  "get": 2754,
  "ph": 2755,
  "ped": 2756,
  "▁[W": 2757,
  "▁Ar": 2758,
  "▁[*A": 2759,
  "article": 2760,
  "](File:": 2761,
  "-g": 2762,
  "ఖ్య": 2763,
  "గో": 2764,
  "తో": 2765,
  "బి": 2766,
  "హి": 2767,
  "▁error": 2768,
  "radition": 2769,
  "▁original](https://www.": 2770,
  "olitical": 2771,
  "స్కృ": 2772,
  "▁error:": 2773,
  "_language": 2774,
  "रब": 2775,
  "्स": 2776,
  "கர": 2777,
  "இந்தியா)": 2778,
  "▁किया": 2779,
  "नाम": 2780,
  "சிறப்பு:BookSources/978-81": 2781,
  "Stein2010": 2782,
  "_के_राज्य": 2783,
  "radesh": 2784,
  "/http://www.": 2785,
  "ंदिर": 2786,
  "ournal": 2787,
  "86": 2788,
  "eh": 2789,
  "ote": 2790,
  "▁k": 2791,
  "rits": 2792,
  "lim": 2793,
  "▁2016": 2794,
  ".com/news/": 2795,
  "dust": 2796,
  "web.archive.org/web/20": 2797,
  "avid": 2798,
  "-of": 2799,
  "76": 2800,
  "_templ": 2801,
  "▁template": 2802,
  "▁[H": 2803,
  "cience": 2804,
  "ool": 2805,
  "no-t": 2806,
  "\\_no-t": 2807,
  "ide": 2808,
  "▁Sfn": 2809,
  "peration": 2810,
  "▁target": 2811,
  "fn_templ": 2812,
  "country": 2813,
  "arget\\_errors": 2814,
  "ate_errors": 2815,
  "history": 2816,
  "_and_Sfn_templ": 2817,
  "\\_and\\_Sfn": 2818,
  "\\_no-target\\_errors": 2819,
  "▁target:": 2820,
  "_and_Sfn_template_errors": 2821,
  "\\_and\\_Sfn\\_no-target\\_errors": 2822,
  "\\_and\\_Sfn\\_no-target\\_errors\n": 2823,
  "415": 2824,
  "53": 2825,
  "73": 2826,
  "CN": 2827,
  "_प्र": 2828,
  "are": 2829,
  "bi": 2830,
  "जी": 2831,
  "दक्षिण": 2832,
  "ष्": 2833,
  "ணா": 2834,
  "▁ர": 2835,
  "▁படி": 2836,
  "▁தா": 2837,
  "▁இத": 2838,
  "ats": 2839,
  "▁Pro": 2840,
  "_பட்டியல்": 2841,
  "▁January": 2842,
  "्वीप": 2843,
  "ிறி": 2844,
  "▁இந்தியப்": 2845,
  "மிழ்": 2846,
  "னர்.": 2847,
  "ज्ञ": 2848,
  "-c": 2849,
  "-l": 2850,
  "9-0)": 2851,
  "_ప": 2852,
  "c=": 2853,
  "fficial": 2854,
  "హా": 2855,
  "ి.\n": 2856,
  "▁al": 2857,
  "▁ag": 2858,
  "▁ను": 2859,
  "▁జాతీయ": 2860,
  "▁2017": 2861,
  "▁Pl": 2862,
  "oll": 2863,
  "▁[Stein": 2864,
  "ritory": 2865,
  "%20%20": 2866,
  "doi.org/": 2867,
  "్యవస్థ": 2868,
  "▁[19": 2869,
  "2012": 2870,
  "\\_identifiers": 2871,
  "▁CITEREF": 2872,
  "mple": 2873,
  "hindu": 2874,
  "Ch": 2875,
  "ंजा": 2876,
  "ख्या": 2877,
  "वन": 2878,
  "ென்ன": 2879,
  "▁\"F": 2880,
  "India.": 2881,
  "](https://en.wikipedia.org/wiki/K": 2882,
  "](https://en.wikipedia.org/wiki/Indian": 2883,
  "▁பேரரசு": 2884,
  "2016": 2885,
  "▁இரா": 2886,
  "ப்புற": 2887,
  "▁நாட": 2888,
  "▁சே": 2889,
  "210": 2890,
  "▁2020": 2891,
  "न्न": 2892,
  "ம்பரிய": 2893,
  "▁உள்ளது.": 2894,
  ".jpg/330px-": 2895,
  "_நாடு": 2896,
  "▁[2](https://ta.wikipedia.org/wiki/இந்தியா#cite_ref-FOOTNOTE": 2897,
  "▁[1](https://ta.wikipedia.org/wiki/இந்தியா#cite_ref-FOOTNOTE": 2898,
  "▁भाषा\")": 2899,
  "▁खाना": 2900,
  "%E0%A": 2901,
  "ों_की_सूची": 2902,
  "ंजाब": 2903,
  "pt": 2904,
  "pur": 2905,
  "uri": 2906,
  "▁ar": 2907,
  "org": 2908,
  "ature": 2909,
  "AARC": 2910,
  "ell": 2911,
  "%2C_": 2912,
  "box": 2913,
  "e/": 2914,
  "mi": 2915,
  "ution": 2916,
  "▁year": 2917,
  "int": 2918,
  "lear": 2919,
  "uclear": 2920,
  "-d": 2921,
  "2–": 2922,
  "7/": 2923,
  "7-0)": 2924,
  "88": 2925,
  "uj": 2926,
  "बसे": 2927,
  "ुल": 2928,
  "డా": 2929,
  "దా": 2930,
  "బడ": 2931,
  "మే": 2932,
  "రణ": 2933,
  "▁<": 2934,
  "▁లో": 2935,
  "▁\"சிறப்பு:BookSources/978-1": 2936,
  "ந்தை": 2937,
  "](https://ta.wikipedia.org/wiki/சிறப்பு:BookSources/978-1": 2938,
  "▁their": 2939,
  "ेंद्र": 2940,
  "](https://hi.wikipedia.org/wiki/भारत_क": 2941,
  "▁కూ": 2942,
  "ాలు,": 2943,
  "▁రాష్ట్ర": 2944,
  "▁இருந்து": 2945,
  "▁गया": 2946,
  "కిస్తాన్": 2947,
  "ovember": 2948,
  "▁राज्यों": 2949,
  "rade": 2950,
  "▁மாநில": 2951,
  "▁Commission": 2952,
  "▁அரசிய": 2953,
  "▁చరిత్ర\")": 2954,
  "▁subcontinent": 2955,
  "-19": 2956,
  "-28": 2957,
  "han": 2958,
  "▁28": 2959,
  "tem": 2960,
  "etwe": 2961,
  "Union": 2962,
  "ories": 2963,
  "tent": 2964,
  "ographi": 2965,
  "ffairs": 2966,
  "etween": 2967,
  "fter": 2968,
  "ale": 2969,
  "\\_parame": 2970,
  "ural": 2971,
  "▁[\"India": 2972,
  "contain": 2973,
  "/articleshow/": 2974,
  "81": 2975,
  "_வ": 2976,
  "ocial": 2977,
  "tal": 2978,
  "चल": 2979,
  "बंध": 2980,
  "ணக்க": 2981,
  "ளவு": 2982,
  "▁ட": 2983,
  "asia": 2984,
  "ள்நாட்டு": 2985,
  "ங்கா": 2986,
  "▁sfn": 2987,
  "▁हो": 2988,
  "▁नि": 2989,
  "न्द्र": 2990,
  "ாளு": 2991,
  "▁[मूल": 2992,
  "ियों": 2993,
  "▁அமைப்பு": 2994,
  "india.gov.in": 2995,
  "மையான": 2996,
  "▁இந்து": 2997,
  "%7": 2998,
  "99": 2999,
  "rish": 3000,
  "▁[O": 3001,
  "annic": 3002,
  "▁Talbot": 3003,
  "-40": 3004,
  "able": 3005,
  "indiatimes.com/": 3006,
  "ritannic": 3007,
  "argest": 3008,
  "▁ఈ": 3009,
  "▁భారత": 3010,
  "▁into": 3011,
  "▁13": 3012,
  "▁me": 3013,
  "igh": 3014,
  "త్రి": 3015,
  "ాలు\")": 3016,
  "ాలు](https://te.wikipedia.org/wiki/": 3017,
  "nglish": 3018,
  "▁original](https://": 3019,
  "logue": 3020,
  "ters#": 3021,
  "thnologue": 3022,
  "\\_parameters#": 3023,
  "Schwartzberg": 3024,
  "fic": 3025,
  "ya": 3026,
  "ब्": 3027,
  "िन": 3028,
  "ிட்ட": 3029,
  "ுக": 3030,
  "ேம்ப": 3031,
  "▁'": 3032,
  "ond": 3033,
  "ந்திய": 3034,
  "cient": 3035,
  "1970": 3036,
  "▁सबसे": 3037,
  "▁வட": 3038,
  "▁வரு": 3039,
  "ையும்": 3040,
  "low": 3041,
  "▁ஆற்ற": 3042,
  "ண்ண": 3043,
  "ண்ப": 3044,
  "▁என்று": 3045,
  "ालय": 3046,
  "स्था": 3047,
  "ruary": 3048,
  "चीन": 3049,
  "also": 3050,
  "timesofindia.": 3051,
  "ohn": 3052,
  "▁पुरालेखित": 3053,
  "ebruary": 3054,
  "lobal": 3055,
  "▁सूची\")": 3056,
  "timesofindia.indiatimes.com/": 3057,
  "▁पुरालेखित।": 3058,
  "▁30": 3059,
  "time": 3060,
  "etail": 3061,
  "anges": 3062,
  "-317": 3063,
  "Robb": 3064,
  "120px-": 3065,
  "containing\\_": 3066,
  "7_": 3067,
  "BC": 3068,
  "uis": 3069,
  "▁en": 3070,
  "▁per": 3071,
  "▁government": 3072,
  "eds.": 3073,
  "here": 3074,
  "▁March": 3075,
  "censusindia.gov.in/": 3076,
  "CE": 3077,
  "Craven": 3078,
  "_f": 3079,
  "athe": 3080,
  "utt": 3081,
  "जरा": 3082,
  "ेव": 3083,
  "ैन": 3084,
  "மய": 3085,
  "](https://ta.wikipedia.org/wiki/இ": 3086,
  "](https://hi.wikipedia.org/wiki/चित्र": 3087,
  "\\_im": 3088,
  "ும்ப": 3089,
  "▁வீ": 3090,
  "▁இவை": 3091,
  "▁1.": 3092,
  "க்_க": 3093,
  "ிலிருந்து": 3094,
  "_பல்கலைக்கழ": 3095,
  "ियाँ": 3096,
  "▁முறை": 3097,
  "](https://ta.wikipedia.org/wiki/இந்திய_": 3098,
  "क्ति": 3099,
  "வெளி": 3100,
  "▁கொண்டுள்ளது.": 3101,
  "▁அதிகரி": 3102,
  "Articles\\_with\\_": 3103,
  "JPG": 3104,
  "ணக்கெடு": 3105,
  "Craven1997": 3106,
  "74": 3107,
  "79": 3108,
  "_క": 3109,
  "fr": 3110,
  "తు": 3111,
  "పతి": 3112,
  "▁ని": 3113,
  "▁స్థ": 3114,
  "▁[F": 3115,
  "▁[అ": 3116,
  "▁[ప": 3117,
  "▁\"భారతదేశం": 3118,
  "anisation": 3119,
  "omen": 3120,
  "్రి": 3121,
  "▁Se": 3122,
  "▁[↑](https://te.wikipedia.org/wiki/భారతదేశం#cite_ref-": 3123,
  "using\\_": 3124,
  "ర్వ": 3125,
  "files/": 3126,
  "న్ని": 3127,
  "ayan": 3128,
  "map": 3129,
  "▁February": 3130,
  "▁K.": 3131,
  "మిళ": 3132,
  "వంశ": 3133,
  "Harle1994": 3134,
  "300": 3135,
  "_2": 3136,
  "olic": 3137,
  "ugh": 3138,
  "ini": 3139,
  "▁**[": 3140,
  "epublic": 3141,
  "/article": 3142,
  "olicy": 3143,
  "प्त": 3144,
  "ोर": 3145,
  "।[[": 3146,
  "கப்_ப": 3147,
  "லு": 3148,
  "ாண்ட": 3149,
  "▁ac": 3150,
  "▁27": 3151,
  "▁also": 3152,
  "▁[उ": 3153,
  "இந்து": 3154,
  "\\_s": 3155,
  "ourt": 3156,
  "▁2004": 3157,
  "▁जिस": 3158,
  "▁प्रा": 3159,
  "▁பெரிய": 3160,
  "லாய": 3161,
  "स्थान": 3162,
  "▁பகுதிய": 3163,
  "▁மிகப்": 3164,
  "பாய்": 3165,
  "ளர்ச்சி": 3166,
  "ुसार": 3167,
  "dom": 3168,
  "dus": 3169,
  "old": 3170,
  "▁[doi": 3171,
  "ade": 3172,
  "aint": 3173,
  "▁been": 3174,
  "-re": 3175,
  "-25": 3176,
  "jab": 3177,
  "▁but": 3178,
  "rovision": 3179,
  "countries": 3180,
  "uropean": 3181,
  "C),": 3182,
  "Dikshit": 3183,
  "ID": 3184,
  "_మ": 3185,
  "_భాష": 3186,
  "च्च": 3187,
  "ण्ड": 3188,
  "वरी": 3189,
  "வற்ற": 3190,
  "ோர்": 3191,
  "ఫ్": 3192,
  "▁స్": 3193,
  "▁ed.": 3194,
  "▁[బ": 3195,
  "▁[స": 3196,
  "▁\"అ": 3197,
  "one": 3198,
  "](https://ta.wikipedia.org/wiki/ந": 3199,
  "estern": 3200,
  "](https://en.wikipedia.org/wiki/H": 3201,
  "▁பே": 3202,
  "▁பிரி": 3203,
  "▁கார": 3204,
  "▁தொழ": 3205,
  "entral": 3206,
  "▁2015": 3207,
  "▁between": 3208,
  "](https://hi.wikipedia.org/wiki/भारत#CITEREF": 3209,
  "ources": 3210,
  "న్నాయ": 3211,
  "depend": 3212,
  "குடிய": 3213,
  "olper": 3214,
  "▁కాల": 3215,
  "_सं": 3216,
  "ులు](https://te.wikipedia.org/wiki/": 3217,
  "▁है।\n": 3218,
  "▁பாதுகாப்பு": 3219,
  "▁రై": 3220,
  "MetcalfMetcalf2006),": 3221,
  "▁साथ": 3222,
  "▁மிக": 3223,
  "▁2021.\n": 3224,
  "▁உருவா": 3225,
  "హిందూ": 3226,
  "](https://hi.wikipedia.org/wiki/भारत_में_": 3227,
  "ேர்தல்": 3228,
  "▁நூற்ற": 3229,
  "ிரைப்படத்துறை": 3230,
  "Schwartzberg2023": 3231,
  "censusindia.gov.in/2011": 3232,
  "_பல்கலைக்கழகப்_ப": 3233,
  "DikshitSchwartzberg2023": 3234,
  "olpert": 3235,
  "_பல்கலைக்கழகப்_பதிப்பகம்": 3236,
  "-23": 3237,
  "_I": 3238,
  "_re": 3239,
  "ata.": 3240,
  "cc": 3241,
  "\").[[": 3242,
  "cite": 3243,
  "2017": 3244,
  "1996": 3245,
  "dex": 3246,
  "▁1950": 3247,
  "usines": 3248,
  "ystem": 3249,
  "▁countries": 3250,
  "UN": 3251,
  "ft": 3252,
  "ung": 3253,
  "▁world": 3254,
  "▁Empire": 3255,
  "91": 3256,
  "je": 3257,
  "rans": 3258,
  "आई": 3259,
  "ाम": 3260,
  "னம்": 3261,
  "ப்த": 3262,
  "வங்காள": 3263,
  "▁था": 3264,
  "▁1998": 3265,
  "▁धर्म": 3266,
  "▁\"J": 3267,
  "▁\"श्रेणी:Harv": 3268,
  "](https://hi.wikipedia.org/wiki/श्रेणी:Harv": 3269,
  "▁सि": 3270,
  "▁Census": 3271,
  "site": 3272,
  "ங்கில": 3273,
  "க்_": 3274,
  "▁first": 3275,
  "ிரசு": 3276,
  "டுத்த": 3277,
  "याल": 3278,
  "semb": 3279,
  "ட்ஜ்": 3280,
  "ற்கா": 3281,
  "्वर": 3282,
  "▁./श्रेणी:Harv": 3283,
  "eport": 3284,
  "▁आधार": 3285,
  "_மொழி": 3286,
  "▁संघ": 3287,
  "தேசிய": 3288,
  "auth": 3289,
  "पाकिस्तान": 3290,
  "KulkeRothermund2004": 3291,
  "▁பாரம்பரிய": 3292,
  "வார்ப்புரு:": 3293,
  "▁([help](https://hi.wikipedia.org/wiki/श्रेणी:Harv": 3294,
  "_and_Sfn_template_errors?action=edit&redlink=1": 3295,
  "ிறிட்ஜ்": 3296,
  "ேம்பிறிட்ஜ்": 3297,
  "▁./श्रेणी:Harv\\_and\\_Sfn\\_no-target\\_errors\n": 3298,
  "▁([help](https://hi.wikipedia.org/wiki/श्रेणी:Harv_and_Sfn_template_errors?action=edit&redlink=1": 3299,
  "89": 3300,
  "a-": 3301,
  "kar": 3302,
  "ok": 3303,
  "](https://en.wikipedia.org/wiki/L": 3304,
  "ument": 3305,
  "\"](https://books.google.com/books?id=": 3306,
  "▁[*India": 3307,
  "owland": 3308,
  "articles": 3309,
  "▁2014.\n": 3310,
  "arliament": 3311,
  "84": 3312,
  "ఆసియా": 3313,
  "ద్ర": 3314,
  "భూ": 3315,
  "మె": 3316,
  "య్య": 3317,
  "ర్య": 3318,
  "▁ల": 3319,
  "wing": 3320,
  "▁\"ప": 3321,
  "▁\"బ": 3322,
  "▁\"స": 3323,
  "amp": 3324,
  "▁cons": 3325,
  "▁2024": 3326,
  "త్త": 3327,
  "University_Press": 3328,
  "▁అధిక": 3329,
  "▁ప్రదేశ్": 3330,
  "ప్రదేశ్": 3331,
  "▁నుండి": 3332,
  "\".": 3333,
  "_-": 3334,
  "_20": 3335,
  "ute": 3336,
  "की": 3337,
  "णा": 3338,
  "तंत्र": 3339,
  "्ला": 3340,
  "க்த": 3341,
  "ூபாய்": 3342,
  "ெரு": 3343,
  "▁us": 3344,
  "▁विश्व": 3345,
  "tel": 3346,
  "▁\"उ": 3347,
  "](https://hi.wikipedia.org/wiki/उ": 3348,
  "க்கோ": 3349,
  "▁population": 3350,
  "्यट": 3351,
  "ச்சிய": 3352,
  "ाली": 3353,
  "ட்ப": 3354,
  "form": 3355,
  "ங்களை": 3356,
  "▁\"இந்தியாவின்": 3357,
  "श्मी": 3358,
  "▁பதிப்பகம்\"),": 3359,
  "▁<https://": 3360,
  "2),": 3361,
  "6–": 3362,
  "IA": 3363,
  "az": 3364,
  "lor": 3365,
  "ology": 3366,
  "ann": 3367,
  "-17": 3368,
  "chno": 3369,
  "templates": 3370,
  "gency": 3371,
  "▁[Archived](https://web.archive.org/web/201": 3372,
  "1-0": 3373,
  "y,": 3374,
  "y-": 3375,
  "▁wi": 3376,
  "eration": 3377,
  "▁Publishing": 3378,
  "ulti": 3379,
  "ritories": 3380,
  "8-0)": 3381,
  "93": 3382,
  "TR": 3383,
  "_V": 3384,
  "iver": 3385,
  "ंब": 3386,
  "गढ़": 3387,
  "ज्य": 3388,
  "तमिल": 3389,
  "दा": 3390,
  "भी": 3391,
  "वे": 3392,
  "ांग": 3393,
  "ेर": 3394,
  "மான்": 3395,
  "ர்த்த": 3396,
  "▁[J": 3397,
  "esearch": 3398,
  "्रिट": 3399,
  "rick": 3400,
  "](https://ta.wikipedia.org/wiki/இந்தியாவின்": 3401,
  "▁கட்ட": 3402,
  "▁Sh": 3403,
  "▁14": 3404,
  "▁अधिक": 3405,
  "ராச": 3406,
  "▁முதல்": 3407,
  "तिहास": 3408,
  "▁விளையாட்டு": 3409,
  "▁செய": 3410,
  "▁१९": 3411,
  "▁பெரும்ப": 3412,
  "▁ஓர்": 3413,
  "युक्त": 3414,
  "स्कृत": 3415,
  "▁हिन्द": 3416,
  "dustry": 3417,
  "ாளுமன்ற": 3418,
  "/India": 3419,
  "Nav": 3420,
  "bank": 3421,
  "la": 3422,
  "ణి": 3423,
  "తమిళ": 3424,
  "మైన": 3425,
  "హార": 3426,
  "ోర్": 3427,
  "▁\"ఇ": 3428,
  "▁\"భారత": 3429,
  "](https://en.wikipedia.org/wiki/F": 3430,
  "](https://te.wikipedia.org/wiki/బ": 3431,
  "idd": 3432,
  "sical": 3433,
  "▁co": 3434,
  "▁Th": 3435,
  "▁ab": 3436,
  "▁మొ": 3437,
  "akh": 3438,
  "నాగ": 3439,
  "త్తర": 3440,
  "ులు\")": 3441,
  "శ్మీ": 3442,
  "మూస:": 3443,
  "Qu": 3444,
  "_to": 3445,
  "ks": 3446,
  "▁Cambridge": 3447,
  "usiness": 3448,
  ".as": 3449,
  "124": 3450,
  "_O": 3451,
  "bar": 3452,
  "f/": 3453,
  "van": 3454,
  "में": 3455,
  "रे": 3456,
  "ஃப்": 3457,
  "ணைய": 3458,
  "னா": 3459,
  "வான": 3460,
  "al_P": 3461,
  "▁(eds.": 3462,
  "iss": 3463,
  "196": 3464,
  "▁மொத்த": 3465,
  "▁கட்டு": 3466,
  "\\_templates": 3467,
  "▁मान": 3468,
  "urr": 3469,
  "ள்ளது.[[": 3470,
  "ட்ச": 3471,
  "▁बाद": 3472,
  "▁முன்ன": 3473,
  "्वार": 3474,
  "▁குறை": 3475,
  "िल्ल": 3476,
  "னைத்து": 3477,
  "engal": 3478,
  "्राज्य": 3479,
  "Wikipedia": 3480,
  "▁2006](https://ta.wikipedia.org/wiki/இந்தியா#CITEREF": 3481,
  "மிழ்ந": 3482,
  "](https://hi.wikipedia.org/wiki/चित्र:": 3483,
  "2,": 3484,
  "4-7": 3485,
  ";\n": 3486,
  "pp": 3487,
  "wo": 3488,
  "▁over": 3489,
  "ince": 3490,
  "▁India*](https://books.google.com/books?id=": 3491,
  "umar": 3492,
  "▁National": 3493,
  "▁\"South": 3494,
  "ingham": 3495,
  "▁Island": 3496,
  "-to-": 3497,
  "3),": 3498,
  "detail": 3499,
  "gra": 3500,
  "rib": 3501,
  "edu": 3502,
  "unjab": 3503,
  "▁1947": 3504,
  "▁Oxford": 3505,
  "▁years": 3506,
  "chnology": 3507,
  "_இந்திய": 3508,
  "_और": 3509,
  "imp": 3510,
  "एं": 3511,
  "वर्": 3512,
  "शास": 3513,
  "றிய": 3514,
  "வையாக": 3515,
  "ேப": 3516,
  "ொரு": 3517,
  "శా": 3518,
  "ైనా": 3519,
  "▁[ఇ": 3520,
  "▁\"జ": 3521,
  "\"):": 3522,
  "than": 3523,
  "ந்திர": 3524,
  "eser": 3525,
  "▁பல": 3526,
  "இந்தியா\n": 3527,
  "▁कार": 3528,
  "▁மக்கள": 3529,
  "▁கூ": 3530,
  "](https://te.wikipedia.org/wiki/ఇ": 3531,
  "](https://te.wikipedia.org/wiki/స": 3532,
  "-14": 3533,
  "▁வழ": 3534,
  "▁வணி": 3535,
  "▁1,": 3536,
  "▁2013": 3537,
  "edic": 3538,
  "భారత_": 3539,
  "▁*The": 3540,
  "రాజ": 3541,
  "లో](https://te.wikipedia.org/wiki/": 3542,
  "రిజ": 3543,
  "క్కు": 3544,
  "ட்சிய": 3545,
  "▁...": 3546,
  "▁For": 3547,
  "ండ్": 3548,
  "doc": 3549,
  "क्षेत्र": 3550,
  "माण": 3551,
  "ड़ा": 3552,
  "ார்.": 3553,
  "▁शास": 3554,
  ".jpg)](https://te.wikipedia.org/wiki/దస్త్రం:": 3555,
  "म्ब": 3556,
  "▁साम": 3557,
  "▁यह": 3558,
  "▁./பகுப்பு:Articles\\_with\\_": 3559,
  "▁[भारतीय": 3560,
  "▁தேசிய": 3561,
  ".svg": 3562,
  "▁உற்பத்தி": 3563,
  "స్కృతి": 3564,
  "ज्ञान": 3565,
  "ுகலாய": 3566,
  "7,": 3567,
  "▁all": 3568,
  "wealth": 3569,
  "urton": 3570,
  "▁\"Special:BookSources/978-1": 3571,
  "ake": 3572,
  "▁(identifier)\"):[": 3573,
  "artment": 3574,
  "](Special:BookSources/978-1": 3575,
  "worldbank": 3576,
  "55": 3577,
  "ies": 3578,
  "ned": 3579,
  "ose": 3580,
  "a.gov": 3581,
  "▁Development": 3582,
  "▁other": 3583,
  "-50": 3584,
  "CO": 3585,
  "UCN": 3586,
  "_भाषा": 3587,
  "emple": 3588,
  "gar": 3589,
  "तर": 3590,
  "ाट": 3591,
  "ள்க": 3592,
  "▁थ": 3593,
  "▁டைம்ஸ்": 3594,
  "](https://web.archive.org/web/201": 3595,
  "▁[உ": 3596,
  "▁\"विशेष:पुस्तक": 3597,
  "ியாக": 3598,
  "thehindu": 3599,
  "](https://hi.wikipedia.org/wiki/ISBN_(identifier)": 3600,
  "](https://hi.wikipedia.org/wiki/विशेष:पुस्तक": 3601,
  "த்தான்": 3602,
  "▁स्रोत/978": 3603,
  "▁வடி": 3604,
  "ானவை": 3605,
  "▁पा": 3606,
  "▁Pradesh": 3607,
  "](https://hi.wikipedia.org/wiki/भारत_के_": 3608,
  "sha": 3609,
  "▁[ISBN](https://hi.wikipedia.org/wiki/ISBN_(identifier)": 3610,
  "लाई": 3611,
  "_स्रोत/978": 3612,
  "▁./श्रेणी:": 3613,
  "▁./Category:": 3614,
  ".png": 3615,
  "_के_आ": 3616,
  "▁लि": 3617,
  "▁Asia\")": 3618,
  "cyc": 3619,
  "▁உலகின்": 3620,
  "ணுவ": 3621,
  "Dyson2018": 3622,
  "साँचा:": 3623,
  "श्चिम": 3624,
  "ांग्ला": 3625,
  "](https://hi.wikipedia.org/wiki/विशेष:पुस्तक_स्रोत/978": 3626,
  "3_": 3627,
  "_st": 3628,
  "ls": 3629,
  "▁es": 3630,
  "andard": 3631,
  "▁12": 3632,
  "rah": 3633,
  "ross": 3634,
  "itz": 3635,
  "▁BCE": 3636,
  "otals": 3637,
  "▁during": 3638,
  "ritsch": 3639,
  "4/": 3640,
  "New": 3641,
  "bn": 3642,
  "d/": 3643,
  "data.": 3644,
  "gy": 3645,
  "oor": 3646,
  "ం?action=edit&redlink=1": 3647,
  "చే": 3648,
  "బా": 3649,
  "▁[జ": 3650,
  "](https://en.wikipedia.org/wiki/O": 3651,
  "off": 3652,
  "1947": 3653,
  "▁పా": 3654,
  "▁more": 3655,
  "▁వా": 3656,
  "ండు": 3657,
  "▁చూ": 3658,
  "త్వ": 3659,
  "▁[Asher": 3660,
  "ప్రధాన": 3661,
  "▁తే": 3662,
  "▁Comp": 3663,
  "_India.": 3664,
  "ligi": 3665,
  "ujar": 3666,
  "iddle": 3667,
  "_J": 3668,
  "pib": 3669,
  "va": 3670,
  "ंप": 3671,
  "मुख": 3672,
  "தம": 3673,
  "ிலை": 3674,
  "▁राष्ट्रीय": 3675,
  "▁archived": 3676,
  "▁\"W": 3677,
  "▁\"ஆ": 3678,
  "▁\"தி": 3679,
  "aran": 3680,
  "](https://ta.wikipedia.org/wiki/தி": 3681,
  "ம்,": 3682,
  "ough": 3683,
  "▁வந்த": 3684,
  "▁C.": 3685,
  "▁அக": 3686,
  "ையை": 3687,
  "▁Pakistan": 3688,
  "dep": 3689,
  "▁2003": 3690,
  "▁जु": 3691,
  "▁है,": 3692,
  "ेश्वर": 3693,
  "ாலி": 3694,
  "த்துவ": 3695,
  "imf": 3696,
  "harat": 3697,
  "▁उप": 3698,
  "னித": 3699,
  "▁यु": 3700,
  "▁மூல": 3701,
  "▁comp": 3702,
  "त्प": 3703,
  "ிழக்கு": 3704,
  "गुजरा": 3705,
  "nown": 3706,
  "ूचना": 3707,
  "▁பட்டியல்\")": 3708,
  "▁நிறுவன": 3709,
  "Sharma2007": 3710,
  "_प्रदेश": 3711,
  "्रिटिश": 3712,
  "545": 3713,
  "c.": 3714,
  "▁29": 3715,
  "▁Con": 3716,
  "▁Al": 3717,
  "chin": 3718,
  "chool": 3719,
  "▁R.": 3720,
  "_of_C": 3721,
  "_of_the": 3722,
  "▁2001": 3723,
  "▁J.": 3724,
  "▁[978-81": 3725,
  "epartment": 3726,
  ".jpg)](File:": 3727,
  "ummit\")": 3728,
  "-le": 3729,
  "IUCN": 3730,
  "Template": 3731,
  "_University_Press": 3732,
  "tain": 3733,
  "▁$": 3734,
  "\")**": 3735,
  "1950": 3736,
  "come": 3737,
  "ilg": 3738,
  "160": 3739,
  "formatics": 3740,
  "▁national": 3741,
  "arket": 3742,
  "▁language\")": 3743,
  "CS1": 3744,
  "-78": 3745,
  "4-0": 3746,
  "5]](https://ta.wikipedia.org/wiki/இந்தியா#cite_note-FOOTNOTE": 3747,
  "71": 3748,
  ">.\n": 3749,
  "K:": 3750,
  "_14": 3751,
  "_पर": 3752,
  "ui": 3753,
  "काल": 3754,
  "बाद": 3755,
  "रक्ष": 3756,
  "वाद": 3757,
  "ाष्ट्र": 3758,
  "ागर": 3759,
  "ोर्": 3760,
  "ஜி": 3761,
  "லிய": 3762,
  "▁ஐ": 3763,
  "kim": 3764,
  "▁[सं": 3765,
  "tec": 3766,
  "▁கணக்கெடு": 3767,
  "▁தோ": 3768,
  "logo": 3769,
  "ண்ட்": 3770,
  "िक्ष": 3771,
  "avi": 3772,
  "▁பெற்ற": 3773,
  "_मेला": 3774,
  "नेमा": 3775,
  "னர்.[[": 3776,
  "धार_पर": 3777,
  "द्योग": 3778,
  "हाराष्ट्र": 3779,
  "ிரித்தானிய": 3780,
  "ஸ்தான்": 3781,
  "sembly": 3782,
  "_के_आधार_पर": 3783,
  "_के_आधार_पर_भारत": 3784,
  "-n": 3785,
  "S.": 3786,
  "_సా": 3787,
  "_ter": 3788,
  "jpg/": 3789,
  "zation": 3790,
  "ంప": 3791,
  "కో": 3792,
  "గణ": 3793,
  "దిన": 3794,
  "నై": 3795,
  "రీ": 3796,
  "▁\"చ": 3797,
  "es,": 3798,
  "andhi": 3799,
  "](https://te.wikipedia.org/wiki/జ": 3800,
  "ారం": 3801,
  "▁Min": 3802,
  "▁most": 3803,
  "▁Di": 3804,
  "cond": 3805,
  "▁క్రీ": 3806,
  "▁[\"C": 3807,
  "క్‌": 3808,
  "నికి": 3809,
  "fore": 3810,
  "ల్ల": 3811,
  "ంగీ": 3812,
  "▁సి": 3813,
  "నాభా": 3814,
  "జాబి": 3815,
  ".jpg/120px-": 3816,
  "▁[![](https://upload.wikimedia.org/wikipedia/commons/thumb/": 3817,
  "jpg)": 3818,
  "▁శా": 3819,
  "rganisation": 3820,
  "▁భాష\")": 3821,
  "బెంగ": 3822,
  "rishn": 3823,
  "జాబితా": 3824,
  ",NG": 3825,
  "-29": 3826,
  "DD": 3827,
  "stitu": 3828,
  "t-": 3829,
  "](https://en.wikipedia.org/wiki/J": 3830,
  "▁Constitution": 3831,
  "agar": 3832,
  "resid": 3833,
  "umbai": 3834,
  "meric": 3835,
  "110": 3836,
  "4]](https://ta.wikipedia.org/wiki/இந்தியா#cite_note-FOOTNOTE": 3837,
  "En": 3838,
  "a)": 3839,
  "ae": 3840,
  "ds": 3841,
  "hat": 3842,
  "press": 3843,
  "uch": 3844,
  "एशिया": 3845,
  "ली": 3846,
  "கார": 3847,
  "டா": 3848,
  "தை": 3849,
  "வட": 3850,
  "ொது": 3851,
  "▁ஜ": 3852,
  "▁[[": 3853,
  "ப்பா": 3854,
  "ப்பாட்ட": 3855,
  "▁கூட்ட": 3856,
  "▁स्व": 3857,
  "▁Act": 3858,
  "▁मंदिर": 3859,
  "्यव": 3860,
  "▁சட்ட": 3861,
  "▁உண": 3862,
  "▁உள்நாட்டு": 3863,
  "118": 3864,
  "-88": 3865,
  "▁दक्षिण": 3866,
  "ंगा": 3867,
  "ம்பி": 3868,
  "ணிக்க": 3869,
  "%20இந்தியா\n": 3870,
  "ated\\_parameters#": 3871,
  "ஞ்சிய": 3872,
  "\\_with\\_dep": 3873,
  "ீனா": 3874,
  "ூர்வ": 3875,
  "recated\\_parameters#": 3876,
  "ंग्रेज़ी": 3877,
  "▁./பகுப்பு:Pages\\_containing\\_": 3878,
  "▁पुरालेखित।.": 3879,
  "▁காரண": 3880,
  "cite\\_templates": 3881,
  "▁जुलाई": 3882,
  "_के_आधार_पर_भारत_के_राज्य": 3883,
  "\\_with\\_deprecated\\_parameters#": 3884,
  "▁./பகுப்பு:Pages\\_containing\\_cite\\_templates": 3885,
  "\\_with\\_deprecated\\_parameters#%20இந்தியா\n": 3886,
  "▁./பகுப்பு:Pages\\_containing\\_cite\\_templates\\_with\\_deprecated\\_parameters#%20இந்தியா\n": 3887,
  "119": 3888,
  "3/": 3889,
  "Ludden": 3890,
  "ban": 3891,
  "orther": 3892,
  "](https://doi.org/": 3893,
  "2015": 3894,
  "leg": 3895,
  "▁par": 3896,
  "▁system": 3897,
  "▁form": 3898,
  "ative": 3899,
  "_summit": 3900,
  "rown": 3901,
  "outh_Asia": 3902,
  "ropped": 3903,
  "orthern": 3904,
  "/auth": 3905,
  "1-4": 3906,
  "127": 3907,
  "54": 3908,
  "EX": 3909,
  "rag": 3910,
  "\");": 3911,
  "asi": 3912,
  "▁Congress": 3913,
  "▁Sanskrit": 3914,
  "▁November": 3915,
  "-90": 3916,
  "under": 3917,
  "▁Environment": 3918,
  "-ஆ": 3919,
  ".htm": 3920,
  "3%": 3921,
  "_n": 3922,
  "lang": 3923,
  "ta": 3924,
  "तेल": 3925,
  "ीस": 3926,
  "००": 3927,
  "தம்": 3928,
  "தற்கு": 3929,
  "யு": 3930,
  "றவு": 3931,
  "ொகை": 3932,
  "చల్": 3933,
  "యన్": 3934,
  "షు": 3935,
  "ూర్": 3936,
  "▁नाम": 3937,
  "▁[ஆ": 3938,
  "▁[ஐ": 3939,
  "▁[చ": 3940,
  "▁[భారత": 3941,
  "▁[భారతీయ": 3942,
  "encies": 3943,
  "ந்தி": 3944,
  "▁பய": 3945,
  "▁கரு": 3946,
  "▁கிரா": 3947,
  "](https://te.wikipedia.org/wiki/ప": 3948,
  "](https://te.wikipedia.org/wiki/భారతీయ": 3949,
  "ార్ట": 3950,
  "lia": 3951,
  "▁இதன்": 3952,
  "▁pri": 3953,
  "ాలయ": 3954,
  "▁पूर्व": 3955,
  "ண்.": 3956,
  "1999": 3957,
  "▁अप": 3958,
  "▁என்ப": 3959,
  "ments": 3960,
  "content": 3961,
  "22)": 3962,
  "नाग": 3963,
  "▁Hindi": 3964,
  "క్క": 3965,
  "▁వ్యవస్థ": 3966,
  "▁ము": 3967,
  "ండో": 3968,
  "ముంబ": 3969,
  "▁विक": 3970,
  "▁பெய": 3971,
  "సిన": 3972,
  "2006),": 3973,
  "](https://ta.wikipedia.org/wiki/இந்திய_அ": 3974,
  "▁போட்டி": 3975,
  "ినల్": 3976,
  "ద్ద": 3977,
  "▁ఉన్న": 3978,
  "▁ఉన్నాయ": 3979,
  "▁Press\").": 3980,
  "▁It": 3981,
  "▁ஆகும்.": 3982,
  "▁[↑](https://hi.wikipedia.org/wiki/भारत#cite_ref-FOOTNOTE": 3983,
  "களின்_பட்டியல்": 3984,
  "▁रूप": 3985,
  "▁நிலை": 3986,
  "పాకిస్తాన్": 3987,
  "ంధీ": 3988,
  "▁देशों": 3989,
  "▁ఒక": 3990,
  "▁ఒరిజ": 3991,
  "వంశం": 3992,
  "▁தொழில்": 3993,
  "censusindia.gov.in/2011census": 3994,
  "Navbox": 3995,
  "▁வடிவ": 3996,
  "▁తేదీ": 3997,
  "ార్టీ": 3998,
  "▁ఒరిజినల్": 3999,
  "5–": 4000,
  "64": 4001,
  "72": 4002,
  "75": 4003,
  "_2011": 4004,
  "yle": 4005,
  "pear": 4006,
  "▁[t": 4007,
  "ering": 4008,
  "India)": 4009,
  "ister": 4010,
  "adesh": 4011,
  "▁Times": 4012,
  "286": 4013,
  "▁British": 4014,
  "▁bec": 4015,
  "hism": 4016,
  "42": 4017,
  "cri": 4018,
  "lations": 4019,
  "ssembly": 4020,
  "tates": 4021,
  "▁S.": 4022,
  "▁war": 4023,
  "▁who": 4024,
  "▁English": 4025,
  "monwealth": 4026,
  "▁later": 4027,
  "AAJ": 4028,
  "▁than": 4029,
  "▁new": 4030,
  "▁tradition": 4031,
  "clu": 4032,
  "athak": 4033,
  "inistry_of_": 4034,
  ".JPG": 4035,
  "2]](https://ta.wikipedia.org/wiki/இந்தியா#cite_note-FOOTNOTE": 4036,
  "Vi": 4037,
  "ele": 4038,
  "ंक": 4039,
  "टे": 4040,
  "धी": 4041,
  "ोन": 4042,
  "ெற்கா": 4043,
  "ௌத்த": 4044,
  "▁ref": 4045,
  "▁2.": 4046,
  "ந்தமான்": 4047,
  "alley": 4048,
  "▁பி": 4049,
  "ப்பை": 4050,
  "ार्": 4051,
  "▁कि": 4052,
  "க்கம்": 4053,
  "த்தர": 4054,
  "த்திர": 4055,
  "life": 4056,
  "▁வை": 4057,
  "▁விரி": 4058,
  "inguis": 4059,
  "ங்கம்": 4060,
  "▁நு": 4061,
  "▁ஆண்ட": 4062,
  "▁after": 4063,
  "ird": 4064,
  "_(இந்தியா)": 4065,
  "▁East": 4066,
  "▁one": 4067,
  "ंगाल": 4068,
  "▁तट": 4069,
  "▁न्या": 4070,
  "ப்_பேரரசு": 4071,
  "_Delhi": 4072,
  "▁एवं": 4073,
  "ப்படுகிற": 4074,
  "▁வரலா": 4075,
  "▁சேர்ந்த": 4076,
  "%E0%A4%": 4077,
  "श्मीर": 4078,
  "्यवस्था": 4079,
  "Bl": 4080,
  "LA": 4081,
  "Provision": 4082,
  "hp": 4083,
  "ite": 4084,
  "ner": 4085,
  "oth": 4086,
  "vid": 4087,
  "vol": 4088,
  "ymb": 4089,
  "▁res": 4090,
  "atar": 4091,
  "adu": 4092,
  "angl": 4093,
  "▁Modern": 4094,
  "road": 4095,
  "llchin": 4096,
  "▁\"Doi": 4097,
  "Fisher2018": 4098,
  "oi_(identifier)": 4099,
  "ociet": 4100,
  "ligious": 4101,
  "fric": 4102,
  "pl": 4103,
  "జ్": 4104,
  "వరి": 4105,
  "శ్చ": 4106,
  "ిన్న": 4107,
  "ెల": 4108,
  "▁tri": 4109,
  "▁ru": 4110,
  "▁\"భారతదేశ": 4111,
  "cis": 4112,
  "్రె": 4113,
  "▁Pe": 4114,
  "uslim": 4115,
  "▁2005": 4116,
  "▁Economic": 4117,
  "ాలు\n": 4118,
  "నిస్తాన్": 4119,
  "▁మధ్య": 4120,
  "](https://te.wikipedia.org/wiki/భారతదేశంలో": 4121,
  "▁states": 4122,
  "స్థాన్": 4123,
  "▁3,": 4124,
  "▁పేజీ": 4125,
  "మ్మూ": 4126,
  "ehru": 4127,
  "%7c": 4128,
  "▁\"భారతదేశంలో": 4129,
  "▁చూసిన": 4130,
  "▁తేదీ:": 4131,
  "శ్చి": 4132,
  "▁పేజీని": 4133,
  "313": 4134,
  "Library": 4135,
  "rar": 4136,
  "ल\")": 4137,
  "सद": 4138,
  "பெ": 4139,
  "மே": 4140,
  "ாட்சி": 4141,
  "ூக": 4142,
  "▁j": 4143,
  "▁[I": 4144,
  "▁[न": 4145,
  "▁[இந்தியா": 4146,
  "▁\"द": 4147,
  "▁\"உ": 4148,
  "ந்தா": 4149,
  "city": 4150,
  "▁பின்": 4151,
  "▁केंद्र": 4152,
  "▁கல": 4153,
  "▁அடிப்படையில்": 4154,
  "சிந்து": 4155,
  "▁part": 4156,
  "ற்றி": 4157,
  "▁சா": 4158,
  "▁M.": 4159,
  "्तर": 4160,
  "-30": 4161,
  "aylor": 4162,
  "ிலான": 4163,
  "▁Nations": 4164,
  "भाग": 4165,
  "ங்களின்": 4166,
  "▁எண்ணிக்க": 4167,
  "▁two": 4168,
  "ரியா": 4169,
  "संख्या": 4170,
  "ஞ்சா": 4171,
  "த்திற்கு": 4172,
  "ப்படுகிறது.": 4173,
  "▁अनुसार": 4174,
  "▁प्रदेश\")": 4175,
  "▁स्थ": 4176,
  "▁குறிப்பி": 4177,
  "crease": 4178,
  "▁பேரரசு\")": 4179,
  "குடியரசு": 4180,
  "-india": 4181,
  "/s": 4182,
  "RL": 4183,
  "_18": 4184,
  "mu": 4185,
  "page": 4186,
  "▁[Indian": 4187,
  "▁\"I": 4188,
  "ones": 4189,
  "religion": 4190,
  "ests": 4191,
  "ise": 4192,
  "-00": 4193,
  "▁P.": 4194,
  "▁Per": 4195,
  "26)": 4196,
  "▁number": 4197,
  "ortal": 4198,
  "ligence": 4199,
  "▁News": 4200,
  "telligence": 4201,
  ".n": 4202,
  "3TR": 4203,
  "Re": 4204,
  "_with": 4205,
  "busines": 4206,
  "ration": 4207,
  "tionary": 4208,
  "▁(*": 4209,
  "as,": 4210,
  "▁Ara": 4211,
  "rain": 4212,
  "240": 4213,
  "▁D.": 4214,
  "abad": 4215,
  "_Centre": 4216,
  "▁state": 4217,
  "2001),": 4218,
  "artition": 4219,
  "ujarat": 4220,
  "3TRt": 4221,
  "1]](https://ta.wikipedia.org/wiki/இந்தியா#cite_note-FOOTNOTE": 4222,
  "3]](https://ta.wikipedia.org/wiki/இந்தியா#cite_note-FOOTNOTE": 4223,
  "52": 4224,
  "Raj": 4225,
  "Rowland": 4226,
  "_for": 4227,
  "if": 4228,
  "iter": 4229,
  "oon": 4230,
  "udi": 4231,
  "एँ": 4232,
  "एस": 4233,
  "खा": 4234,
  "गो": 4235,
  "चे": 4236,
  "लि": 4237,
  "सी": 4238,
  "ैक": 4239,
  "ोड़": 4240,
  "னால்": 4241,
  "வண": 4242,
  "ஷ்": 4243,
  "ுடன்": 4244,
  "▁up": 4245,
  "▁[हिन्द": 4246,
  "▁[ஒக்ஸ்போர்ட்": 4247,
  "▁\"ஒக்ஸ்போர்ட்": 4248,
  "ins": 4249,
  "ியம்": 4250,
  "](https://ta.wikipedia.org/wiki/ஆ": 4251,
  "](https://ta.wikipedia.org/wiki/ஒக்ஸ்போர்ட்": 4252,
  "்டு": 4253,
  "▁பண்ப": 4254,
  "ार्ट": 4255,
  "▁கல்": 4256,
  "ங்கிரசு": 4257,
  "▁India\"),": 4258,
  "▁मूल": 4259,
  "_of_2011": 4260,
  "ச்சு": 4261,
  "களுக்கு": 4262,
  "विधान": 4263,
  "▁जो": 4264,
  "▁[\"The": 4265,
  "▁बहु": 4266,
  "▁सेना": 4267,
  "_Paper": 4268,
  "வாய": 4269,
  "▁*[தி": 4270,
  "லாம்": 4271,
  "_Totals": 4272,
  "ड़ी": 4273,
  "▁[978-0-521": 4274,
  "opulation_Totals": 4275,
  "म्बर": 4276,
  "_1_of_2011": 4277,
  "Stein1998),": 4278,
  "▁भू": 4279,
  "▁துணை": 4280,
  "▁\"சிறப்பு:BookSources/978-0-19": 4281,
  "](https://ta.wikipedia.org/wiki/சிறப்பு:BookSources/978-0-19": 4282,
  "▁பொருட": 4283,
  "▁கோடி": 4284,
  "▁தொகை": 4285,
  "▁பதிப்பகம்](https://ta.wikipedia.org/wiki/ஒக்ஸ்போர்ட்": 4286,
  "▁ஆகியவை": 4287,
  "▁[Archived](https://web.archive.org/web/20": 4288,
  "धिकार": 4289,
  "▁./பகுப்பு:Pages\\_using\\_": 4290,
  "ீவுகள்": 4291,
  "ரசின்": 4292,
  "ென்னி": 4293,
  "க்தி": 4294,
  "्यटन": 4295,
  ".aspx": 4296,
  "al_Population_Totals": 4297,
  "details/": 4298,
  "Provisional_Population_Totals": 4299,
  "Rowland1970": 4300,
  "_Paper_1_of_2011": 4301,
  "▁பதிப்பகம்](https://ta.wikipedia.org/wiki/ஒக்ஸ்போர்ட்_பல்கலைக்கழகப்_பதிப்பகம்": 4302,
  "Provisional_Population_Totals_Paper_1_of_2011": 4303,
  "Provisional_Population_Totals_Paper_1_of_2011_India": 4304,
  "Wolpert": 4305,
  "ey": 4306,
  "her": 4307,
  "most": 4308,
  "oy": 4309,
  "wal": 4310,
  "షన్": 4311,
  "హ్": 4312,
  "ెలు": 4313,
  "in-": 4314,
  "alli": 4315,
  "▁(20": 4316,
  "](https://te.wikipedia.org/wiki/అ": 4317,
  "urve": 4318,
  "resent": 4319,
  "duction": 4320,
  "రియా": 4321,
  "▁మార్": 4322,
  "▁northern": 4323,
  "▁*[The": 4324,
  "_Com": 4325,
  ".php": 4326,
  "ప్రపంచ": 4327,
  "osed": 4328,
  "▁సంస్కృతి": 4329,
  "jpg)\n": 4330,
  "దీవ": 4331,
  "▁century": 4332,
  "lassical": 4333,
  "▁Commissioner": 4334,
  "langoff": 4335,
  "ymbol": 4336,
  "angladesh": 4337,
  ".uk": 4338,
  ".fr": 4339,
  "87": 4340,
  "ael": 4341,
  "back": 4342,
  "iri": 4343,
  "tin": 4344,
  "▁under": 4345,
  "▁[e": 4346,
  "tex": 4347,
  "tig": 4348,
  "ised": 4349,
  "▁they": 4350,
  ".svg/": 4351,
  "ichael": 4352,
  "timesofindia.indiatimes.com/india/": 4353,
  ".svg.png": 4354,
  "ociety": 4355,
  "adi": 4356,
  "eg": 4357,
  "ii": 4358,
  "nat": 4359,
  "ua": 4360,
  "तिक": 4361,
  "दू": 4362,
  "भू": 4363,
  "श्री": 4364,
  "ीत": 4365,
  "ील": 4366,
  "ண்கள்": 4367,
  "நாட": 4368,
  "ீப": 4369,
  "ைப்ப": 4370,
  "▁hi": 4371,
  "▁ro": 4372,
  "்தொகை": 4373,
  "ப்பீ": 4374,
  "ould": 4375,
  "க்கால": 4376,
  "▁official": 4377,
  "ased": 4378,
  "ama": 4379,
  "▁வளர்ச்சி": 4380,
  "▁அறி": 4381,
  "▁அதன்": 4382,
  "▁11": 4383,
  "▁Public": 4384,
  "00)": 4385,
  "லைமை": 4386,
  "களும்": 4387,
  "களாக": 4388,
  "▁Bi": 4389,
  "மைக்": 4390,
  "नाथ": 4391,
  "_क्षेत्र": 4392,
  "▁had": 4393,
  "▁முடி": 4394,
  "asting": 4395,
  "▁एशिया": 4396,
  "ய்வு": 4397,
  "▁துற": 4398,
  "▁अन्य": 4399,
  "_For": 4400,
  "▁நாடுகளின்": 4401,
  "▁tex": 4402,
  "▁people": 4403,
  "▁வணிக": 4404,
  "](https://ta.wikipedia.org/wiki/தி_": 4405,
  "गुजरात": 4406,
  "resident": 4407,
  ",[[": 4408,
  "677": 4409,
  "EO": 4410,
  "MF": 4411,
  "lam": 4412,
  "ze": 4413,
  "▁50": 4414,
  "▁[v": 4415,
  "reat": 4416,
  "rief": 4417,
  "inger": 4418,
  "loy": 4419,
  "hindi": 4420,
  "olitics": 4421,
  "2003),": 4422,
  "▁States": 4423,
  "avidson": 4424,
  "inguistic": 4425,
  "2-1": 4426,
  "C-0": 4427,
  "can": 4428,
  "economic": 4429,
  "gl": 4430,
  "tary": 4431,
  "▁million": 4432,
  "28)": 4433,
  "def": 4434,
  "ountry": 4435,
  "_Development": 4436,
  "ndaman": 4437,
  "▁term": 4438,
  "-of-": 4439,
  ".org": 4440,
  "123": 4441,
  "6/": 4442,
  "Hindi": 4443,
  "PC": 4444,
  "Pan": 4445,
  "_5": 4446,
  "_இந்தியா": 4447,
  "data": 4448,
  "fo": 4449,
  "jan": 4450,
  "अन": 4451,
  "जय": 4452,
  "टक": 4453,
  "पी": 4454,
  "पति": 4455,
  "मह": 4456,
  "रो": 4457,
  "ेस": 4458,
  "கமாக": 4459,
  "டல்": 4460,
  "மலை": 4461,
  "யிர": 4462,
  "ாநில": 4463,
  "ிர்": 4464,
  "ெய": 4465,
  "ం\"),": 4466,
  "ంత్రి": 4467,
  "ఆఫ్": 4468,
  "కత": 4469,
  "కై": 4470,
  "క్య": 4471,
  "దాయ": 4472,
  "రే": 4473,
  "లంక": 4474,
  "వీ": 4475,
  "శ్రీ": 4476,
  "షి": 4477,
  "సు": 4478,
  "▁ड": 4479,
  "▁फ": 4480,
  "▁ఏ": 4481,
  "▁time": 4482,
  "a.com/": 4483,
  "ttar": 4484,
  "▁[द": 4485,
  "▁[సి": 4486,
  "▁\"[": 4487,
  "203": 4488,
  "▁படை": 4489,
  "ல்லை": 4490,
  "ப்பின்": 4491,
  "ட்டம்": 4492,
  "-06": 4493,
  "த்தது.[[": 4494,
  "▁காட்ட": 4495,
  "](https://te.wikipedia.org/wiki/చ": 4496,
  "▁அடி": 4497,
  "▁நா": 4498,
  "▁நடு": 4499,
  "స్సా": 4500,
  "▁పరి": 4501,
  "▁పార్టీ": 4502,
  "▁many": 4503,
  "న్‌": 4504,
  "istrar": 4505,
  "▁కు": 4506,
  "▁వచ్చ": 4507,
  "िया\")": 4508,
  "archive.org/details/": 4509,
  "ந்துள்ளது.": 4510,
  "ముద్ర": 4511,
  "▁गण": 4512,
  "ற்பட்ட": 4513,
  "ance/": 4514,
  "म्म": 4515,
  "டியா": 4516,
  "-108": 4517,
  "-107-1": 4518,
  "గాంధీ": 4519,
  "ovement": 4520,
  "ी_भाषा": 4521,
  "ுள்ளது.": 4522,
  "சியா\")": 4523,
  "నేపాల": 4524,
  "▁நடத்த": 4525,
  "▁பொதுத்": 4526,
  "▁உயிரி": 4527,
  "▁పేరు": 4528,
  "वंश": 4529,
  "▁जाता": 4530,
  "హిందీ": 4531,
  "▁वर्ष": 4532,
  "▁குடியரசு": 4533,
  "ैदान": 4534,
  "▁చెయ్య": 4535,
  "▁కూడా": 4536,
  "▁அரசியல்": 4537,
  "तंत्रता": 4538,
  "वेब": 4539,
  "ricket": 4540,
  "▁பெரும்பால": 4541,
  "▁साम्राज्य": 4542,
  "ள்கை": 4543,
  "द्योगिक": 4544,
  "ంగీతం": 4545,
  "▁பயன்ப": 4546,
  "▁கிராம": 4547,
  "ముంబై": 4548,
  "శ్చిమ": 4549,
  "3TRtDwAAQBAJ&pg=PA": 4550,
  "▁మార్గ": 4551,
  "▁చెయ్యబడ": 4552,
  "-B": 4553,
  "9–": 4554,
  "II": 4555,
  "WEO": 4556,
  "enth": 4557,
  "omas": 4558,
  "astern": 4559,
  "etary": 4560,
  "▁2019.": 4561,
  "istan": 4562,
  "▁De": 4563,
  "▁Budd": 4564,
  "_Asia": 4565,
  "_in_India?action=edit&redlink=1": 4566,
  "rowth": 4567,
  "aranth": 4568,
  "-C": 4569,
  "226": 4570,
  "Tritsch": 4571,
  "_on": 4572,
  "b)": 4573,
  "ealth": 4574,
  "owe": 4575,
  "▁Union": 4576,
  "omin": 4577,
  "str": 4578,
  "urn": 4579,
  "ussia": 4580,
  "267": 4581,
  "ilk": 4582,
  "24)": 4583,
  "ryan": 4584,
  "apit": 4585,
  "▁2011.\n": 4586,
  "auto": 4587,
  "emale": 4588,
  "\"](https://web.archive.org/web/20160": 4589,
  "▁2021.": 4590,
  "▁2,": 4591,
  ".gov.in/": 4592,
  "▁became": 4593,
  "urvey": 4594,
  "\",": 4595,
  "3–": 4596,
  "520": 4597,
  "66": 4598,
  "AG": 4599,
  "PK:": 4600,
  "_சு": 4601,
  "_11": 4602,
  "casting": 4603,
  "war": 4604,
  "way": 4605,
  "पे": 4606,
  "मंत्र": 4607,
  "रवरी": 4608,
  "िज़": 4609,
  "ेट": 4610,
  "பர்": 4611,
  "யோ": 4612,
  "ரே": 4613,
  "ரம்": 4614,
  "ரசிய": 4615,
  "▁[इ": 4616,
  "▁[पु": 4617,
  "▁\"इ": 4618,
  "▁\"हिन्द": 4619,
  "▁\"சிறப்பு:BookSources/978-81": 4620,
  "arge": 4621,
  "](https://ta.wikipedia.org/wiki/சிறப்பு:BookSources/978-81": 4622,
  "▁பழ": 4623,
  "க்கலை": 4624,
  "▁மீ": 4625,
  "▁இச": 4626,
  "▁मु": 4627,
  "change": 4628,
  "▁sup": 4629,
  "ாகி": 4630,
  "▁உடைய": 4631,
  "▁ஆஃப்": 4632,
  "திவா": 4633,
  "▁Research": 4634,
  "25)": 4635,
  "chitec": 4636,
  "▁music": 4637,
  "266": 4638,
  "विज्ञान": 4639,
  "ाला": 4640,
  "க்குப்": 4641,
  "-53": 4642,
  "▁Language": 4643,
  "டைந்த": 4644,
  "ணிம": 4645,
  "எண்ணிம": 4646,
  "▁dance": 4647,
  "ड़े": 4648,
  "▁இதுவாக": 4649,
  "▁उत्तर": 4650,
  "▁deve": 4651,
  "ய்ய": 4652,
  "ffer": 4653,
  "▁[2](https://ta.wikipedia.org/wiki/இந்தியா#cite_ref-": 4654,
  "▁[1](https://ta.wikipedia.org/wiki/இந்தியா#cite_ref-": 4655,
  "க்கிண்ண": 4656,
  "▁1994": 4657,
  "National_In": 4658,
  "▁மேற்கு": 4659,
  "▁ஓவிய": 4660,
  "द्यान": 4661,
  "rancis": 4662,
  "▁உயர்": 4663,
  "riculture": 4664,
  "▁இரண்டா": 4665,
  "र्थिक": 4666,
  "▁समय": 4667,
  "▁இராணுவ": 4668,
  "▁அதிகரித்து": 4669,
  "यालय": 4670,
  "worldbank.org/": 4671,
  "ெற்காசிய": 4672,
  "roadcasting": 4673,
  "வணச்": 4674,
  "chitecture": 4675,
  "-on-": 4676,
  "2).": 4677,
  "3.\n": 4678,
  "Ag": 4679,
  "_13": 4680,
  "ser": 4681,
  "tb": 4682,
  "work": 4683,
  "▁he": 4684,
  "alore": 4685,
  "arly": 4686,
  "▁spe": 4687,
  "▁some": 4688,
  "angalore": 4689,
  "▁Raj": 4690,
  "▁Republic": 4691,
  "▁Government": 4692,
  "166": 4693,
  "▁[Singh": 4694,
  "▁territories": 4695,
  "ultiple": 4696,
  "2-": 4697,
  "4,": 4698,
  "_వ": 4699,
  "ahar": 4700,
  "b/": 4701,
  "cent": 4702,
  "గర": 4703,
  "టక": 4704,
  "టా": 4705,
  "దార": 4706,
  "నీ": 4707,
  "రో": 4708,
  "సభ": 4709,
  "ెద్ద": 4710,
  "▁history": 4711,
  "tte": 4712,
  "▁\"సి": 4713,
  "](https://en.wikipedia.org/wiki/W": 4714,
  "ouse": 4715,
  "](https://te.wikipedia.org/wiki/భారత_": 4716,
  "etrag": 4717,
  "among": 4718,
  "▁Affairs": 4719,
  "▁పు": 4720,
  "రాజ్య": 4721,
  "▁కేంద్రపాలిత": 4722,
  "▁General": 4723,
  "▁మా": 4724,
  "▁చే": 4725,
  "ము\")": 4726,
  "త్స": 4727,
  "▁రాజ్య": 4728,
  "▁Press.": 4729,
  "వాతంత్ర": 4730,
  "▁దేశాల": 4731,
  "ship": 4732,
  "లాదేశ్": 4733,
  "స్తు": 4734,
  "▁సామ్రాజ్యం](https://te.wikipedia.org/wiki/": 4735,
  "ంగ్లాదేశ్": 4736,
  "▁భాషలు": 4737,
  "ారు.": 4738,
  "_ప్రా": 4739,
  "్రిటి": 4740,
  "▁అధికార": 4741,
  "formatics_Centre": 4742,
  "ూర్పు": 4743,
  "కైవు": 4744,
  "National_Informatics_Centre": 4745,
  "0&": 4746,
  "2]](https://ta.wikipedia.org/wiki/இந்தியா#cite_note-": 4747,
  "_0": 4748,
  "_ட": 4749,
  "britannic": 4750,
  "c/c": 4751,
  "hol": 4752,
  "olog": 4753,
  "rd": 4754,
  "ving": 4755,
  "yer": 4756,
  "डी": 4757,
  "डु": 4758,
  "णि": 4759,
  "त्य": 4760,
  "धु": 4761,
  "लोक": 4762,
  "ஆக": 4763,
  "ங்": 4764,
  "டன": 4765,
  "டும்ப": 4766,
  "நகர": 4767,
  "மிய": 4768,
  "ளை": 4769,
  "ளிய": 4770,
  "ழை": 4771,
  "வியல்": 4772,
  "வும்,": 4773,
  "வர்கள": 4774,
  "▁छ": 4775,
  "▁imp": 4776,
  "pect": 4777,
  "▁\"न": 4778,
  "▁\"கு": 4779,
  "▁\"सं": 4780,
  "ந்த்": 4781,
  "arlo": 4782,
  "▁மொழ": 4783,
  "▁கீ": 4784,
  "▁கட்சி": 4785,
  "▁தி": 4786,
  "▁திரு": 4787,
  "▁அனைத்து": 4788,
  "ating": 4789,
  "▁India\")\n": 4790,
  "▁मा": 4791,
  "டுப்பாட்ட": 4792,
  "25.": 4793,
  "_of_S": 4794,
  "नाव": 4795,
  "▁election": 4796,
  "▁द्वार": 4797,
  "▁முக்கிய": 4798,
  "▁தொடர்ச்சி": 4799,
  "▁\"இந்தியக்": 4800,
  "माज": 4801,
  "▁Press](https://ta.wikipedia.org/wiki/": 4802,
  "▁Press\"),": 4803,
  "overty": 4804,
  "oreign": 4805,
  "904-7": 4806,
  "ी](https://hi.wikipedia.org/wiki/अ": 4807,
  "_அடிப்படையில்": 4808,
  "ப்படுகின்ற": 4809,
  "▁நிலையில்": 4810,
  "सेना": 4811,
  "▁பொதுவாக": 4812,
  "தாகும்.": 4813,
  "▁चु": 4814,
  "▁हुई": 4815,
  "-80904-7": 4816,
  "▁ஒன்றாக": 4817,
  "▁2006](https://ta.wikipedia.org/wiki/இந்தியா#CITEREFMetcalfMetcalf2006),": 4818,
  "மிழ்நாடு": 4819,
  "शासित": 4820,
  "त्पाद": 4821,
  ".uk/": 4822,
  "britannica.com/": 4823,
  "IJ": 4824,
  "St": 4825,
  "fl": 4826,
  "m.nic.in/": 4827,
  "ning": 4828,
  "ncl": 4829,
  "208": 4830,
  "▁caste": 4831,
  "▁Mon": 4832,
  "▁Press,": 4833,
  "atis": 4834,
  "onstituent": 4835,
  "ongress2004": 4836,
  "asia/": 4837,
  "countries_by": 4838,
  "natak": 4839,
  "nclm.nic.in/": 4840,
  "4-3": 4841,
  "5/": 4842,
  "British": 4843,
  "ES": 4844,
  "IMF": 4845,
  "NA": 4846,
  "QAAQBAJ&pg=PA": 4847,
  "Report": 4848,
  "men": 4849,
  "▁Qu": 4850,
  "▁[United": 4851,
  "the-": 4852,
  "theast": 4853,
  "▁(2014": 4854,
  "riod": 4855,
  "ams": 4856,
  "▁po": 4857,
  "loc": 4858,
  "union": 4859,
  "1162": 4860,
  "_in_S": 4861,
  "sey": 4862,
  "▁War": 4863,
  "ffice": 4864,
  "ivil": 4865,
  "outh_Asian": 4866,
  "ographic": 4867,
  "ographical": 4868,
  "garh": 4869,
  "7]](https://ta.wikipedia.org/wiki/இந்தியா#cite_note-FOOTNOTE": 4870,
  "Con": 4871,
  "European": 4872,
  "Ministry_of_": 4873,
  "_ब": 4874,
  "mill": 4875,
  "ईसा": 4876,
  "कल": 4877,
  "खाना": 4878,
  "तु": 4879,
  "नगर": 4880,
  "ल्": 4881,
  "ोम": 4882,
  "।\n": 4883,
  "ர்த": 4884,
  "லமைப்பு": 4885,
  "ாண்டு": 4886,
  "ுடைய": 4887,
  "ென்": 4888,
  "▁ऊ": 4889,
  "▁[உலக": 4890,
  "an,": 4891,
  "2024": 4892,
  "read": 4893,
  "reme": 4894,
  "ofile": 4895,
  "ப்பிய": 4896,
  "](https://hi.wikipedia.org/wiki/इ": 4897,
  "▁மைய": 4898,
  "▁सु": 4899,
  "acmill": 4900,
  "-135": 4901,
  "▁வங்கி": 4902,
  "atus": 4903,
  "▁sp": 4904,
  "ico": 4905,
  "र्दू": 4906,
  "ண்மை": 4907,
  "▁modern": 4908,
  "▁Data": 4909,
  "▁अग": 4910,
  "குதி": 4911,
  "ews": 4912,
  "olk": 4913,
  "▁Ge": 4914,
  "▁N.": 4915,
  "▁दिया": 4916,
  "▁land": 4917,
  "▁बढ़": 4918,
  "▁மு.": 4919,
  "▁[South": 4920,
  "ம்பு": 4921,
  "▁உள்ளது.[[": 4922,
  "ாளர்": 4923,
  "▁[2](https://en.wikipedia.org/wiki/India#cite_ref-FOOTNOTE": 4924,
  "2007),": 4925,
  "▁சமூக": 4926,
  "▁[1](https://en.wikipedia.org/wiki/India#cite_ref-FOOTNOTE": 4927,
  "த்தியில்": 4928,
  "राष्ट्रपति": 4929,
  "▁[Dyson": 4930,
  "▁அரசா": 4931,
  "ச்சகம்": 4932,
  "हिन्दी": 4933,
  "▁\"அமெரிக்க": 4934,
  "्रां": 4935,
  "](https://ta.wikipedia.org/wiki/அமெரிக்க": 4936,
  "▁2018](https://ta.wikipedia.org/wiki/இந்தியா#CITEREF": 4937,
  "▁हुआ": 4938,
  "do-A": 4939,
  "हासागर": 4940,
  "फ़रवरी": 4941,
  "▁Rothermund": 4942,
  "ष्ण": 4943,
  "▁இதில்": 4944,
  "▁Plate": 4945,
  "▁[doi](https://ta.wikipedia.org/wiki/": 4946,
  "ंबई": 4947,
  "▁लिए": 4948,
  "▁உணவு": 4949,
  "▁विकास": 4950,
  "_அடிப்படையில்_நாடு": 4951,
  "acmillan": 4952,
  "/files/": 4953,
  "2-4": 4954,
  "400": 4955,
  "]]": 4956,
  "br": 4957,
  "known": 4958,
  "med": 4959,
  "mun": 4960,
  "ras": 4961,
  "rdu": 4962,
  "ంజా": 4963,
  "గి": 4964,
  "టీ": 4965,
  "టాన్": 4966,
  "మంత్రి": 4967,
  "లను": 4968,
  "వె": 4969,
  "వరణ": 4970,
  "హదార": 4971,
  "ూచ": 4972,
  "▁హ": 4973,
  "▁ra": 4974,
  "▁భారతదేశ": 4975,
  "arri": 4976,
  "cip": 4977,
  "tions": 4978,
  "them": 4979,
  "▁(ed.": 4980,
  "▁(a)": 4981,
  "▁(b)": 4982,
  "్రమ": 4983,
  "▁A.": 4984,
  "▁Stu": 4985,
  "భారతదేశ_": 4986,
  "▁కొ": 4987,
  "▁వ్యా": 4988,
  "▁మత": 4989,
  "▁మతము": 4990,
  "_Ar": 4991,
  "తావరణ": 4992,
  "నాడు": 4993,
  "▁ఉంది.": 4994,
  "▁ఇతర": 4995,
  "ాయి": 4996,
  "ultural": 4997,
  "...": 4998,
  "india-gl": 4999,
  "ణాసియా": 5000,
  "▁Hinduism": 5001,
  "ervation": 5002,
  "ocrac": 5003,
  "ichell": 5004,
  "ront": 5005,
  "టెడ్": 5006,
  "▁ఆర్కైవు": 5007,
  "▁York": 5008,
  ".html)": 5009,
  "ollingham": 5010,
  "ughal": 5011,
  "▁రైలు": 5012,
  "_Island": 5013,
  "భూటాన్": 5014,
  "_సామ్రాజ్యం": 5015,
  ".aspx?": 5016,
  "etraglia": 5017,
  "వాతంత్ర్య": 5018,
  "india-glance/": 5019,
  "2%": 5020,
  "AS": 5021,
  "_en": 5022,
  "ced": 5023,
  "vent": 5024,
  "▁\"19": 5025,
  "enn": 5026,
  "20)": 5027,
  "ata_": 5028,
  "▁2014.": 5029,
  "▁sh": 5030,
  "▁such": 5031,
  "ump": 5032,
  "vers": 5033,
  "▁Be": 5034,
  "22-9": 5035,
  "170": 5036,
  "imalay": 5037,
  "▁group": 5038,
  "▁[Routledge": 5039,
  "▁\"Routledge": 5040,
  "▁2006](https://en.wikipedia.org/wiki/India#CITEREF": 5041,
  "Hindustan": 5042,
  "rgani": 5043,
  "_from": 5044,
  "esert": 5045,
  "censusindia.gov.in/2011census/": 5046,
  "National_Informatics_Centre2005": 5047,
  "-with": 5048,
  "130": 5049,
  "318": 5050,
  "6)\n": 5051,
  "9]](https://ta.wikipedia.org/wiki/இந்தியா#cite_note-": 5052,
  "Ethnologue": 5053,
  "Gua": 5054,
  "JIJ": 5055,
  "Zva": 5056,
  "_l": 5057,
  "_26": 5058,
  "_2010": 5059,
  "lood": 5060,
  "multiple": 5061,
  "var": 5062,
  "क्स": 5063,
  "न](https://hi.wikipedia.org/wiki/": 5064,
  "योग": 5065,
  "वै": 5066,
  "स्ट": 5067,
  "ूर्": 5068,
  "ृति": 5069,
  "ண்கள": 5070,
  "லில்": 5071,
  "லும்": 5072,
  "ளவில்": 5073,
  "ளஞ்சிய": 5074,
  "வல": 5075,
  "வானது": 5076,
  "வர்கள்": 5077,
  "ாதுகாப்பு": 5078,
  "ிக்கா": 5079,
  "ீடு": 5080,
  "▁/": 5081,
  "▁[आ": 5082,
  "▁[ज": 5083,
  "▁[கு": 5084,
  "▁\"आ": 5085,
  "▁\"உலக": 5086,
  "en/": 5087,
  "ியான": 5088,
  "reet": 5089,
  "](https://ta.wikipedia.org/wiki/உ": 5090,
  "இந்தி": 5091,
  "▁பூ": 5092,
  "▁பேர": 5093,
  "ारी": 5094,
  "ार्च": 5095,
  "▁(1,": 5096,
  "rim": 5097,
  "▁தனி": 5098,
  "▁தேர்தல்": 5099,
  "achin": 5100,
  "▁இன": 5101,
  "ed\\_im": 5102,
  "▁சோ": 5103,
  "ாட்டின்": 5104,
  "▁உறு": 5105,
  "cean": 5106,
  "caled\\_im": 5107,
  "▁min": 5108,
  "Books": 5109,
  "சுக": 5110,
  "िक्": 5111,
  "age\\_with\\_": 5112,
  "▁என": 5113,
  "-85": 5114,
  "▁जून": 5115,
  "க்குக்": 5116,
  "▁दे": 5117,
  "▁दिस": 5118,
  "राजस्थान": 5119,
  "▁long": 5120,
  "▁large": 5121,
  "ages\n": 5122,
  "லைக்களஞ்சிய": 5123,
  "▁[Ministry": 5124,
  "नेपाल": 5125,
  "त्तरा": 5126,
  "▁disp": 5127,
  "worldcat": 5128,
  "जाति": 5129,
  "Singh2009),": 5130,
  "▁क्षेत्र\")": 5131,
  "धानमंत्र": 5132,
  "▁மொழி\")": 5133,
  "▁நீதி": 5134,
  "▁நாடுகள்": 5135,
  "्रीका": 5136,
  "▁தொடங்க": 5137,
  "ிரித்தானிக்கா": 5138,
  "▁கொண்டிருந்த": 5139,
  "▁பிறகு": 5140,
  "actbook": 5141,
  "▁இலக்கிய": 5142,
  "गणना": 5143,
  "▁खाना\")": 5144,
  "▁निर्": 5145,
  "\\_image\\_with\\_": 5146,
  "\\_scaled\\_im": 5147,
  "ainting": 5148,
  "▁ed.),": 5149,
  "▁world's": 5150,
  "னாமி": 5151,
  "माणु": 5152,
  "Library_of_C": 5153,
  ".svg.png)": 5154,
  "म्मू": 5155,
  "auto\\_scaled\\_im": 5156,
  "GuaJIJ": 5157,
  "ZvaGuaJIJ": 5158,
  "multiple\\_image\\_with\\_": 5159,
  "▁दिसम्बर": 5160,
  "லைக்களஞ்சியம்": 5161,
  "auto\\_scaled\\_images\n": 5162,
  "ZvaGuaJIJgo": 5163,
  "multiple\\_image\\_with\\_auto\\_scaled\\_images\n": 5164,
  ".com": 5165,
  "338": 5166,
  "9,": 5167,
  "Davidson": 5168,
  "Pakistan": 5169,
  "Uttar": 5170,
  "Vu": 5171,
  "ZVu": 5172,
  "_&": 5173,
  "_17": 5174,
  "dr": 5175,
  "ji": 5176,
  "kZVu": 5177,
  "my": 5178,
  "▁[4": 5179,
  "oni": 5180,
  "isl": 5181,
  "217": 5182,
  "fir": 5183,
  "▁International": 5184,
  "-3)": 5185,
  "_Sh": 5186,
  "▁From": 5187,
  "▁north": 5188,
  "apan": 5189,
  "▁[2](https://en.wikipedia.org/wiki/India#cite_ref-": 5190,
  "▁[1](https://en.wikipedia.org/wiki/India#cite_ref-": 5191,
  "ahal": 5192,
  "aking": 5193,
  "2014-p": 5194,
  "▁2010](https://en.wikipedia.org/wiki/India#CITEREF": 5195,
  "1971": 5196,
  "ondon": 5197,
  "EXT": 5198,
  "Davidson2014-p": 5199,
  "0)": 5200,
  "2-6": 5201,
  "C).": 5202,
  "_g": 5203,
  "lli": 5204,
  "round": 5205,
  "west": 5206,
  "yan": 5207,
  "tter": 5208,
  "▁[Kulke": 5209,
  "teenth": 5210,
  "rect": 5211,
  "ality": 5212,
  "hic": 5213,
  "▁inclu": 5214,
  "0000": 5215,
  "ictionary": 5216,
  "=1&": 5217,
  "253": 5218,
  "▁Ex": 5219,
  "ubcontinent": 5220,
  "▁Kashmir": 5221,
  "▁beg": 5222,
  "_Temple": 5223,
  "▁V.": 5224,
  "ikh": 5225,
  "▁\"Economy": 5226,
  "PPP": 5227,
  "code": 5228,
  "▁period": 5229,
  "Dyson2018),": 5230,
  "ports": 5231,
  "_at_the": 5232,
  "ymbols": 5233,
  "%3": 5234,
  "129": 5235,
  "2)\n": 5236,
  "63": 5237,
  "6]](https://ta.wikipedia.org/wiki/இந்தியா#cite_note-FOOTNOTE": 5238,
  "9/": 5239,
  "Collingham": 5240,
  "_प": 5241,
  "ao": 5242,
  "bh": 5243,
  "hand": 5244,
  "टी": 5245,
  "द्वीप": 5246,
  "वी": 5247,
  "हीं": 5248,
  "िज": 5249,
  "िन्": 5250,
  "ैल": 5251,
  "ैंड": 5252,
  "டக்கலை": 5253,
  "மண": 5254,
  "யி": 5255,
  "யில்": 5256,
  "ல்த": 5257,
  "ழல்": 5258,
  "வீன": 5259,
  "ஸ்ட்": 5260,
  "ின": 5261,
  "ంశ": 5262,
  "ఆర్": 5263,
  "ఉత్తర": 5264,
  "ఒడి": 5265,
  "కీయ": 5266,
  "గలు": 5267,
  "చు": 5268,
  "జరా": 5269,
  "తూర్పు": 5270,
  "భు": 5271,
  "మన్": 5272,
  "యి": 5273,
  "లస": 5274,
  "ీన": 5275,
  "ేక": 5276,
  "▁డ": 5277,
  "▁జాబితా": 5278,
  "▁फ़रवरी": 5279,
  "pen": 5280,
  "▁[భారతదేశ": 5281,
  "](https://ta.wikipedia.org/wiki/கு": 5282,
  "ம்\"),": 5283,
  "ப்பாக": 5284,
  "ப்பானது": 5285,
  "](https://hi.wikipedia.org/wiki/सं": 5286,
  "ட்டிய": 5287,
  "asu": 5288,
  "த்தா": 5289,
  "▁திரைப்படத்துறை": 5290,
  "▁வங்காள": 5291,
  "entr": 5292,
  "▁Cons": 5293,
  "▁Assembly": 5294,
  "▁அட": 5295,
  "▁அரு": 5296,
  "▁அவை": 5297,
  "▁அணு": 5298,
  "▁मार्च": 5299,
  "्यता": 5300,
  "adhy": 5301,
  "local": 5302,
  "▁நேர": 5303,
  "ource": 5304,
  "▁पह": 5305,
  "▁पार्ट": 5306,
  "ull": 5307,
  "▁சந்தை": 5308,
  "ாகரி": 5309,
  "21)": 5310,
  "▁both": 5311,
  "▁ஆயு": 5312,
  "டுத்து": 5313,
  "▁పట్ట": 5314,
  "र्स": 5315,
  "र्जा": 5316,
  "](https://hi.wikipedia.org/wiki/भारतीय": 5317,
  "ண்டல": 5318,
  "லைவன": 5319,
  "ర్\")": 5320,
  "105": 5321,
  "சுலி": 5322,
  "289": 5323,
  "களானவை": 5324,
  "▁**జాతీయ": 5325,
  "nia": 5326,
  "bert": 5327,
  "](https://ta.wikipedia.org/wiki/பு": 5328,
  "▁Journal": 5329,
  "▁John": 5330,
  "▁H.": 5331,
  "▁religion": 5332,
  "2905": 5333,
  "నిక": 5334,
  "त्रि": 5335,
  "▁\"பு": 5336,
  "▁बना": 5337,
  "ంగ్రె": 5338,
  "▁సభ": 5339,
  "aksh": 5340,
  "ங்களும்": 5341,
  "తాబ్": 5342,
  "▁वा": 5343,
  "லால்": 5344,
  "ிருத": 5345,
  "▁உள்ளன.": 5346,
  "▁ప్రపంచ": 5347,
  "▁ప్రభు": 5348,
  "ப்_பொது": 5349,
  "▁போன்ற": 5350,
  "▁[பு": 5351,
  "ற்போ": 5352,
  "▁संविधान": 5353,
  "33-7": 5354,
  "▁ఆసియా": 5355,
  "▁Ved": 5356,
  "▁செய்ய": 5357,
  "र्वत": 5358,
  "ंडिया": 5359,
  "మ్రాజ్య": 5360,
  "orities": 5361,
  "पात": 5362,
  "▁area": 5363,
  "ாடாளுமன்ற": 5364,
  "▁காங்கிரசு": 5365,
  "ंग्रेस": 5366,
  "_ஆறு": 5367,
  "గుజరా": 5368,
  "▁సామ్రాజ్యం\")": 5369,
  "pringer": 5370,
  "](https://books.google.com/books?id=3TRtDwAAQBAJ&pg=PA": 5371,
  "▁இடையில்": 5372,
  "Hinduism": 5373,
  "KulkeRothermund200": 5374,
  "ography": 5375,
  "త్యేక": 5376,
  "రాష్ట్రపతి": 5377,
  "स्कृति": 5378,
  "ప్ప": 5379,
  "▁కాశ్మీ": 5380,
  "▁రాజవంశం": 5381,
  "▁கடற்க": 5382,
  "டப்பட்டது.": 5383,
  "▁చెంద": 5384,
  "▁ఆర్ధిక": 5385,
  "%20%20%20%20": 5386,
  "▁ஆற்றல்": 5387,
  "▁வீத": 5388,
  "▁స్థాన": 5389,
  "▁நூற்றாண்ட": 5390,
  "▁நூற்றாண்டு": 5391,
  "▁1998](https://ta.wikipedia.org/wiki/இந்தியா#CITEREF": 5392,
  "ங்கிலம்": 5393,
  "வார்ப்புரு:Navbox": 5394,
  "▁हिन्दी": 5395,
  "తమిళనాడు": 5396,
  "ேபாள": 5397,
  "document": 5398,
  "▁शासन": 5399,
  "▁थी": 5400,
  "ప్రధానమంత్రి": 5401,
  "-780": 5402,
  "గణతంత్ర": 5403,
  "▁క్రీడ": 5404,
  "-882905": 5405,
  "▁ఉన్నాయి.": 5406,
  "▁./பகுப்பு:Pages\\_using\\_multiple\\_image\\_with\\_auto\\_scaled\\_images\n": 5407,
  "ఆఫ్ఘ": 5408,
  "శ్రీలంక": 5409,
  "షియా": 5410,
  "న్‌ఫ": 5411,
  "-107-11162": 5412,
  "నేపాల్": 5413,
  "वेबैक": 5414,
  "▁द्वारा": 5415,
  "ocracy": 5416,
  "Library_of_Congress2004": 5417,
  "తాబ్ద": 5418,
  "-882905-8": 5419,
  "-107-11162-2": 5420,
  "-27": 5421,
  "09": 5422,
  "577": 5423,
  "7.\n": 5424,
  "MAAJ": 5425,
  "Se": 5426,
  "af": 5427,
  "orical": 5428,
  "tice": 5429,
  "arb": 5430,
  "esti": 5431,
  "ooperation": 5432,
  "ammu": 5433,
  "▁south": 5434,
  "▁since": 5435,
  "ular": 5436,
  "23)": 5437,
  "▁Bank": 5438,
  "▁rec": 5439,
  "▁[\"A": 5440,
  "18)": 5441,
  "tures": 5442,
  "AAMAAJ": 5443,
  "rust": 5444,
  "▁Reg": 5445,
  "cator": 5446,
  "cms).": 5447,
  "dependence": 5448,
  "cyclo": 5449,
  "▁estim": 5450,
  "rganization": 5451,
  "-se": 5452,
  ".IN": 5453,
  "/g": 5454,
  "/ark": 5455,
  "7%": 5456,
  "_9": 5457,
  "aul": 5458,
  "f.fr": 5459,
  "win": 5460,
  ":/121": 5461,
  "▁[India": 5462,
  "tered": 5463,
  "▁\"United": 5464,
  "arnatak": 5465,
  "cit": 5466,
  "](https://en.wikipedia.org/wiki/The": 5467,
  "rial": 5468,
  "▁them": 5469,
  "▁India\"](https://web.archive.org/web/201": 5470,
  "▁Science": 5471,
  "▁summit\")": 5472,
  "ediff": 5473,
  "▁classical": 5474,
  "▁mi": 5475,
  "505": 5476,
  "▁[\"P": 5477,
  "*](https://web.archive.org/web/201": 5478,
  "pecial:S": 5479,
  "▁Official": 5480,
  "▁name": 5481,
  "_Cor": 5482,
  "48/c": 5483,
  "▁general": 5484,
  "ankar": 5485,
  "rough": 5486,
  "](https://en.wikipedia.org/wiki/Economy": 5487,
  "▁Chand": 5488,
  "earch/India": 5489,
  "8/8": 5490,
  "▁\"Special:BookSources/978-0-19": 5491,
  "](Special:BookSources/978-0-19": 5492,
  "bnf.fr": 5493,
  "▁Act,": 5494,
  "WEO.IN": 5495,
  "IMFWEO.IN": 5496,
  "ZvaGuaJIJgoC&pg=PA": 5497,
  "/ark:/121": 5498,
  "pecial:Search/India": 5499,
  "48/cb": 5500,
  "bnf.fr/ark:/121": 5501,
  "bnf.fr/ark:/12148/cb": 5502,
  "7-0": 5503,
  "Census": 5504,
  "Empire": 5505,
  "South": 5506,
  "_न": 5507,
  "_வி": 5508,
  "day": 5509,
  "gram": 5510,
  "mal": 5511,
  "operation": 5512,
  "po": 5513,
  "public": 5514,
  "sing": 5515,
  "slam": 5516,
  "ym": 5517,
  "ंट": 5518,
  "खंड": 5519,
  "खण्ड": 5520,
  "गोल": 5521,
  "धि": 5522,
  "रू": 5523,
  "रेल": 5524,
  "व्यवस्था": 5525,
  "शीन": 5526,
  "ुरु": 5527,
  "ुंबई": 5528,
  "ौर": 5529,
  "ौद्ध": 5530,
  "ौद्योगिक": 5531,
  "ஒடி": 5532,
  "சே": 5533,
  "தலை": 5534,
  "ரூபாய்": 5535,
  "ீக்கிய": 5536,
  "ீதிய": 5537,
  "▁या": 5538,
  "▁சிற": 5539,
  "▁35": 5540,
  "▁among": 5541,
  "dies": 5542,
  "pec": 5543,
  "people": 5544,
  "▁[கா": 5545,
  "\")[[": 5546,
  "](https://ta.wikipedia.org/wiki/B": 5547,
  "ன்ஸ்": 5548,
  "▁பள்ள": 5549,
  "ல்வ": 5550,
  "▁(2018),": 5551,
  "க்கான": 5552,
  "्रम": 5553,
  "▁there": 5554,
  "த்தக்க": 5555,
  "▁கி": 5556,
  "▁கண்ட": 5557,
  "ரும்": 5558,
  "▁संग": 5559,
  "ில்லிய": 5560,
  "entury": 5561,
  "▁இற": 5562,
  "▁இவ்": 5563,
  "▁அன்று": 5564,
  "▁அமெரிக்க": 5565,
  "▁मैदान": 5566,
  "icon": 5567,
  "▁ஆனால்": 5568,
  "ISO": 5569,
  "10)": 5570,
  "109": 5571,
  "1990": 5572,
  "26.": 5573,
  "ச்_ச": 5574,
  "28.": 5575,
  "▁B.": 5576,
  "▁अरब": 5577,
  "नाडु": 5578,
  "▁जल": 5579,
  "▁दर": 5580,
  "search": 5581,
  "168": 5582,
  "fornia": 5583,
  "▁முக": 5584,
  "▁प्रति": 5585,
  "_Publishing": 5586,
  "_Affairs": 5587,
  "ताब्": 5588,
  "▁குடும்ப": 5589,
  "स्त्र": 5590,
  "पुरी": 5591,
  "hina": 5592,
  "](https://hi.wikipedia.org/wiki/भारत#cite_ref-FOOTNOTE": 5593,
  "_மற்றும்": 5594,
  "▁इतिहास": 5595,
  "▁நிர்": 5596,
  "ுள்ளது.[[": 5597,
  "▁हैं,": 5598,
  "alifornia": 5599,
  "▁காண": 5600,
  "ற்றும": 5601,
  "पर्यटन": 5602,
  "ultan": 5603,
  "किम": 5604,
  "51-9": 5605,
  "▁2010](https://ta.wikipedia.org/wiki/இந்தியா#CITEREF": 5606,
  "▁occ": 5607,
  "▁தொக": 5608,
  "▁territory": 5609,
  "national-language": 5610,
  ".gov/": 5611,
  "▁தொடக்க": 5612,
  "▁2009](https://ta.wikipedia.org/wiki/இந்தியா#CITEREF": 5613,
  "atter": 5614,
  "ரோப்பிய": 5615,
  "दीव": 5616,
  "▁इसके": 5617,
  "▁இரண்டு": 5618,
  "த்_தேர்தல்": 5619,
  "पालिका": 5620,
  "▁घाट": 5621,
  "▁ரூபாய்": 5622,
  "▁ரீதிய": 5623,
  "லுவல்": 5624,
  "▁सिनेमा": 5625,
  "sites/": 5626,
  "arliamentary": 5627,
  "ணையர்": 5628,
  "िक्षा": 5629,
  "▁பெரும்பாலான": 5630,
  "▁பயன்படுத்த": 5631,
  "திவாளர்": 5632,
  "िक्किम": 5633,
  "ல்தான": 5634,
  "gramme": 5635,
  "\"[[": 5636,
  "\";\n": 5637,
  ".ni": 5638,
  "1]](https://en.wikipedia.org/wiki/India#cite_note-FOOTNOTE": 5639,
  "219": 5640,
  "223": 5641,
  "350": 5642,
  "Col": 5643,
  "IB": 5644,
  "_38": 5645,
  "aus": 5646,
  "a](https://en.wikipedia.org/wiki/S": 5647,
  "hen": 5648,
  "ive": 5649,
  "lag": 5650,
  "lack": 5651,
  "nam": 5652,
  "s.[[": 5653,
  "yam": 5654,
  "▁46": 5655,
  "▁out": 5656,
  "ancy": 5657,
  "ances": 5658,
  "India-": 5659,
  "2013": 5660,
  "▁(2": 5661,
  "2002),": 5662,
  "right": 5663,
  "ages/": 5664,
  "▁BRICS": 5665,
  "_(India)": 5666,
  "407": 5667,
  "709": 5668,
  "](https://en.wikipedia.org/wiki/Doi_(identifier)": 5669,
  "india.gov.in/india-glance/": 5670,
  "ynas": 5671,
  "limate": 5672,
  "▁[doi](https://en.wikipedia.org/wiki/Doi_(identifier)": 5673,
  "formation": 5674,
  "CS1\\_": 5675,
  "▁high": 5676,
  "-no": 5677,
  "220": 5678,
  "Bi": 5679,
  "UT": 5680,
  "Un": 5681,
  "_24": 5682,
  "_ప్రదేశ్": 5683,
  "s_of_India": 5684,
  "ually": 5685,
  "ం,": 5686,
  "ఉప": 5687,
  "కొ": 5688,
  "కేంద్రపాలిత": 5689,
  "జె": 5690,
  "ఢ్": 5691,
  "ది.": 5692,
  "నాల": 5693,
  "లే": 5694,
  "ళు": 5695,
  "ౌద్ధ": 5696,
  "▁భా": 5697,
  "▁[వి": 5698,
  "▁[Fisher": 5699,
  "vel": 5700,
  "▁Afric": 5701,
  "atch": 5702,
  "ాలీ": 5703,
  "003": 5704,
  "▁Ram": 5705,
  "ర్చ": 5706,
  "▁Delhi": 5707,
  "115": 5708,
  "ాలు?action=edit&redlink=1": 5709,
  "akrishn": 5710,
  "–సా.శ.18": 5711,
  "▁అత్య": 5712,
  "opular": 5713,
  "▁ఆధ": 5714,
  "MetcalfMetcalf2012": 5715,
  "మాఖ్య": 5716,
  "వాణా": 5717,
  "566": 5718,
  "34)": 5719,
  "_page": 5720,
  "ంటి": 5721,
  "▁దేశం": 5722,
  "డ్డ": 5723,
  "▁జనాభా": 5724,
  "దక్షిణాసియా": 5725,
  "▁గల": 5726,
  "▁భారతదేశంలో": 5727,
  "ంగ్లీ": 5728,
  "Fisher2018),": 5729,
  "యునై": 5730,
  "ష్ణ": 5731,
  "_చరిత్ర?action=edit&redlink=1": 5732,
  "-largest": 5733,
  "▁రాష్ట్రాలు,": 5734,
  "_మతము": 5735,
  "▁మొద": 5736,
  "itzel": 5737,
  "▁Company": 5738,
  "uiper": 5739,
  "jpg/250px-": 5740,
  ",NGDP": 5741,
  "▁చెయ్యబడింది.": 5742,
  "worldcat.org/": 5743,
  "kZVuDwAAQBAJ&pg=PA": 5744,
  "cyclopedia": 5745,
  "యునైటెడ్": 5746,
  "&#": 5747,
  "534": 5748,
  "6).": 5749,
  "=\"": 5750,
  "Jha": 5751,
  "PT": 5752,
  "Taj": 5753,
  "Tarlo": 5754,
  "_2008": 5755,
  "_உலக": 5756,
  "yayan": 5757,
  "रण": 5758,
  "लिस": 5759,
  "वार": 5760,
  "वीं": 5761,
  "शक": 5762,
  "स](https://hi.wikipedia.org/wiki/": 5763,
  "सभा": 5764,
  "ां": 5765,
  "ाप": 5766,
  "ांध": 5767,
  "ोष": 5768,
  "०१": 5769,
  "கவல்": 5770,
  "ஜன": 5771,
  "பதி": 5772,
  "லின்": 5773,
  "ளம்": 5774,
  "வண்": 5775,
  "ஸ்ட": 5776,
  "ீர்": 5777,
  "▁ध": 5778,
  "▁6.": 5779,
  "▁[V": 5780,
  "ந்தியா": 5781,
  "](https://ta.wikipedia.org/wiki/R": 5782,
  "](https://ta.wikipedia.org/wiki/வி": 5783,
  "](https://ta.wikipedia.org/wiki/உலக": 5784,
  "International": 5785,
  "இந்தோ": 5786,
  "▁பத": 5787,
  "ப்பில்": 5788,
  "▁(2011": 5789,
  "▁(இந்தியா)": 5790,
  "▁மர": 5791,
  "▁மெ": 5792,
  "▁மனித": 5793,
  "த்தொடர்": 5794,
  "த்தால்": 5795,
  "▁கலை": 5796,
  "▁கிழ": 5797,
  "ருநாட": 5798,
  "-16": 5799,
  "▁வரை": 5800,
  "▁Centre": 5801,
  "sions": 5802,
  "▁அறிய": 5803,
  "த்_": 5804,
  "राठ": 5805,
  "ற்றல்": 5806,
  "ிரே": 5807,
  "urry": 5808,
  "▁River": 5809,
  "rative": 5810,
  "्ता:": 5811,
  "▁made": 5812,
  "சுவ": 5813,
  "▁This": 5814,
  "▁Indus": 5815,
  "mploy": 5816,
  "▁E.": 5817,
  "▁GDP": 5818,
  "சிறப்பு:EditPage/": 5819,
  "▁दृ": 5820,
  "▁दो": 5821,
  "▁இந்தியாவை": 5822,
  "ாரி": 5823,
  "▁largest": 5824,
  "tual": 5825,
  "-981": 5826,
  "▁முதன்": 5827,
  "▁प्रमुख": 5828,
  "main": 5829,
  "*](https://www.": 5830,
  "ன்றா": 5831,
  "▁[↑](https://ta.wikipedia.org/wiki/இந்தியா#cite_ref-FOOTNOTEMetcalfMetcalf2006": 5832,
  "▁[பா": 5833,
  "ல்கள்": 5834,
  "_மலை": 5835,
  "2010),": 5836,
  "ங்கள்\")": 5837,
  "िये": 5838,
  "1):": 5839,
  "▁रह": 5840,
  "▁(PDF),": 5841,
  "▁लग": 5842,
  "DwAAQBAJ": 5843,
  "தன்மைக்": 5844,
  "merg": 5845,
  "ृत्य": 5846,
  "முறை": 5847,
  "முதன்மைக்": 5848,
  "endra": 5849,
  "ूनिव": 5850,
  "a/a": 5851,
  "trol": 5852,
  "▁இயக்க": 5853,
  "ूरो": 5854,
  "▁ஒன்றிய": 5855,
  "atsyayan": 5856,
  "](https://hi.wikipedia.org/wiki/भारत_की_": 5857,
  "](https://hi.wikipedia.org/wiki/भारत_का_": 5858,
  "ும்பை": 5859,
  "](https://ta.wikipedia.org/wiki/இந்திய_ரூபாய்": 5860,
  "▁2004](https://ta.wikipedia.org/wiki/இந்தியா#CITEREF": 5861,
  "_संघ": 5862,
  "ject": 5863,
  "▁(eds.),": 5864,
  "▁(eds.).": 5865,
  "▁கட்டுரை": 5866,
  "▁युद्ध": 5867,
  "तेलु": 5868,
  "▁न्यायालय": 5869,
  "ச்சு:": 5870,
  "धिकारिक": 5871,
  "யோன்": 5872,
  "▁[पुरालेखित": 5873,
  "▁अगस्त": 5874,
  "धानमंत्री": 5875,
  "▁ஆயுத": 5876,
  "ப்_பொதுத்_தேர்தல்": 5877,
  "▁ரூபாய்\")": 5878,
  "Tarlo1996": 5879,
  "-D": 5880,
  "-for": 5881,
  "0–": 5882,
  "122": 5883,
  "2-8": 5884,
  "cess": 5885,
  "fgh": 5886,
  "gi": 5887,
  "hal": 5888,
  "iti": 5889,
  "minist": 5890,
  "pan": 5891,
  "yy": 5892,
  "▁do": 5893,
  "▁art": 5894,
  "oral": 5895,
  "ording": 5896,
  "arty": 5897,
  "erence": 5898,
  "erritory": 5899,
  "\\_articles": 5900,
  "▁pre": 5901,
  "very": 5902,
  "rak": 5903,
  "▁mathe": 5904,
  "_of_India.": 5905,
  "▁relations": 5906,
  "▁only": 5907,
  "order": 5908,
  "catal": 5909,
  "o-operation": 5910,
  "ritannica": 5911,
  "](https://doi.org/10.10": 5912,
  "fghan": 5913,
  "-e": 5914,
  "-an": 5915,
  "-de": 5916,
  "1%": 5917,
  "83": 5918,
  "Kumar": 5919,
  "Main": 5920,
  "_30": 5921,
  "ault": 5922,
  "ns": 5923,
  "vatsyayan": 5924,
  "–4": 5925,
  "–24": 5926,
  "▁9.": 5927,
  "▁\"India": 5928,
  "ency": 5929,
  "2022": 5930,
  "reli": 5931,
  "acy": 5932,
  "ations/": 5933,
  "-100": 5934,
  "raj": 5935,
  "▁[\"M": 5936,
  "▁\"Special:BookSources/978": 5937,
  "tries/": 5938,
  "▁trans": 5939,
  "ia\")": 5940,
  "udget": 5941,
  "ternal": 5942,
  "▁status": 5943,
  "_BRICS": 5944,
  "Asher2006": 5945,
  "AsherAsher2006": 5946,
  "](Special:BookSources/978": 5947,
  "countries/": 5948,
  "▁union": 5949,
  "ducation": 5950,
  "article/": 5951,
  "-lord": 5952,
  "▁composed": 5953,
  "AGE": 5954,
  "vatsyayan-lord": 5955,
  "$](https://ta.wikipedia.org/wiki/அமெரிக்க": 5956,
  "-A": 5957,
  "-प": 5958,
  "-க": 5959,
  "319": 5960,
  "3-8": 5961,
  "418": 5962,
  "5%": 5963,
  "8]](https://ta.wikipedia.org/wiki/இந்தியா#cite_note-FOOTNOTE": 5964,
  "_अ": 5965,
  "_ए": 5966,
  "cropped": 5967,
  "hl": 5968,
  "mil": 5969,
  "p?": 5970,
  "uth": 5971,
  "ंका": 5972,
  "कट": 5973,
  "गंगा": 5974,
  "देव": 5975,
  "भो": 5976,
  "मेर": 5977,
  "ल](https://hi.wikipedia.org/wiki/": 5978,
  "लंका": 5979,
  "हैद": 5980,
  "िला": 5981,
  "ीमा": 5982,
  "ूह": 5983,
  "्म": 5984,
  "ஃப": 5985,
  "அ$](https://ta.wikipedia.org/wiki/அமெரிக்க": 5986,
  "ஒன்ற": 5987,
  "டம்": 5988,
  "ணய": 5989,
  "ந்": 5990,
  "ன்க": 5991,
  "ராக": 5992,
  "லே": 5993,
  "லைய": 5994,
  "வோ": 5995,
  "ேரு": 5996,
  "ோதி": 5997,
  "▁ट": 5998,
  "▁ci": 5999,
  "▁36": 6000,
  "▁[ओ": 6001,
  "▁\"V": 6002,
  "▁\"ओ": 6003,
  "indian": 6004,
  "ants": 6005,
  "enni": 6006,
  "eries": 6007,
  "ம்\")\n": 6008,
  "இந்தியா)\")": 6009,
  "▁(c": 6010,
  "▁(இந்தியா)\")": 6011,
  "](https://hi.wikipedia.org/wiki/आ": 6012,
  "asthan": 6013,
  "த்தது.": 6014,
  "த்தைக்": 6015,
  "▁கே": 6016,
  "▁காடு": 6017,
  "▁திற": 6018,
  "▁இசை": 6019,
  "ingdom": 6020,
  "சிசி": 6021,
  "▁நகர்": 6022,
  "राबाद": 6023,
  "▁Policy": 6024,
  "▁Punjab": 6025,
  "ाने": 6026,
  "▁culture": 6027,
  "▁ஆட்சி": 6028,
  "र्ना": 6029,
  "verse": 6030,
  "▁Man": 6031,
  "chison": 6032,
  "itchison": 6033,
  "சுலா": 6034,
  "ள்ளன.": 6035,
  "களு": 6036,
  "களால்": 6037,
  "களைக்": 6038,
  "▁total": 6039,
  "▁अप्र": 6040,
  "▁2002": 6041,
  "▁economic": 6042,
  "_का_": 6043,
  "றுப": 6044,
  "▁[\"G": 6045,
  "ார்க்க": 6046,
  "▁hum": 6047,
  "▁முசுலி": 6048,
  "▁नी": 6049,
  "ாலர்": 6050,
  "ாலர்\")": 6051,
  "-219": 6052,
  "▁தொடர்ந்து": 6053,
  "conomist": 6054,
  "ணிடப்பட்டது.": 6055,
  "▁2011,": 6056,
  "▁2011ஆம்": 6057,
  "▁\"இந்தியப்": 6058,
  "▁\"இந்தியத்": 6059,
  "▁புற": 6060,
  ".jpg)](https://hi.wikipedia.org/wiki/चित्र:": 6061,
  "▁संबंध": 6062,
  "ibcode": 6063,
  "म्प": 6064,
  "हिमा": 6065,
  "▁பிரப": 6066,
  "▁பிரதம": 6067,
  "त्तीस": 6068,
  "र्वो": 6069,
  "▁भाषाओं": 6070,
  "ext": 6071,
  "erala": 6072,
  "ssoci": 6073,
  "▁துறை": 6074,
  "▁करने": 6075,
  "िरपे": 6076,
  "html).": 6077,
  "indicator": 6078,
  "▁வேறுப": 6079,
  "वायु": 6080,
  "ளாண்மை": 6081,
  "▁2007](https://ta.wikipedia.org/wiki/இந்தியா#CITEREF": 6082,
  "ीपी": 6083,
  "▁[இம்": 6084,
  "▁வாழ்": 6085,
  "▁பரணிடப்பட்டது.": 6086,
  "▁मेला\")": 6087,
  "த்_திரைப்படத்துறை": 6088,
  "▁हुए": 6089,
  "▁country": 6090,
  "troduction": 6091,
  "▁2019,": 6092,
  "மீர்": 6093,
  "▁2008](https://ta.wikipedia.org/wiki/இந்தியா#CITEREF": 6094,
  "_இய": 6095,
  "▁ஆறு\")": 6096,
  "ேற்குத்": 6097,
  "▁பிரதேசத்தின்": 6098,
  "▁டாலர்\")": 6099,
  "-4020": 6100,
  "▁வடக்கு": 6101,
  "भीम": 6102,
  "िल्ली": 6103,
  "▁कार्य": 6104,
  "urton199": 6105,
  "New_Delhi": 6106,
  "▁மூலத்தில்": 6107,
  "▁கணக்கெடுப்பு": 6108,
  "▁[ஐஅ$](https://ta.wikipedia.org/wiki/அமெரிக்க": 6109,
  "Blurton199": 6110,
  "▁rule": 6111,
  "▁குறிப்பிட": 6112,
  "▁[हिन्दी](https://hi.wikipedia.org/wiki/": 6113,
  "_டாலர்": 6114,
  "▁கீழ்": 6115,
  "▁அரசாங்க": 6116,
  "▁தேர்தல்\")": 6117,
  "▁1998](https://ta.wikipedia.org/wiki/இந்தியா#CITEREFStein1998),": 6118,
  "▁Registrar": 6119,
  "▁அன்று.": 6120,
  "हैदराबाद": 6121,
  "र्नाटक": 6122,
  "िरपेक्ष": 6123,
  "▁பரணிடப்பட்டது..": 6124,
  "▁[ஐஅ$](https://ta.wikipedia.org/wiki/அமெரிக்க_டாலர்": 6125,
  "-di": 6126,
  "/lin": 6127,
  "94": 6128,
  "_న": 6129,
  "bu": 6130,
  "eu": 6131,
  "ling": 6132,
  "tle": 6133,
  "ures": 6134,
  "ఖండ": 6135,
  "గం": 6136,
  "టిక": 6137,
  "డే": 6138,
  "ద్య": 6139,
  "మార్": 6140,
  "మాలయ": 6141,
  "లలో": 6142,
  "లకు": 6143,
  "ళ్": 6144,
  "వ](https://te.wikipedia.org/wiki/": 6145,
  "ానికి": 6146,
  "ాళు": 6147,
  "ీర్": 6148,
  "▁భ": 6149,
  "▁యు": 6150,
  "▁article": 6151,
  "din": 6152,
  "▁\"వి": 6153,
  "▁\"National": 6154,
  "](https://en.wikipedia.org/wiki/I": 6155,
  "▁(in": 6156,
  "id.": 6157,
  "▁CE": 6158,
  "sive": 6159,
  "chedu": 6160,
  "lowing": 6161,
  "ాలో": 6162,
  "▁found": 6163,
  "red/lin": 6164,
  "స్వ": 6165,
  "స్లా": 6166,
  "▁పాల": 6167,
  "links": 6168,
  "▁maj": 6169,
  "న్\")": 6170,
  "its": 6171,
  "▁Increase": 6172,
  "▁women": 6173,
  "▁కార": 6174,
  "▁కలి": 6175,
  "రిహ": 6176,
  "రికత": 6177,
  "క్నాల": 6178,
  "ంది.\n": 6179,
  "నిమా": 6180,
  "▁1960": 6181,
  "oung": 6182,
  "▁సంగీతం": 6183,
  "▁చి": 6184,
  "▁Linguistic": 6185,
  "ులు\"),": 6186,
  "–సా.శ.13": 6187,
  "▁అయ": 6188,
  "▁ప్రధాన": 6189,
  "▁([₹": 6190,
  "undament": 6191,
  "ప్రదాయ": 6192,
  "ప్రత్యేక": 6193,
  "ద్వీ": 6194,
  "▁ఉప": 6195,
  "osp": 6196,
  "▁రె": 6197,
  "ustral": 6198,
  "న్నడ": 6199,
  "_News": 6200,
  "ంటు": 6201,
  "▁1997": 6202,
  "▁దేశంలో": 6203,
  "▁\"Template": 6204,
  "svg": 6205,
  "కాశ్మీ": 6206,
  "reek": 6207,
  "ంధు": 6208,
  "వర్గం:Harv": 6209,
  "emplate_": 6210,
  "ility": 6211,
  "AsherTalbot2008),": 6212,
  "ద్ధం": 6213,
  "ద్ధి": 6214,
  "▁2018](https://en.wikipedia.org/wiki/India#CITEREF": 6215,
  "ాల్దీవ": 6216,
  "చ్చే": 6217,
  "దక్షిణ_": 6218,
  "▁కాంగ్రె": 6219,
  "▁Chinese": 6220,
  "టెక్నాల": 6221,
  ":EditPage/మూస:": 6222,
  "హిమాలయ": 6223,
  "KulkeRothermund2004),": 6224,
  "▁లే": 6225,
  "త్తరా": 6226,
  "▁used": 6227,
  "నాగరికత": 6228,
  "క్కువ": 6229,
  "shared/lin": 6230,
  "kimages/": 6231,
  "క్‌సభ": 6232,
  "▁శాస్త్ర": 6233,
  "▁Persian": 6234,
  "ెలుగు": 6235,
  "▁వచ్చింది.": 6236,
  "_ప్రాంత": 6237,
  "flu": 6238,
  "nclm.nic.in/shared/lin": 6239,
  "do-Aryan": 6240,
  "ర్చ:": 6241,
  "ాళుక్య": 6242,
  "ప్రత్యేక:EditPage/మూస:": 6243,
  "టెక్నాలజీ": 6244,
  "nclm.nic.in/shared/linkimages/": 6245,
  "410": 6246,
  "Allchin": 6247,
  "Bh": 6248,
  "B0%": 6249,
  "Petraglia": 6250,
  "_10": 6251,
  "_15": 6252,
  "_2007": 6253,
  "_cl": 6254,
  "eld": 6255,
  "each": 6256,
  "nc": 6257,
  "y=": 6258,
  "pee": 6259,
  "](https://d": 6260,
  "inance": 6261,
  "report": 6262,
  "erry": 6263,
  "erman": 6264,
  "cise": 6265,
  "diatimes.com/": 6266,
  "omp": 6267,
  "ominal": 6268,
  "1967": 6269,
  "lec": 6270,
  "\\_(": 6271,
  "▁Society": 6272,
  "216": 6273,
  "▁Me": 6274,
  "▁Michael": 6275,
  "107": 6276,
  "24.": 6277,
  "ight": 6278,
  "▁eastern": 6279,
  "▁Gandhi": 6280,
  ".indiatimes.com/": 6281,
  "▁human": 6282,
  "▁[*P": 6283,
  "AAAAMAAJ": 6284,
  "▁Wiki": 6285,
  "emi": 6286,
  "express": 6287,
  "engali": 6288,
  "▁left": 6289,
  "ote:": 6290,
  "▁ago": 6291,
  "mitt": 6292,
  "42-5": 6293,
  "▁Quote:": 6294,
  "first": 6295,
  "entral_": 6296,
  "ynasty": 6297,
  "PetragliaAllchin": 6298,
  "-i": 6299,
  "/we": 6300,
  "1-1": 6301,
  "2.\n": 6302,
  "2)[[": 6303,
  "2]](https://en.wikipedia.org/wiki/India#cite_note-FOOTNOTE": 6304,
  "John": 6305,
  "UK": 6306,
  "_கா": 6307,
  "a-b": 6308,
  "dones": 6309,
  "election": 6310,
  "i,": 6311,
  "que": 6312,
  "tlas": 6313,
  "yd": 6314,
  "ंह": 6315,
  "गल": 6316,
  "झार": 6317,
  "डिया": 6318,
  "तट": 6319,
  "निक": 6320,
  "पान": 6321,
  "मालय": 6322,
  "हन": 6323,
  "हरी": 6324,
  "ाय": 6325,
  "िस्तान": 6326,
  "िहार": 6327,
  "தில்": 6328,
  "நிலை": 6329,
  "னே": 6330,
  "னிய": 6331,
  "பூ": 6332,
  "பார்": 6333,
  "ாத": 6334,
  "ுறை": 6335,
  "ேல": 6336,
  "ைத்": 6337,
  "▁ऑ": 6338,
  "▁राष्ट्र": 6339,
  "▁लेख": 6340,
  "▁United": 6341,
  "▁[च": 6342,
  "▁[archived": 6343,
  "▁\"சி": 6344,
  "▁\"வி": 6345,
  "reen": 6346,
  "ந்தே": 6347,
  "](https://ta.wikipedia.org/wiki/S": 6348,
  "hib": 6349,
  "](https://en.wikipedia.org/wiki/V": 6350,
  "▁பங்கு": 6351,
  "இந்தியாவின்": 6352,
  "ப்பாடு": 6353,
  "ப்பிரி": 6354,
  "](https://hi.wikipedia.org/wiki/ओ": 6355,
  "▁कुल": 6356,
  "ர்ச்சி": 6357,
  "▁மண்டல": 6358,
  "▁காட்டு": 6359,
  "▁கால்": 6360,
  "ருவ": 6361,
  "78.": 6362,
  "▁industry": 6363,
  "▁வழி": 6364,
  "▁இக்கால": 6365,
  "sile": 6366,
  "▁Ag": 6367,
  "▁அண்.": 6368,
  "▁Schwartzberg": 6369,
  "▁நாட்டு": 6370,
  "▁sc": 6371,
  "edie": 6372,
  "▁சது": 6373,
  "▁col": 6374,
  "र्ष": 6375,
  "▁केन्द्र": 6376,
  "▁ही": 6377,
  "▁होत": 6378,
  "-0-521": 6379,
  "▁B.;": 6380,
  "▁என்ற": 6381,
  "-349": 6382,
  "-459": 6383,
  "ayback": 6384,
  "duct": 6385,
  "வுக்கு": 6386,
  "ियां": 6387,
  "270": 6388,
  "17.": 6389,
  "▁बन": 6390,
  "▁बा": 6391,
  "▁முற": 6392,
  "▁नद": 6393,
  "▁नहीं": 6394,
  "▁से](http://www.": 6395,
  "ப்பட்டது.": 6396,
  "70%": 6397,
  "_in_New_Delhi": 6398,
  "avy": 6399,
  "▁वार": 6400,
  "▁W.": 6401,
  "▁எண்ண": 6402,
  "▁tree": 6403,
  "கம்\")": 6404,
  "ast_Asia": 6405,
  "पुरा": 6406,
  "▁உள்ளட": 6407,
  "स्ला": 6408,
  "▁கொள்கை": 6409,
  "▁उद्यान": 6410,
  "▁है।[[": 6411,
  "▁शताब्": 6412,
  "utra": 6413,
  "▁புதிய": 6414,
  "▁depend": 6415,
  "_நி": 6416,
  "▁रहा": 6417,
  "றிவு": 6418,
  "\"](https://web.archive.org/web/20140": 6419,
  "ட்டி\")": 6420,
  "▁மாற்ற": 6421,
  "Singh200918": 6422,
  "▁சிற்ப": 6423,
  "▁like": 6424,
  "विशेष:EditPage/": 6425,
  "▁பெரும்": 6426,
  "▁நடன": 6427,
  "தேசம்": 6428,
  "ilitary": 6429,
  "▁தெற்கு": 6430,
  "▁मेला](https://hi.wikipedia.org/wiki/": 6431,
  "2000),": 6432,
  "▁இயற்க": 6433,
  "odiversity": 6434,
  "▁play": 6435,
  "▁\"History": 6436,
  "श्चिमी": 6437,
  "गणराज्य": 6438,
  ".com/news/national": 6439,
  "▁प्राप्त": 6440,
  "▁<https://web.archive.org/web/201": 6441,
  "thehindu.com/news/national": 6442,
  "▁स्रोत/978-1": 6443,
  "](https://hi.wikipedia.org/wiki/विशेष:पुस्तक_स्रोत/978-1": 6444,
  "d/d": 6445,
  "▁Arab": 6446,
  "▁भूम": 6447,
  "ீபக": 6448,
  "▁गणराज्य": 6449,
  "ological": 6450,
  "▁चुनाव": 6451,
  "](https://en.wikipedia.org/wiki/Economy_of_": 6452,
  "रेलू": 6453,
  "ல்வகை": 6454,
  "▁நிர்வாக": 6455,
  "▁முதன்மையான": 6456,
  "▁[पुरालेखित](https://web.archive.org/web/201": 6457,
  "fghanistan": 6458,
  "र्वोच्च": 6459,
  "▁([₹](https://ta.wikipedia.org/wiki/இந்திய_ரூபாய்": 6460,
  "विशेष:EditPage/साँचा:": 6461,
  "-H": 6462,
  "-ar": 6463,
  "1.\n": 6464,
  "125": 6465,
  "1-3": 6466,
  "9).": 6467,
  "Ex": 6468,
  "Home": 6469,
  "_50": 6470,
  "_map": 6471,
  "ax": 6472,
  "oast": 6473,
  "ues": 6474,
  "whi": 6475,
  "▁40": 6476,
  "orest": 6477,
  "reed": 6478,
  "reign": 6479,
  "thnic": 6480,
  "▁(1):": 6481,
  "ager": 6482,
  "▁social": 6483,
  "type": 6484,
  "opland": 6485,
  "▁1980": 6486,
  "406": 6487,
  "▁Francis": 6488,
  "_Agency": 6489,
  "harm": 6490,
  "▁before": 6491,
  "▁[Craven": 6492,
  "key": 6493,
  "_Mon": 6494,
  "-pro": 6495,
  "ogue": 6496,
  "overeign": 6497,
  "2005),": 6498,
  "quality": 6499,
  "▁2019.\n": 6500,
  "rince": 6501,
  "▁\"Oxford": 6502,
  "olden": 6503,
  "f/f": 6504,
  "▁(identifier)\"):[10.10": 6505,
  "a.gov/": 6506,
  "Template:": 6507,
  "▁began": 6508,
  "akrishnan": 6509,
  ")\"),": 6510,
  "*)": 6511,
  "CL": 6512,
  "Xavi": 6513,
  "_t": 6514,
  "_36": 6515,
  "more": 6516,
  "rance": 6517,
  "▁—": 6518,
  "▁68": 6519,
  "on,": 6520,
  "arna": 6521,
  "eral_": 6522,
  "-18": 6523,
  "▁Ad": 6524,
  "url": 6525,
  "23.": 6526,
  "238": 6527,
  "▁Tamil": 6528,
  "ly,": 6529,
  "▁Himalay": 6530,
  "▁report": 6531,
  "_Summit": 6532,
  "27)": 6533,
  "▁India\").": 6534,
  "epal": 6535,
  "_and_Development": 6536,
  "▁def": 6537,
  "333": 6538,
  "▁Vedic": 6539,
  "ummary": 6540,
  "viol": 6541,
  "_Nations": 6542,
  "_pro": 6543,
  "▁Asia:": 6544,
  "ikkim": 6545,
  "ineering": 6546,
  "co.uk/": 6547,
  "▁sector": 6548,
  "Stein2010),": 6549,
  "%7C": 6550,
  "▁[Oxford": 6551,
  "▁Islands": 6552,
  "data.worldbank.org/": 6553,
  "-lead": 6554,
  "merican": 6555,
  "Environment": 6556,
  "default": 6557,
  "apita": 6558,
  "_in_South_Asia": 6559,
  "ast_Asia_Summit": 6560,
  "data.worldbank.org/indicator": 6561,
  "-S": 6562,
  "-विज्ञान": 6563,
  ".పూ.": 6564,
  ".edu": 6565,
  "/hindi": 6566,
  "1]](https://ta.wikipedia.org/wiki/இந்தியா#cite_note-": 6567,
  "3,": 6568,
  "5]](https://ta.wikipedia.org/wiki/இந்தியா#cite_note-": 6569,
  "7).": 6570,
  "Economic": 6571,
  "Michell": 6572,
  "Oj": 6573,
  "_आ": 6574,
  "_उ": 6575,
  "_व": 6576,
  "_he": 6577,
  "_கு": 6578,
  "_देश": 6579,
  "_2004": 6580,
  "be": 6581,
  "lé": 6582,
  "lass": 6583,
  "oint": 6584,
  "ंच": 6585,
  "ईरा": 6586,
  "छत्तीस": 6587,
  "त्व": 6588,
  "फल": 6589,
  "फ्रीका": 6590,
  "लग": 6591,
  "लयाल": 6592,
  "स\")": 6593,
  "सून": 6594,
  "िंध": 6595,
  "ीच": 6596,
  "१९": 6597,
  "கிய": 6598,
  "செ": 6599,
  "சர்": 6600,
  "டும்": 6601,
  "டக்": 6602,
  "டனம்": 6603,
  "தார்": 6604,
  "னஸ்": 6605,
  "மர்": 6606,
  "ரில்": 6607,
  "ல்டு": 6608,
  "வதற்கு": 6609,
  "ீதி": 6610,
  "ோள": 6611,
  "ంతం": 6612,
  "ఆగ": 6613,
  "కళ": 6614,
  "ఖండ్": 6615,
  "గ్": 6616,
  "గిన": 6617,
  "గఢ్": 6618,
  "జో": 6619,
  "ట్ర": 6620,
  "తెలుగు": 6621,
  "ద్రా": 6622,
  "పద": 6623,
  "భి": 6624,
  "యో": 6625,
  "లక్ష": 6626,
  "వర": 6627,
  "శో": 6628,
  "షా": 6629,
  "హు": 6630,
  "హార్": 6631,
  "హాయ": 6632,
  "ాష్ట్ర": 6633,
  "ీక": 6634,
  "ీహార్": 6635,
  "ుల": 6636,
  "ుల్": 6637,
  "ోల్": 6638,
  "ోత్స": 6639,
  "ౌర్య": 6640,
  "▁·": 6641,
  "▁ரா": 6642,
  "▁his": 6643,
  "oram": 6644,
  "▁[హ": 6645,
  "▁[வி": 6646,
  "▁[Harle": 6647,
  "tes": 6648,
  "▁\"च": 6649,
  "▁\"ल": 6650,
  "▁\"హ": 6651,
  "▁\"ఢిల్లీ": 6652,
  "anc": 6653,
  "ியான்": 6654,
  "arath": 6655,
  "▁பரி": 6656,
  "ப்பந்த": 6657,
  "](https://hi.wikipedia.org/wiki/च": 6658,
  "▁कई": 6659,
  "▁कश्मीर": 6660,
  "க்கண்ட": 6661,
  "க்கிற": 6662,
  "andy": 6663,
  "து.\n": 6664,
  "▁மின்": 6665,
  "్రూ": 6666,
  "](https://te.wikipedia.org/wiki/సి": 6667,
  "▁தடு": 6668,
  "▁திட்ட": 6669,
  "▁सद": 6670,
  "▁सैन": 6671,
  "▁incre": 6672,
  "▁வகு": 6673,
  "▁இணை": 6674,
  "▁Ac": 6675,
  "▁All": 6676,
  "சினஸ்": 6677,
  "▁मुख": 6678,
  "க்சு": 6679,
  "ాలా": 6680,
  "ాలలో": 6681,
  "▁நான": 6682,
  "▁पर्वत": 6683,
  "్యం": 6684,
  "▁சூ": 6685,
  "▁ஆசியா": 6686,
  "திர்": 6687,
  "vert": 6688,
  "ర్ణా": 6689,
  "ర్మే": 6690,
  "ists": 6691,
  "களி": 6692,
  "mentin-": 6693,
  "లోక్‌సభ": 6694,
  "वित": 6695,
  "ிலுள்ள": 6696,
  "_का": 6697,
  "▁दि": 6698,
  "▁వంశ": 6699,
  "▁1970": 6700,
  "▁1965": 6701,
  "409": 6702,
  "ராட்சி": 6703,
  "▁बीच": 6704,
  "-9677": 6705,
  "▁से](http://": 6706,
  "ताज": 6707,
  "ండర్": 6708,
  "▁non-": 6709,
  "ங்களாக": 6710,
  "क्षा": 6711,
  "न्दिर": 6712,
  "త్మా": 6713,
  "▁आधिकारिक": 6714,
  "onsoon": 6715,
  "ணிப்பு": 6716,
  "▁అతి": 6717,
  "▁des": 6718,
  "स्थ": 6719,
  "ికి": 6720,
  "](https://ta.wikipedia.org/wiki/இந்தியப்_ப": 6721,
  "▁गु": 6722,
  "▁उत्पाद": 6723,
  "ाद्वीप": 6724,
  "ద్దు": 6725,
  "▁புவி": 6726,
  "▁புலி": 6727,
  "▁dem": 6728,
  "_मंदिर": 6729,
  "▁संस्कृति": 6730,
  "Harvard": 6731,
  "लेट": 6732,
  "▁பாணி": 6733,
  "प्रा": 6734,
  "▁రహదార": 6735,
  "మాచల్": 6736,
  "▁సామ్రాజ్య": 6737,
  "▁इन": 6738,
  "రువా": 6739,
  "రుణా": 6740,
  "న్నో": 6741,
  "▁\"தெ": 6742,
  "िस्ट": 6743,
  "கிறி": 6744,
  "_Re": 6745,
  "](https://ta.wikipedia.org/wiki/தெ": 6746,
  "ட்டிடக்கலை": 6747,
  "మిజో": 6748,
  "▁ఇది": 6749,
  "exis": 6750,
  "aries": 6751,
  "▁करोड़": 6752,
  "html)": 6753,
  "வெப்ப": 6754,
  "▁अनु": 6755,
  "ரிக்கும்": 6756,
  "▁జరి": 6757,
  "केर": 6758,
  "▁தொலை": 6759,
  "▁[अंग्रेज़": 6760,
  "▁மூன்று": 6761,
  "▁கொண்டுள்ளது.[[": 6762,
  "▁విస్త": 6763,
  "வேத": 6764,
  "value": 6765,
  "▁நீர்": 6766,
  "▁நீண்ட": 6767,
  "▁produc": 6768,
  "-203": 6769,
  "▁பரப்ப": 6770,
  "▁பரவல": 6771,
  "▁जनगणना": 6772,
  "▁శతాబ్ద": 6773,
  "▁हैं।\n": 6774,
  "1988": 6775,
  "ట్టు": 6776,
  "▁राजनी": 6777,
  "▁[Ludden": 6778,
  "▁\"पंजाब": 6779,
  "రాష్ట్రాలు": 6780,
  "र्थव्यवस्था": 6781,
  "వేద": 6782,
  "▁రాజకీయ": 6783,
  "▁2022.\n": 6784,
  "-language\\_s": 6785,
  "▁[पंजाब": 6786,
  "करण": 6787,
  "▁ప్రాంతాలు": 6788,
  "హిమాచల్": 6789,
  "హాత్మా": 6790,
  "▁இராச்சிய": 6791,
  "▁நாடாளுமன்ற": 6792,
  "▁होता": 6793,
  "ब्ब": 6794,
  "மயமலை": 6795,
  "74-108": 6796,
  "Harle1994),": 6797,
  "▁जिसमें": 6798,
  "ources\\_(": 6799,
  "▁பாதுகாப்புப்": 6800,
  "▁பாதுகாப்புச்": 6801,
  "▁ప్రదేశ్\")": 6802,
  "హారాష్ట్ర": 6803,
  "Wikipedia\\_articles": 6804,
  "_இந்தியப்_பொதுத்_தேர்தல்": 6805,
  "శాస్త్ర": 6806,
  "▁कारण": 6807,
  "▁கூட": 6808,
  "రాజస్థాన్": 6809,
  "ுகலாயப்": 6810,
  "▁వాతావరణ": 6811,
  "ोर्ड": 6812,
  "_मेला?action=edit&redlink=1": 6813,
  "దినోత్స": 6814,
  "▁Minorities": 6815,
  "jpg)](https://ta.wikipedia.org/wiki/படிமம்:": 6816,
  "బెంగాలీ": 6817,
  "▁காரணமாக": 6818,
  "యన్మార్": 6819,
  "▁ముఖ్య": 6820,
  "](https://ta.wikipedia.org/wiki/இந்திய_அரசு": 6821,
  "▁விரிவ": 6822,
  ".nl": 6823,
  "गोआ": 6824,
  "▁கல்வி": 6825,
  "▁பொருட்கள": 6826,
  "Wolpert2003": 6827,
  "श्रीलंका": 6828,
  "▁texts": 6829,
  "▁development": 6830,
  "union_ter": 6831,
  "ంజాబ్": 6832,
  "▁వ్యాస": 6833,
  "र्सिट": 6834,
  "గుజరాత్": 6835,
  "▁கடற்கரை": 6836,
  "-78074-108": 6837,
  "ఆఫ్ఘనిస్తాన్": 6838,
  "న్‌ఫర్మే": 6839,
  "▁(2nd": 6840,
  "இந்தோனே": 6841,
  "ूनिवर्सिट": 6842,
  "వ](https://te.wikipedia.org/wiki/List_of_": 6843,
  "రిహద్దు": 6844,
  "చ్చేరి": 6845,
  "▁[archived](https://web.archive.org/web/201": 6846,
  "ீபகற்ப": 6847,
  "Ojha": 6848,
  "lémentin-": 6849,
  "ర్ణాటక": 6850,
  "-967733-7": 6851,
  "రుణాచల్": 6852,
  "▁[अंग्रेज़ी](https://hi.wikipedia.org/wiki/अ": 6853,
  "-language\\_sources\\_(": 6854,
  "-78074-108-6": 6855,
  "న్‌ఫర్మేషన్": 6856,
  "lémentin-Ojha": 6857,
  "&s": 6858,
  "-asia": 6859,
  "/F": 6860,
  "2-0": 6861,
  "5)\n": 6862,
  "C)": 6863,
  "Spear": 6864,
  "TO": 6865,
  "_di": 6866,
  "a;": 6867,
  "dlife": 6868,
  "ix": 6869,
  "uff": 6870,
  "ward": 6871,
  "worth": 6872,
  "dic": 6873,
  "orn": 6874,
  "▁[s": 6875,
  "inan": 6876,
  "info": 6877,
  "ene": 6878,
  "ars": 6879,
  "arrow": 6880,
  "arayan": 6881,
  "ootb": 6882,
  "\\_country": 6883,
  "sig": 6884,
  "▁India*.": 6885,
  "▁power": 6886,
  "▁Social": 6887,
  "chol": 6888,
  "218": 6889,
  "ver,": 6890,
  "ildlife": 6891,
  "280": 6892,
  "▁David": 6893,
  "▁2000": 6894,
  "▁Gu": 6895,
  "▁religious": 6896,
  "29)": 6897,
  "▁Nadu": 6898,
  "▁Nehru": 6899,
  "ountain": 6900,
  "forest": 6901,
  "pecial:EditPage/": 6902,
  "aving": 6903,
  "▁Law": 6904,
  "▁London": 6905,
  "ainism": 6906,
  "▁original](http://www.": 6907,
  "_De": 6908,
  "2004),": 6909,
  "ustr": 6910,
  "857": 6911,
  "▁control": 6912,
  "▁old": 6913,
  "▁life": 6914,
  "ublishers": 6915,
  "Pages\\_using\\_": 6916,
  "▁second": 6917,
  "/articleshow/5": 6918,
  "7,26": 6919,
  "](https://en.wikipedia.org/wiki/Oxford": 6920,
  "ilgrim": 6921,
  "business-": 6922,
  "PK:14": 6923,
  "Report.pdf)": 6924,
  "sites/default": 6925,
  "Tarlo1996-26": 6926,
  "Spear1990": 6927,
  "inancial": 6928,
  "infobox": 6929,
  "ootball": 6930,
  "sites/default/files/": 6931,
  "/india-": 6932,
  "1%20": 6933,
  "2-7": 6934,
  "324": 6935,
  "Ram": 6936,
  "_value": 6937,
  "ather": 6938,
  "aut": 6939,
  "eat": 6940,
  "m2": 6941,
  "mall": 6942,
  "nominal": 6943,
  "pdf)": 6944,
  "ora": 6945,
  "anion": 6946,
  "enj": 6947,
  "rest": 6948,
  "ardian": 6949,
  "hief": 6950,
  "▁influ": 6951,
  "**\n": 6952,
  "ics": 6953,
  "ict": 6954,
  "urch": 6955,
  "▁cal": 6956,
  "ush": 6957,
  "▁Bengal": 6958,
  "-39": 6959,
  "50th": 6960,
  "upta": 6961,
  "22.": 6962,
  "▁2026": 6963,
  "▁1962": 6964,
  "_St": 6965,
  "_School": 6966,
  "40px-": 6967,
  "force": 6968,
  "akes": 6969,
  "_Per": 6970,
  "_Pro": 6971,
  "▁Liter": 6972,
  "▁Valley": 6973,
  "ummer": 6974,
  "times.indiatimes.com/": 6975,
  "_Broadcasting": 6976,
  "eck": 6977,
  "_Economic": 6978,
  "_Fund": 6979,
  "bbc": 6980,
  "risti": 6981,
  ".html).": 6982,
  "▁along": 6983,
  "cyclop": 6984,
  "volution": 6985,
  "economictimes.indiatimes.com/": 6986,
  "▁Studies": 6987,
  ".nih": 6988,
  "entral_In": 6989,
  "%)": 6990,
  "-70": 6991,
  "-logo": 6992,
  ".\")\n": 6993,
  ".](https://upload.wikimedia.org/wikipedia/commons/thumb/": 6994,
  "/D": 6995,
  "/e": 6996,
  "4]](https://ta.wikipedia.org/wiki/இந்தியா#cite_note-": 6997,
  "6),": 6998,
  "623": 6999,
  "96": 7000,
  ":C": 7001,
  "Karanth": 7002,
  "US": 7003,
  "_25": 7004,
  "_16": 7005,
  "_46": 7006,
  "d=": 7007,
  "dy": 7008,
  "ethnologue": 7009,
  "gAAQBAJ&pg=PA": 7010,
  "ime": 7011,
  "ker": 7012,
  "mrits": 7013,
  "ode": 7014,
  "range": 7015,
  "uin": 7016,
  "जम्मू": 7017,
  "पि": 7018,
  "भ्यता": 7019,
  "मो": 7020,
  "लों": 7021,
  "शा": 7022,
  "िख": 7023,
  "िम": 7024,
  "ीगढ़": 7025,
  "ॉक": 7026,
  "சரா": 7027,
  "தக்": 7028,
  "தமி": 7029,
  "மல்": 7030,
  "யக": 7031,
  "ரத": 7032,
  "ழக்கு": 7033,
  "வட்ட": 7034,
  "ேற்ற": 7035,
  "–18": 7036,
  "–120": 7037,
  "▁:": 7038,
  "▁ओ": 7039,
  "▁ஈ": 7040,
  "▁7.": 7041,
  "▁ஐக்கிய": 7042,
  "▁Books": 7043,
  "▁[எ": 7044,
  "▁[वि": 7045,
  "▁[सा": 7046,
  "▁\"ग": 7047,
  "▁\"ஐ": 7048,
  "▁\"கா": 7049,
  "en,": 7050,
  "ியது.[[": 7051,
  "alys": 7052,
  "arth": 7053,
  "estic": 7054,
  "ம்மு": 7055,
  "ன்\")": 7056,
  "▁பங்கள": 7057,
  "▁பூர்வ": 7058,
  "omestic": 7059,
  "ல்லா": 7060,
  "▁(2006),": 7061,
  "](https://hi.wikipedia.org/wiki/ल": 7062,
  "is-": 7063,
  "▁कु": 7064,
  "▁மரு": 7065,
  "▁கலைக்களஞ்சியம்": 7066,
  "▁தேர்த": 7067,
  "▁தற்போ": 7068,
  "▁सूचना": 7069,
  "[[14": 7070,
  "ation,": 7071,
  "▁வல": 7072,
  "▁வளர்": 7073,
  "▁இப்ப": 7074,
  "▁இவர்": 7075,
  "▁அணி": 7076,
  "▁அளவு": 7077,
  "▁அலுவல்": 7078,
  "atab": 7079,
  "▁मध्य": 7080,
  "▁महासागर": 7081,
  "▁SAARC": 7082,
  "▁14.": 7083,
  "ையா": 7084,
  "▁உட": 7085,
  "▁உறவு": 7086,
  "ानव": 7087,
  "டுதலை": 7088,
  "र्ज": 7089,
  "ண்வெளி": 7090,
  "▁Routledge": 7091,
  "itor": 7092,
  "▁*India": 7093,
  "▁app": 7094,
  "▁would": 7095,
  "கள்\n": 7096,
  "upt": 7097,
  "▁जी": 7098,
  "ालदीव": 7099,
  "▁Europe": 7100,
  "▁दशक": 7101,
  "▁இந்தியா\")": 7102,
  "ेशन": 7103,
  "ेशिया": 7104,
  "ற்கால": 7105,
  "ரால்": 7106,
  "elang": 7107,
  "_Par": 7108,
  "abh": 7109,
  "▁these": 7110,
  "வால்": 7111,
  "வாய்": 7112,
  "▁பெண்கள்": 7113,
  "2011religion": 7114,
  "क्षर": 7115,
  "india-b": 7116,
  "aph": 7117,
  "षाण": 7118,
  "ிரிபு": 7119,
  "▁2011.": 7120,
  "_DS": 7121,
  "]](https://en.wikipedia.org/wiki/India#cite_note-FOOTNOTEMetcalfMetcalf2006": 7122,
  "▁शक्ति": 7123,
  "▁शिक्षा": 7124,
  "▁இந்தியத்": 7125,
  "काश": 7126,
  "▁பாலைவன": 7127,
  "தியில்": 7128,
  "▁ஆகும்.[[": 7129,
  "▁\"British": 7130,
  "ंडीगढ़": 7131,
  "த்தியப்": 7132,
  "▁लोग": 7133,
  "arkar": 7134,
  "ுள்ளன.": 7135,
  "ssam": 7136,
  "efence": 7137,
  "வியியல்": 7138,
  "▁அரச": 7139,
  "▁क्षेत्रीय": 7140,
  "▁சுல்தான": 7141,
  "▁மேற்க": 7142,
  "▁மூடப்பட்ட": 7143,
  "▁இருந்தது.": 7144,
  "▁पुरा": 7145,
  "கிழக்கு": 7146,
  "▁உருவாக": 7147,
  "outledge?action=edit&redlink=1": 7148,
  "▁பெருங்க": 7149,
  "▁ஆகியவற்ற": 7150,
  "▁வாழ": 7151,
  "जनसंख्या": 7152,
  "▁जनसंख्या": 7153,
  "▁वर्ग": 7154,
  "ப்பின": 7155,
  "நாத்": 7156,
  "நாயக": 7157,
  "▁\"Official": 7158,
  "]](https://hi.wikipedia.org/wiki/भारत#cite_note-FOOTNOTEStein1998": 7159,
  "c=0&": 7160,
  "▁அரசியலமைப்பு": 7161,
  "Craven1997),": 7162,
  "](https://en.wikipedia.org/wiki/History": 7163,
  "_மொழிகள்": 7164,
  "utes": 7165,
  "▁Thomas": 7166,
  "urrent": 7167,
  "▁மக்கள்தொகை": 7168,
  "मुख्य": 7169,
  "▁2001](https://ta.wikipedia.org/wiki/இந்தியா#CITEREF": 7170,
  "View": 7171,
  "த்தரப்": 7172,
  "ப்படுகிறது.[[": 7173,
  "▁स्थित": 7174,
  "▁தொகைக்": 7175,
  "Pandit": 7176,
  "▁இரண்டாவது": 7177,
  "_அடிப்படையில்_நாடுகளின்_பட்டியல்": 7178,
  "▁[Routledge](https://ta.wikipedia.org/wiki/R": 7179,
  "▁2006](https://en.wikipedia.org/wiki/India#CITEREFMetcalfMetcalf2006),": 7180,
  "achine": 7181,
  "त्तराखण्ड": 7182,
  "▁அடர்த்த": 7183,
  "Census2011religion": 7184,
  "▁அமெரிக்கா": 7185,
  "▁अप्रैल": 7186,
  "हिमाचल": 7187,
  "▁article:": 7188,
  "▁लेख:": 7189,
  "ப்பிரிக்கா": 7190,
  "edieval": 7191,
  "▁शताब्दी": 7192,
  "Home_Affairs": 7193,
  "ethnologue.com/": 7194,
  "mritsar": 7195,
  "▁பங்களி": 7196,
  "▁[Routledge](https://ta.wikipedia.org/wiki/Routledge?action=edit&redlink=1": 7197,
  "0/0": 7198,
  "3).": 7199,
  "314": 7200,
  "5).": 7201,
  "Ali": 7202,
  "Aitchison": 7203,
  "DPD": 7204,
  "SN": 7205,
  "Sanskrit": 7206,
  "Times": 7207,
  "_a_": 7208,
  "ble": 7209,
  "ez": 7210,
  "oa": 7211,
  "rum": 7212,
  "ual": 7213,
  "x.": 7214,
  "▁go": 7215,
  "▁qu": 7216,
  "dives": 7217,
  "▁[National": 7218,
  "rew": 7219,
  "algra": 7220,
  "aldives": 7221,
  "erved": 7222,
  "hip": 7223,
  "cia.gov/": 7224,
  "omb": 7225,
  "ising": 7226,
  "rip": 7227,
  "789": 7228,
  "amili": 7229,
  "▁Ste": 7230,
  "ada": 7231,
  "ederal": 7232,
  "ches": 7233,
  "▁2015.": 7234,
  "▁billion": 7235,
  "108": 7236,
  "▁where": 7237,
  "▁Economy": 7238,
  "\"](https://web.archive.org/web/20": 7239,
  "web.archive.org/web/2009": 7240,
  "trib": 7241,
  "_in_the": 7242,
  "a_C": 7243,
  "aves": 7244,
  "ains": 7245,
  ")[[4": 7246,
  "&pg=PT": 7247,
  "48)": 7248,
  "489": 7249,
  "_Times": 7250,
  "hatt": 7251,
  "%2C_S": 7252,
  "-india/": 7253,
  "\"](https://web.archive.org/web/20150": 7254,
  "inema": 7255,
  "athur": 7256,
  "▁2010\n": 7257,
  "awahar": 7258,
  "▁\"Re": 7259,
  "▁range": 7260,
  "▁commun": 7261,
  "indus": 7262,
  "kingdom": 7263,
  "▁2020.": 7264,
  "ampion": 7265,
  "_number": 7266,
  "▁prime": 7267,
  "cript": 7268,
  "telligence_Agency": 7269,
  "pectancy": 7270,
  "_languages": 7271,
  "actbook/": 7272,
  "▁estimate": 7273,
  "rakash": 7274,
  "nominal)": 7275,
  "ristian": 7276,
  "entral_Intelligence_Agency": 7277,
  "AliAitchison": 7278,
  "algrave": 7279,
  "awaharl": 7280,
  "AliAitchison2005": 7281,
  "1200": 7282,
  "41": 7283,
  "748": 7284,
  "Alig": 7285,
  "Business": 7286,
  "Garg": 7287,
  "L.": 7288,
  "_39": 7289,
  "dar": 7290,
  "eers": 7291,
  "ij": 7292,
  "paper": 7293,
  "uil": 7294,
  "ంతి": 7295,
  "కాల": 7296,
  "కారం": 7297,
  "ఖ్": 7298,
  "గంగా": 7299,
  "టో": 7300,
  "డిన": 7301,
  "తీ": 7302,
  "ధి": 7303,
  "ధించ": 7304,
  "నల్": 7305,
  "మన": 7306,
  "మర": 7307,
  "ర్యా": 7308,
  "లం": 7309,
  "లతో": 7310,
  "లమె": 7311,
  "ీస్": 7312,
  "ూప": 7313,
  "ూరు": 7314,
  "ెనీ": 7315,
  "ౌక": 7316,
  "–5": 7317,
  "▁°": 7318,
  "▁ద": 7319,
  "▁ఫ": 7320,
  "▁80": 7321,
  "▁దక్షిణ": 7322,
  "▁హిందూ": 7323,
  "▁గాంధీ": 7324,
  "▁[భారతదేశం": 7325,
  "▁[ఢిల్లీ": 7326,
  "index": 7327,
  "arsh": 7328,
  "190": 7329,
  "rior": 7330,
  "asing": 7331,
  "ారస": 7332,
  "lib": 7333,
  "ago": 7334,
  "▁Summit\")": 7335,
  "ads": 7336,
  "ed,": 7337,
  "ాలను": 7338,
  "00–సా.శ.పూ.": 7339,
  "21.": 7340,
  "స్](https://te.wikipedia.org/wiki/": 7341,
  "▁పెద్ద": 7342,
  "▁Report": 7343,
  "ర్లు": 7344,
  "2542-5": 7345,
  "▁Dictionary": 7346,
  "లు\")": 7347,
  "▁western": 7348,
  "▁employ": 7349,
  "▁Games": 7350,
  "ంది": 7351,
  "▁వే": 7352,
  "15)": 7353,
  "▁Fund": 7354,
  "▁Food": 7355,
  "ability": 7356,
  "▁through": 7357,
  "pecially": 7358,
  "a_M": 7359,
  "a_d": 7360,
  "-526": 7361,
  "▁forest": 7362,
  "త్తం": 7363,
  "api": 7364,
  "▁(సా.శ.15": 7365,
  "▁(సా.శ.13": 7366,
  "▁అనే": 7367,
  "▁ప్రజ": 7368,
  "తం\")": 7369,
  "ంచి": 7370,
  "%2C_India.": 7371,
  "▁Press](https://en.wikipedia.org/wiki/Oxford": 7372,
  "▁ఆఫ్": 7373,
  "ibet": 7374,
  "▁సాం": 7375,
  "ార్లమె": 7376,
  "▁[British": 7377,
  "eccan": 7378,
  "కిస్థాన్": 7379,
  "▁నే": 7380,
  "▁నగర": 7381,
  "ాయి.": 7382,
  "▁[Dikshit": 7383,
  "uddhism": 7384,
  "టిబె": 7385,
  "్రీ.పూ.": 7386,
  "AsherTalbot2006),": 7387,
  "feb": 7388,
  "▁rate": 7389,
  "ండియా": 7390,
  "_Lank": 7391,
  "▁ఎక్కువ": 7392,
  "▁ఎన్నో": 7393,
  "](https://books.google.com/books?id=ZvaGuaJIJgoC&pg=PA": 7394,
  "](https://books.google.com/books?id=kZVuDwAAQBAJ&pg=PA": 7395,
  "on-Alig": 7396,
  "▁./వర్గం:Wikipedia\\_articles": 7397,
  "poration": 7398,
  "_సం": 7399,
  "_and_depend": 7400,
  "ారు.\n": 7401,
  "టుంబ": 7402,
  "India.pdf)": 7403,
  "▁భారత్": 7404,
  "▁member": 7405,
  "DikshitSchwartzberg2023),": 7406,
  "▁Empire\")": 7407,
  "మెరి": 7408,
  "IAEXT": 7409,
  "▁మొత్తం": 7410,
  "akhand": 7411,
  "బాద్": 7412,
  "ంపెనీ": 7413,
  "ylee": 7414,
  "Provisional_Population_Totals_Paper_1_of_2011_India16": 7415,
  "హ్మ": 7416,
  "langoff-1": 7417,
  "▁ఏర్": 7418,
  "b/b": 7419,
  "్రిటిషు": 7420,
  "_Islands": 7421,
  "▁minister": 7422,
  "▁2010](https://en.wikipedia.org/wiki/India#CITEREFStein2010),": 7423,
  "yanmar": 7424,
  "ultanate": 7425,
  "▁అత్యధిక": 7426,
  "ministrative": 7427,
  "ీర్ణ": 7428,
  "ustralia": 7429,
  "దక్షిణ_ఆసియా": 7430,
  "reedom": 7431,
  "-language\\_sources\\_(en": 7432,
  "Spear199024": 7433,
  "2542-5196": 7434,
  "▁Press](https://en.wikipedia.org/wiki/Oxford_University_Press": 7435,
  "on-Aligned": 7436,
  "▁./వర్గం:Wikipedia\\_articles\\_with\\_": 7437,
  "-w": 7438,
  "-24": 7439,
  "-22": 7440,
  "-gen": 7441,
  "2-3": 7442,
  "528": 7443,
  "6]](https://ta.wikipedia.org/wiki/இந்தியா#cite_note-": 7444,
  "8%": 7445,
  "9-6": 7446,
  "Be": 7447,
  "Bharat": 7448,
  "De": 7449,
  "Kuiper": 7450,
  "Organisation": 7451,
  "PO": 7452,
  "_राज": 7453,
  "_45": 7454,
  "ading": 7455,
  "gni": 7456,
  "ham": 7457,
  "odia": 7458,
  "spec": 7459,
  "को": 7460,
  "गत": 7461,
  "गू": 7462,
  "तृत": 7463,
  "म\")": 7464,
  "वल": 7465,
  "श्य": 7466,
  "षय": 7467,
  "हरा": 7468,
  "हित": 7469,
  "िनेमा": 7470,
  "ी.": 7471,
  "ृद्ध": 7472,
  "ेघ": 7473,
  "கோ": 7474,
  "தர": 7475,
  "மல": 7476,
  "மிருந்து": 7477,
  "மேற்கு": 7478,
  "மசுக": 7479,
  "ய்க": 7480,
  "லமை": 7481,
  "ழர்": 7482,
  "ாந்திய": 7483,
  "ேய": 7484,
  "▁z": 7485,
  "▁end": 7486,
  "orne": 7487,
  "tten": 7488,
  "▁[c": 7489,
  "▁[ग": 7490,
  "▁[சி": 7491,
  "▁[வங்காள": 7492,
  "▁[தேசிய": 7493,
  "▁\"எ": 7494,
  "▁\"ஜ": 7495,
  "▁\"வ": 7496,
  "▁\"சிறப்பு:BookSources/978": 7497,
  "▁\"ஐக்கிய": 7498,
  "▁\"வங்காள": 7499,
  "▁\"தேசிய": 7500,
  "▁\"तमिल": 7501,
  "rel": 7502,
  "](https://ta.wikipedia.org/wiki/ஜ": 7503,
  "](https://ta.wikipedia.org/wiki/சிறப்பு:BookSources/978": 7504,
  "ம்ம": 7505,
  "▁பட்ட": 7506,
  "▁பௌத்த": 7507,
  "ல்ப": 7508,
  "ல்வே": 7509,
  "ப்பான்": 7510,
  "▁(J": 7511,
  "க்கை": 7512,
  "க்கப்படும்": 7513,
  "1980": 7514,
  "துரு": 7515,
  "துடுப்பாட்ட": 7516,
  "▁மதிப்ப": 7517,
  "த்தக": 7518,
  "த்தீ": 7519,
  "▁க.": 7520,
  "▁கிட்ட": 7521,
  "▁தீவு": 7522,
  "▁தீபகற்ப": 7523,
  "▁सक": 7524,
  "ets": 7525,
  "etwork": 7526,
  "्यों": 7527,
  "ையான": 7528,
  "educ": 7529,
  "க்சி": 7530,
  "los": 7531,
  "▁நபர்": 7532,
  "▁2017.": 7533,
  "▁four": 7534,
  "ிரதேசம்": 7535,
  "umeration": 7536,
  "ாட்டில்": 7537,
  "▁உல": 7538,
  "urban": 7539,
  "டுவண்": 7540,
  "ண்டும்": 7541,
  "1991": 7542,
  "287,26": 7543,
  "_தே": 7544,
  "▁अव": 7545,
  "](https://ta.wikipedia.org/wiki/பி": 7546,
  "iger": 7547,
  "igration": 7548,
  "▁emerg": 7549,
  "▁G.": 7550,
  "▁[\"H": 7551,
  "▁\"பி": 7552,
  "▁प्रेस": 7553,
  "▁प्रौद्योगिक": 7554,
  "्वतंत्रता": 7555,
  "ishing": 7556,
  "ாலும்": 7557,
  "த்துக்கு": 7558,
  "▁Ocean": 7559,
  "▁[Sharma": 7560,
  "▁குகை": 7561,
  "▁L.": 7562,
  "▁व्य": 7563,
  "▁*[ப": 7564,
  "வினை": 7565,
  "▁உள்ளிட்ட": 7566,
  "▁2011](https://ta.wikipedia.org/wiki/இந்தியா#CITEREF": 7567,
  "49-2": 7568,
  "](https://ta.wikipedia.org/wiki/இந்தியக்_": 7569,
  "ற்பத்தி": 7570,
  "▁शु": 7571,
  "▁புது": 7572,
  "▁संसद": 7573,
  "ங்கள்,": 7574,
  "neworld": 7575,
  "s.\"\n": 7576,
  "_Mahal": 7577,
  "ियार": 7578,
  "](https://ta.wikipedia.org/wiki/முகலாய": 7579,
  "▁பிராந்திய": 7580,
  "_அமைப்பு": 7581,
  "▁disc": 7582,
  "க்கித்தான்": 7583,
  "க்கிப்பீ": 7584,
  "கிறது.[[": 7585,
  "▁लोक": 7586,
  "▁\"கேம்பிறிட்ஜ்": 7587,
  "▁राज्य\")": 7588,
  "▁[கேம்பிறிட்ஜ்": 7589,
  "](https://ta.wikipedia.org/wiki/கேம்பிறிட்ஜ்": 7590,
  "-symbols": 7591,
  "हाय": 7592,
  "परमाणु": 7593,
  "ोलन": 7594,
  "PPC": 7595,
  "▁மேற்பட்ட": 7596,
  "684": 7597,
  "▁மூன்றா": 7598,
  "▁இருந்தது.[[": 7599,
  "▁US": 7600,
  "ेली": 7601,
  "▁பதிப்பகம்](https://ta.wikipedia.org/wiki/கேம்பிறிட்ஜ்": 7602,
  "▁Review": 7603,
  "கித": 7604,
  "▁2007\n": 7605,
  "▁நடனம்": 7606,
  "national-symbols": 7607,
  "▁[இல": 7608,
  "வரலா": 7609,
  "▁जाती": 7610,
  "ிழக்கா": 7611,
  "▁राजवंश": 7612,
  "▁स्था": 7613,
  "▁स्थान": 7614,
  "ज्ज": 7615,
  "illenni": 7616,
  "▁தலைமை": 7617,
  "arliest": 7618,
  "_உற்பத்தி": 7619,
  "▁வரைய": 7620,
  "▁[3](https://ta.wikipedia.org/wiki/இந்தியா#cite_ref-FOOTNOTE": 7621,
  "▁இலட்ச": 7622,
  "415-3": 7623,
  "▁இதற்கு": 7624,
  "▁நாடாக": 7625,
  "_நாடுகள்": 7626,
  "▁प्राचीन": 7627,
  "▁பகுதியாக": 7628,
  "▁ed.).": 7629,
  "▁உருவாக்கப்பட்ட": 7630,
  "▁था।": 7631,
  "▁धर्म\")": 7632,
  "க்_கா": 7633,
  "க்கோபார்": 7634,
  "▁விளையாட்டுப்": 7635,
  "▁செய்த": 7636,
  "_to_the": 7637,
  "னைத்துலக": 7638,
  "▁(identifier)\"):[10.": 7639,
  "ांग्लादेश": 7640,
  "ஜி-20": 7641,
  "](https://doi.org/10.": 7642,
  ".htm)": 7643,
  "▁நுட்ப": 7644,
  "▁ஆண்டின்": 7645,
  "▁3,287,26": 7646,
  "_Force": 7647,
  "महाद्वीप": 7648,
  "▁குடியரசுத்": 7649,
  "ரசியல்": 7650,
  "▁\"हिन्दी\")": 7651,
  "▁இதுவாகும்.": 7652,
  "▁1994](https://ta.wikipedia.org/wiki/இந்தியா#CITEREF": 7653,
  "▁முக்கியமான": 7654,
  "▁\"Routledge\"),": 7655,
  "▁திரைப்படத்துறை\"),": 7656,
  "▁पहले": 7657,
  "ssociation": 7658,
  "▁குறிப்பிடத்தக்க": 7659,
  "▁[हिन्दी](https://hi.wikipedia.org/wiki/हिन्दी": 7660,
  "▁चुनावों": 7661,
  "data.worldbank.org/indicator/S": 7662,
  "▁सैन्य": 7663,
  "▁நான்க": 7664,
  "க்கிப்பீடியா": 7665,
  "▁பதிப்பகம்](https://ta.wikipedia.org/wiki/கேம்பிறிட்ஜ்_பல்கலைக்கழகப்_பதிப்பகம்": 7666,
  "\"](http://": 7667,
  "-national-language": 7668,
  "4),": 7669,
  "AC": 7670,
  "DR": 7671,
  "He": 7672,
  "LS": 7673,
  "MDD": 7674,
  "M50th": 7675,
  "NCL": 7676,
  "XLS": 7677,
  "_28": 7678,
  "_rec": 7679,
  "rofile": 7680,
  "uted": 7681,
  "wana": 7682,
  "wAAQBAJ&pg=PA": 7683,
  "–70": 7684,
  "▁78": 7685,
  "▁im": 7686,
  "orship": 7687,
  "](Category:": 7688,
  "▁[m": 7689,
  "▁[University": 7690,
  "▁\"University": 7691,
  "arendra": 7692,
  "er-": 7693,
  "cific": 7694,
  "▁(India": 7695,
  "▁off": 7696,
  "lima": 7697,
  "-15": 7698,
  "▁Court": 7699,
  "▁Central": 7700,
  "▁California": 7701,
  "agari": 7702,
  "▁far": 7703,
  "▁sq": 7704,
  "urs": 7705,
  "raz": 7706,
  "▁*A": 7707,
  "ilbert": 7708,
  "▁Department": 7709,
  "-49": 7710,
  "ayana": 7711,
  "▁reg": 7712,
  "▁Nuclear": 7713,
  "159": 7714,
  "ountries": 7715,
  "▁[*M": 7716,
  "akar": 7717,
  "*](https://archive.org/details/": 7718,
  "_Air": 7719,
  "▁near": 7720,
  "▁Languages": 7721,
  "▁Wall": 7722,
  "47.": 7723,
  "384": 7724,
  "own": 7725,
  "▁[Ar": 7726,
  "gions": 7727,
  "37.": 7728,
  "]](https://en.wikipedia.org/wiki/India#cite_note-FOOTNOTEStein2010": 7729,
  "▁\"Category:": 7730,
  "▁dec": 7731,
  "▁differ": 7732,
  "_East_Asia_Summit": 7733,
  "-market": 7734,
  "▁Religion": 7735,
  "▁technology": 7736,
  "1/DD": 7737,
  "attle": 7738,
  "_des": 7739,
  "](https://en.wikipedia.org/wiki/List_of_countries_by": 7740,
  "▁right": 7741,
  "amily": 7742,
  "_Indian_": 7743,
  "_1960": 7744,
  "▁km2": 7745,
  "AARC_summit": 7746,
  "maputra": 7747,
  "formance": 7748,
  "vanagari": 7749,
  "issing": 7750,
  "ribution": 7751,
  "rahmaputra": 7752,
  "▁Companion": 7753,
  "S.XLS": 7754,
  "stitution": 7755,
  "content/": 7756,
  "business/": 7757,
  "▁Publications": 7758,
  "C-01%20": 7759,
  "C-01/DD": 7760,
  "▁groups": 7761,
  "censusindia.gov.in/2011census/C-01/DD": 7762,
  "Jha2018": 7763,
  "nclm.nic.in/shared/linkimages/NCL": 7764,
  "Xavier": 7765,
  "MDDS.XLS": 7766,
  "M50thReport.pdf)": 7767,
  "C-01%20MDDS.XLS": 7768,
  "censusindia.gov.in/2011census/C-01/DDW": 7769,
  "nclm.nic.in/shared/linkimages/NCLM50thReport.pdf)": 7770,
  "-ma": 7771,
  "-ex": 7772,
  "7C": 7773,
  "8,": 7774,
  "Central_Intelligence_Agency": 7775,
  "GDP": 7776,
  "Web": 7777,
  "_7": 7778,
  "_U": 7779,
  "_2009": 7780,
  "_43": 7781,
  "ful": 7782,
  "iz": 7783,
  "jec": 7784,
  "m.nih": 7785,
  "tar": 7786,
  "uardian": 7787,
  "▁60": 7788,
  "ortheast": 7789,
  "▁[World": 7790,
  "▁[Robb": 7791,
  "\")\"": 7792,
  "eri": 7793,
  "hild": 7794,
  "nold": 7795,
  "et/": 7796,
  "aten": 7797,
  "stru": 7798,
  "▁Sec": 7799,
  "▁Survey": 7800,
  "adh": 7801,
  "adra": 7802,
  "\"),[[": 7803,
  "▁summit": 7804,
  "ume": 7805,
  "▁movement": 7806,
  "▁Trade": 7807,
  "-45": 7808,
  "11.": 7809,
  "169": 7810,
  "▁last": 7811,
  "a_Empire": 7812,
  "imach": 7813,
  "▁Lank": 7814,
  "_Co-operation": 7815,
  "_and_T": 7816,
  "▁Kingdom": 7817,
  "_Day": 7818,
  "Roy": 7819,
  "▁within": 7820,
  "arden": 7821,
  "_128": 7822,
  "_Games": 7823,
  "enguin": 7824,
  "svar": 7825,
  "ece)": 7826,
  "bbc.": 7827,
  "▁State": 7828,
  "_the_": 7829,
  "cms)": 7830,
  "pics": 7831,
  "▁[*An": 7832,
  "bi.nl": 7833,
  "▁Programme": 7834,
  "e/e": 7835,
  "▁across": 7836,
  "usiness/": 7837,
  "▁2024.": 7838,
  "▁Short": 7839,
  "ksai": 7840,
  "▁especially": 7841,
  "vidence": 7842,
  "_for_Economic": 7843,
  "▁(2014).": 7844,
  "icobar": 7845,
  "▁Plateau": 7846,
  "citation": 7847,
  "ncbi.nl": 7848,
  "express.com/": 7849,
  "education": 7850,
  "_Co-operation_and_Development": 7851,
  "bbc.co.uk/": 7852,
  "_for_Economic_Co-operation_and_Development": 7853,
  "ncbi.nlm.nih": 7854,
  "\">": 7855,
  "-the-": 7856,
  ".org/wiki": 7857,
  "/).": 7858,
  "1-2": 7859,
  "1)[[": 7860,
  "3]](https://ta.wikipedia.org/wiki/இந்தியா#cite_note-": 7861,
  "336": 7862,
  "4).": 7863,
  "5),": 7864,
  "6.\n": 7865,
  "7]](https://ta.wikipedia.org/wiki/இந்தியா#cite_note-": 7866,
  "7)[[": 7867,
  "8+": 7868,
  "8–": 7869,
  ":**": 7870,
  ";<": 7871,
  "</": 7872,
  "BE": 7873,
  "E%": 7874,
  "EB": 7875,
  "E﻿": 7876,
  "IL": 7877,
  "LD": 7878,
  "Lear": 7879,
  "RA": 7880,
  "_e": 7881,
  "_घ": 7882,
  "_द": 7883,
  "_ஒ": 7884,
  "_2019": 7885,
  "aury": 7886,
  "hang": 7887,
  "hmed": 7888,
  "i>": 7889,
  "iw": 7890,
  "ka": 7891,
  "other": 7892,
  "ovi": 7893,
  "pi": 7894,
  "pro": 7895,
  "s:": 7896,
  "tl": 7897,
  "tool": 7898,
  "yri": 7899,
  "ंत": 7900,
  "अभि": 7901,
  "क्": 7902,
  "खन": 7903,
  "गान": 7904,
  "ग्व": 7905,
  "च्": 7906,
  "जं": 7907,
  "टान": 7908,
  "थिल": 7909,
  "दार": 7910,
  "फोर्ड": 7911,
  "ब्ल": 7912,
  "बेट": 7913,
  "भु": 7914,
  "मु": 7915,
  "यत": 7916,
  "यर": 7917,
  "रत": 7918,
  "वास": 7919,
  "ेड": 7920,
  "ैंक": 7921,
  "ैथिल": 7922,
  "ॉल": 7923,
  "ॉंग्रेस": 7924,
  "ोस": 7925,
  "ौसेना": 7926,
  "१८": 7927,
  "२००": 7928,
  "கால": 7929,
  "கனாமி": 7930,
  "சார்": 7931,
  "தான": 7932,
  "திர": 7933,
  "ப்க": 7934,
  "படை": 7935,
  "மின்": 7936,
  "யண": 7937,
  "யில": 7938,
  "யநகர": 7939,
  "ரின்": 7940,
  "ரங்க": 7941,
  "றாக": 7942,
  "லிருந்து": 7943,
  "லங்கா": 7944,
  "ழந்தை": 7945,
  "வர்\")": 7946,
  "ைச்": 7947,
  "ோக்": 7948,
  "▁`": 7949,
  "▁web": 7950,
  "▁ईसा": 7951,
  "▁[ड": 7952,
  "▁[ल": 7953,
  "▁[ஐக்கிய": 7954,
  "▁[दक्षिण": 7955,
  "▁[पाकिस्तान": 7956,
  "▁\"दक्षिण": 7957,
  "▁\"இந்து": 7958,
  "▁\"पाकिस्तान": 7959,
  "▁\"எண்ணிம": 7960,
  "ines": 7961,
  "2021": 7962,
  "ியூ": 7963,
  "ியும்": 7964,
  "ties/": 7965,
  "ந்தைய": 7966,
  "ந்தது.[[": 7967,
  "alam": 7968,
  "arbar": 7969,
  "](https://ta.wikipedia.org/wiki/P": 7970,
  "](https://ta.wikipedia.org/wiki/எ": 7971,
  "](https://ta.wikipedia.org/wiki/சி": 7972,
  "](https://ta.wikipedia.org/wiki/கா": 7973,
  "ன்சு": 7974,
  "▁பிரித்தானிய": 7975,
  "▁(2008": 7976,
  "](https://hi.wikipedia.org/wiki/न": 7977,
  "](https://hi.wikipedia.org/wiki/पाकिस्तान": 7978,
  "க்கில்": 7979,
  "19.": 7980,
  "▁மறை": 7981,
  "-0\")\n": 7982,
  "भारत)": 7983,
  "▁தன்": 7984,
  "▁தங்கள": 7985,
  "▁தகவல்": 7986,
  "ருக்கு": 7987,
  "▁साल": 7988,
  "[[Category:": 7989,
  "\\_of": 7990,
  "▁வள": 7991,
  "▁வில": 7992,
  "▁வில்லி": 7993,
  "▁Civil": 7994,
  "▁அன்": 7995,
  "▁அழி": 7996,
  "▁मो": 7997,
  "▁मौ": 7998,
  "▁Singh": 7999,
  "ப்புச்": 8000,
  "ையுடைய": 8001,
  "well": 8002,
  "▁நவீன": 8003,
  "राम": 8004,
  "ultures": 8005,
  "ிரஸ்": 8006,
  "▁சொ": 8007,
  "▁சன்ஸ்": 8008,
  "▁class": 8009,
  "▁ஆவணச்": 8010,
  "](https://hi.wikipedia.org/wiki/भारत_के": 8011,
  "unknown": 8012,
  "▁Territory": 8013,
  "-0-19": 8014,
  "குடா": 8015,
  "▁[↑](https://ta.wikipedia.org/wiki/இந்தியா#cite_ref-Combined": 8016,
  "கள்,": 8017,
  "upreme": 8018,
  "▁economy": 8019,
  "_की_": 8020,
  "▁Home": 8021,
  "▁இந்தியா](https://ta.wikipedia.org/wiki/தி_": 8022,
  "opal": 8023,
  "sehl": 8024,
  "ंगाना": 8025,
  "▁भारत\")": 8026,
  "abha": 8027,
  "_An": 8028,
  "geoh": 8029,
  "▁On": 8030,
  "▁Organization": 8031,
  "_in_T": 8032,
  "▁nation": 8033,
  "▁குறு": 8034,
  "காதமி": 8035,
  "ம்பட்டியல்": 8036,
  "▁[↑](https://ta.wikipedia.org/wiki/இந்தியா#cite_ref-FOOTNOTEM": 8037,
  "▁आर्थिक": 8038,
  "▁உள்ளன.[[": 8039,
  "▁விளைய": 8040,
  "39-4": 8041,
  "ல்கள": 8042,
  "▁இருக்க": 8043,
  "ड़ियाँ": 8044,
  "_மக்கள": 8045,
  "▁उन": 8046,
  "ார்.[[": 8047,
  "லைக்காட்சி": 8048,
  "ossehl": 8049,
  "काता": 8050,
  "news": 8051,
  "-106": 8052,
  "▁इंडिया": 8053,
  "மிச": 8054,
  "ी](https://hi.wikipedia.org/wiki/द": 8055,
  "▁பிரதி": 8056,
  "_அமை": 8057,
  "▁அமைச்சகம்": 8058,
  "ंडोन": 8059,
  "ஞ்சி": 8060,
  "_November": 8061,
  "▁\"தில்லி": 8062,
  "க்கிந்திய": 8063,
  "emocracy": 8064,
  "_Ram": 8065,
  "world-asia": 8066,
  "_GDP": 8067,
  "▁[தெ": 8068,
  "▁[தொ": 8069,
  "ச்சினை": 8070,
  "▁राज्यक्षेत्र": 8071,
  "ட்டிகள்": 8072,
  "ப்படுத்த": 8073,
  "▁विस्त": 8074,
  "▁विदेश": 8075,
  "2014_": 8076,
  "alian": 8077,
  "▁காற்று": 8078,
  "▁வெப்ப": 8079,
  "▁வெளி": 8080,
  "▁வெற்றி": 8081,
  "▁வெளிய": 8082,
  "ंग्रेजी": 8083,
  "ोलकाता": 8084,
  "_ஆஃப்": 8085,
  "_ஆவணச்": 8086,
  "shis": 8087,
  "ंध्र": 8088,
  "▁अन्त": 8089,
  "▁क्षेत्रों": 8090,
  "▁சுட்டி\")": 8091,
  "qui": 8092,
  "▁नेतृत": 8093,
  "pril_20": 8094,
  "केन्द्र": 8095,
  "span": 8096,
  "▁\"अंग्रेज़ी": 8097,
  "▁நீடி": 8098,
  "ureau": 8099,
  "▁देश\")": 8100,
  "▁जनवरी": 8101,
  "▁1500": 8102,
  "▁change": 8103,
  "हरिया": 8104,
  "ूर्वी": 8105,
  "पुरम": 8106,
  "▁मेला\"),": 8107,
  "▁தேர்ந்த": 8108,
  "ervice": 8109,
  "ंग्रेज़ी_भाषा": 8110,
  "िशा": 8111,
  "▁addition": 8112,
  "▁ஏற்பட்ட": 8113,
  "▁\"இல": 8114,
  "▁குறிப்பாக": 8115,
  "_Press?action=edit&redlink=1": 8116,
  "▁२०१": 8117,
  "டைம்ஸ்_ஆஃப்": 8118,
  "समिया": 8119,
  "▁Art": 8120,
  "ज्ञाप": 8121,
  "न्नई": 8122,
  "बंधन": 8123,
  "▁पुरालेखित।,": 8124,
  "](https://ta.wikipedia.org/wiki/இல": 8125,
  "வற்றின்": 8126,
  "ெருக்க": 8127,
  "▁<https://www.": 8128,
  "▁Publishing\"),": 8129,
  "▁பெரும்பான்": 8130,
  "▁about": 8131,
  "▁मानसून": 8132,
  "_और_संघ": 8133,
  "▁युग": 8134,
  "▁மூலம்": 8135,
  "रक्षा": 8136,
  "वादी": 8137,
  "வடகிழக்கு": 8138,
  "▁स्वतंत्रता": 8139,
  "_के_आधार_पर_भारत_के_राज्यों_की_सूची": 8140,
  "119–120": 8141,
  "तेलंगाना": 8142,
  "▁என்பது": 8143,
  "▁ஆண்டில்": 8144,
  "ataraj": 8145,
  "▁People": 8146,
  "चेन्नई": 8147,
  "▁பண்பாடு": 8148,
  "▁बहुत": 8149,
  "▁துணைக்கண்ட": 8150,
  "▁பொருட்கள்": 8151,
  "_Commission": 8152,
  "text": 8153,
  "पीठ": 8154,
  "▁நாணய": 8155,
  "_சுட்டி": 8156,
  "எண்ணிம_ஆவணச்": 8157,
  "க்கிண்ணம்": 8158,
  "ப்படுகின்றன.[[": 8159,
  "Ministry_of_Home_Affairs": 8160,
  "▁[doi](https://ta.wikipedia.org/wiki/எண்ணிம_ஆவணச்": 8161,
  "ennai": 8162,
  "क्सफोर्ड": 8163,
  "ண்களுக்கு": 8164,
  "▁நீதிமன்ற": 8165,
  "▁निर्माण": 8166,
  "bhash": 8167,
  "त्रिपुरा": 8168,
  "ில்லியன்": 8169,
  "_Publishing?action=edit&redlink=1": 8170,
  "](https://ta.wikipedia.org/wiki/உலக_வ": 8171,
  "▁கட்டுரை:": 8172,
  "तेलुगू": 8173,
  "rajbhash": 8174,
  "லையாள": 8175,
  "▁பிரபல": 8176,
  "▁வேறுபட்ட": 8177,
  "भीमबेट": 8178,
  "](https://dx.": 8179,
  "donesia": 8180,
  "झारखंड": 8181,
  "-0-521-80904-7": 8182,
  "▁உள்ளடக்கிய": 8183,
  "ல்வகைமை": 8184,
  "छत्तीसगढ़": 8185,
  "िंधु": 8186,
  "▁मुख्य": 8187,
  "ணிப்புரி": 8188,
  "ब्बत": 8189,
  "▁[अंग्रेज़ी](https://hi.wikipedia.org/wiki/अंग्रेज़ी_भाषा": 8190,
  "ustralian": 8191,
  "▁ओर": 8192,
  "▁பூர்வீ": 8193,
  "▁कुछ": 8194,
  "▁தற்போது": 8195,
  "amilies": 8196,
  "_Lanka": 8197,
  "_தேசிய": 8198,
  "▁(India)\")": 8199,
  "अभिज्ञाप": 8200,
  "च्छ": 8201,
  "லங்காணா": 8202,
  "▁இந்தியா](https://ta.wikipedia.org/wiki/தி_டைம்ஸ்_ஆஃப்": 8203,
  "geohack": 8204,
  "world-asia-india": 8205,
  "_GDP_(": 8206,
  "▁சுட்டி\"):[": 8207,
  "▁தேர்ந்தெடு": 8208,
  "Ministry_of_Home_Affairs_1960": 8209,
  "▁[doi](https://ta.wikipedia.org/wiki/எண்ணிம_ஆவணச்_சுட்டி": 8210,
  "भीमबेटका": 8211,
  "](https://dx.doi.org/": 8212,
  "अभिज्ञापक": 8213,
  "▁இந்தியா](https://ta.wikipedia.org/wiki/தி_டைம்ஸ்_ஆஃப்_இந்தியா": 8214,
  "-li": 8215,
  "370": 8216,
  "537": 8217,
  "61": 8218,
  "Clémentin-Ojha": 8219,
  "March": 8220,
  "Nehru": 8221,
  "Press": 8222,
  "_Union": 8223,
  "_జాబితా": 8224,
  "aid": 8225,
  "bser": 8226,
  "eub": 8227,
  "hdr": 8228,
  "pB": 8229,
  "q9": 8230,
  "uters": 8231,
  "utical": 8232,
  "ఆంధ": 8233,
  "కీ": 8234,
  "కాలు": 8235,
  "క్రమ": 8236,
  "గర్": 8237,
  "డో": 8238,
  "థి": 8239,
  "నె": 8240,
  "నాలు": 8241,
  "పించ": 8242,
  "బడ్డ": 8243,
  "భర": 8244,
  "మహ": 8245,
  "మై": 8246,
  "యన": 8247,
  "రంగ": 8248,
  "లయా": 8249,
  "వార": 8250,
  "శీ": 8251,
  "షనల్": 8252,
  "స్య": 8253,
  "ృద్ధి": 8254,
  "ెంగ": 8255,
  "ేర": 8256,
  "▁ge": 8257,
  "▁దా": 8258,
  "▁నాగరికత": 8259,
  "▁టెక్నాలజీ": 8260,
  "ences": 8261,
  "ont": 8262,
  "title": 8263,
  "alakrishnan": 8264,
  "ouli": 8265,
  "20011": 8266,
  "rig": 8267,
  "్రై": 8268,
  "్రప్రదేశ్": 8269,
  "](https://te.wikipedia.org/wiki/ఢిల్లీ": 8270,
  "\\_containing\\_": 8271,
  "▁Col": 8272,
  "▁100": 8273,
  "▁12.": 8274,
  "adwe": 8275,
  "eded": 8276,
  "che": 8277,
  "-0)\n": 8278,
  "దేశం": 8279,
  "దేశాల": 8280,
  "దేశాలు": 8281,
  "స్\")": 8282,
  "raw": 8283,
  "ర్‌": 8284,
  "ficient": 8285,
  "▁Te": 8286,
  "లు?action=edit&redlink=1": 8287,
  "రాఠ": 8288,
  "-345": 8289,
  "-438": 8290,
  "igved": 8291,
  "113": 8292,
  "▁కి": 8293,
  "▁కో": 8294,
  "▁Health": 8295,
  "▁[\"In": 8296,
  "క్టో": 8297,
  "1857": 8298,
  "నియా": 8299,
  "▁వర్": 8300,
  "▁వారస": 8301,
  "aryana": 8302,
  "ల్వే": 8303,
  "▁[*F": 8304,
  "▁సరిహద్దు": 8305,
  "▁\"St": 8306,
  "▁మన": 8307,
  "▁మూ": 8308,
  "ండమా": 8309,
  "_in_B": 8310,
  "avin": 8311,
  "▁ne": 8312,
  "▁చిన్న": 8313,
  "తాన": 8314,
  "ముఖ": 8315,
  "త్వం": 8316,
  "▁(సా.శ.14": 8317,
  "ులు,": 8318,
  "–సా.శ.17": 8319,
  "▁ప్రతి": 8320,
  "▁ప్రస్తు": 8321,
  "▁ప్రకారం": 8322,
  "▁ప్రముఖ": 8323,
  "_of_India?action=edit&redlink=1": 8324,
  "▁gen": 8325,
  "gional": 8326,
  "ంచిన": 8327,
  "కుడు": 8328,
  "నుమ": 8329,
  "%2C5": 8330,
  "▁\"Ch": 8331,
  "ింది.\n": 8332,
  ",_కేంద్రపాలిత": 8333,
  "▁రో": 8334,
  "▁రంగ": 8335,
  "▁రవాణా": 8336,
  "▁సాధించ": 8337,
  "ష్టు": 8338,
  "ogni": 8339,
  "_Nadu": 8340,
  "_population": 8341,
  "ంతో": 8342,
  "_subcontinent": 8343,
  "▁తరువా": 8344,
  "పాలన": 8345,
  "▁79.": 8346,
  "\"](https://www.britannica.com/": 8347,
  "ultur": 8348,
  "ం](https://te.wikipedia.org/wiki/భారతీయ": 8349,
  "గుర్": 8350,
  "నేషనల్": 8351,
  "ece).": 8352,
  "▁[Government": 8353,
  "▁ప్రాంతం": 8354,
  "వందే": 8355,
  "visions": 8356,
  "▁రాజ్యం](https://te.wikipedia.org/wiki/": 8357,
  "▁బా": 8358,
  "▁బహు": 8359,
  "▁బెంగ": 8360,
  "aceutical": 8361,
  "ాల్లో": 8362,
  "ashmiri": 8363,
  "amil_Nadu": 8364,
  "ramouli": 8365,
  "శ్వా": 8366,
  "ారిటీ": 8367,
  "▁ప్రాంతాలు\")": 8368,
  "గోళ": 8369,
  "బడిన": 8370,
  "fication": 8371,
  "తున్న": 8372,
  "న్నిక": 8373,
  "▁స్వాతంత్ర్య": 8374,
  "▁కాలంలో": 8375,
  "▁use": 8376,
  "ంపి": 8377,
  "బెంగాల్": 8378,
  "Ludden2014": 8379,
  "asian": 8380,
  "ెలవు": 8381,
  "](https://te.wikipedia.org/wiki/భారతదేశంలో_": 8382,
  "%7c%7c": 8383,
  ".svg/40px-": 8384,
  "-of-india-": 8385,
  "etary_Fund": 8386,
  "owever,": 8387,
  "strument": 8388,
  "▁అధికారిక": 8389,
  "▁(ed.).": 8390,
  "▁including": 8391,
  "ఆర్ధిక": 8392,
  "▁పట్టణ": 8393,
  "akshadwe": 8394,
  "▁కాశ్మీరు": 8395,
  "▁mi)": 8396,
  "ంగ్లీషు": 8397,
  "▁(c)": 8398,
  "▁అయిన": 8399,
  "▁రెండు": 8400,
  "ాల్దీవులు": 8401,
  "harmaceutical": 8402,
  "_Monetary_Fund": 8403,
  "ట్రో": 8404,
  "ుల్తాన": 8405,
  "రాష్ట్రాలు,_కేంద్రపాలిత": 8406,
  "దినోత్సవం": 8407,
  "▁వ్యాసం:": 8408,
  "▁called": 8409,
  "ార్లమెంట": 8410,
  "▁ఏర్ప": 8411,
  "_for_Economic_Co-operation_and_Development_2007": 8412,
  "euborne": 8413,
  "ఆంధ్రప్రదేశ్": 8414,
  "లయాళ": 8415,
  "akshadweep": 8416,
  "రాష్ట్రాలు,_కేంద్రపాలిత_ప్రాంత": 8417,
  ".7": 8418,
  "01": 8419,
  "1).": 8420,
  "1)\n": 8421,
  "3)[[": 8422,
  "82": 8423,
  "8)[[": 8424,
  ":IN": 8425,
  "Asia": 8426,
  "BBC": 8427,
  "CD": 8428,
  "CCN": 8429,
  "Ge": 8430,
  "HA": 8431,
  "Kathak": 8432,
  "LO": 8433,
  "_22": 8434,
  "ger": 8435,
  "law": 8436,
  "nus": 8437,
  "ogo": 8438,
  "rban": 8439,
  "sur": 8440,
  "udu": 8441,
  "voy": 8442,
  "–10": 8443,
  "▁ve": 8444,
  "▁hist": 8445,
  "onom": 8446,
  "til": 8447,
  "aria": 8448,
  "India_": 8449,
  "](https://en.wikipedia.org/wiki/United": 8450,
  "istered": 8451,
  "riy": 8452,
  "standard": 8453,
  "agen": 8454,
  "▁prac": 8455,
  "▁painting": 8456,
  "cherry": 8457,
  "ulp": 8458,
  "▁can": 8459,
  "▁cre": 8460,
  "ravi": 8461,
  "▁Muslim": 8462,
  "▁air": 8463,
  "▁Day": 8464,
  ".jpe": 8465,
  "beral": 8466,
  "▁east": 8467,
  "▁event": 8468,
  "▁2025": 8469,
  "27.": 8470,
  "rynus": 8471,
  "▁her": 8472,
  "▁house": 8473,
  "▁though": 8474,
  "39.": 8475,
  "gov.in": 8476,
  "ody": 8477,
  "-population": 8478,
  "▁Vol": 8479,
  "▁[↑](https://en.wikipedia.org/wiki/India#cite_ref-FOOTNOTEMetcalfMetcalf2006": 8480,
  "anipur": 8481,
  "Dwyer": 8482,
  "▁1990": 8483,
  "general_": 8484,
  "▁Urdu": 8485,
  "▁\"Indo-": 8486,
  "](https://en.wikipedia.org/wiki/Indo-": 8487,
  "▁known": 8488,
  "▁Prospec": 8489,
  "▁2017.\n": 8490,
  "Chand": 8491,
  "](https://en.wikipedia.org/wiki/Indian_": 8492,
  "urity": 8493,
  "▁around": 8494,
  "uttaph": 8495,
  "-report": 8496,
  "▁wide": 8497,
  "▁coast": 8498,
  "issn": 8499,
  "place": 8500,
  "Raju": 8501,
  "▁Buddhist": 8502,
  "Uttarakhand": 8503,
  "onial": 8504,
  "%3D": 8505,
  "▁Conservation": 8506,
  "worldcat.org/issn": 8507,
  "uthority": 8508,
  "undamental": 8509,
  "▁Wikidata": 8510,
  "atabase": 8511,
  "illennium": 8512,
  "8+5": 8513,
  "uducherry": 8514,
  "ravidian": 8515,
  "general_election": 8516,
  "▁Prospects": 8517,
  "uttaphrynus": 8518,
  "%ஆக": 8519,
  "-உ": 8520,
  "7)\n": 8521,
  "9)\n": 8522,
  "9]](https://ta.wikipedia.org/wiki/இந்தியா#cite_note-FOOTNOTE": 8523,
  ";[[": 8524,
  "Bangalore": 8525,
  "EM": 8526,
  "F)": 8527,
  "Young": 8528,
  "\\*": 8529,
  "_8": 8530,
  "_इ": 8531,
  "_श": 8532,
  "_धर्म": 8533,
  "eth": 8534,
  "ember": 8535,
  "hra": 8536,
  "imon": 8537,
  "ob": 8538,
  "ox": 8539,
  "ott": 8540,
  "ring": 8541,
  "rat": 8542,
  "sci": 8543,
  "went": 8544,
  "yth": 8545,
  "ँची": 8546,
  "अंग्रेज़ी": 8547,
  "उप": 8548,
  "एन": 8549,
  "टना": 8550,
  "तन": 8551,
  "द्वार": 8552,
  "पार": 8553,
  "भग": 8554,
  "मरी": 8555,
  "रि": 8556,
  "स्व": 8557,
  "ेद": 8558,
  "ोला": 8559,
  "கத": 8560,
  "கத்தின்": 8561,
  "சன": 8562,
  "சார": 8563,
  "டது": 8564,
  "டராச": 8565,
  "நி": 8566,
  "நாட்ட": 8567,
  "நாடு": 8568,
  "மார்": 8569,
  "யும்,": 8570,
  "லானது": 8571,
  "வீ": 8572,
  "வூ": 8573,
  "வகர்": 8574,
  "ோகி": 8575,
  "ௌரிய": 8576,
  "–13": 8577,
  "▁औ": 8578,
  "▁भा": 8579,
  "▁37": 8580,
  "▁led": 8581,
  "▁ले": 8582,
  "▁भाग": 8583,
  "▁urban": 8584,
  "▁[Y": 8585,
  "▁[य": 8586,
  "▁[ह": 8587,
  "▁[ஜ": 8588,
  "▁\"य": 8589,
  "2025": 8590,
  "thang": 8591,
  "though": 8592,
  "](https://ta.wikipedia.org/wiki/A": 8593,
  "](https://ta.wikipedia.org/wiki/T": 8594,
  "](https://ta.wikipedia.org/wiki/ஐ": 8595,
  "](https://ta.wikipedia.org/wiki/The": 8596,
  "](https://ta.wikipedia.org/wiki/இந்து": 8597,
  "](https://ta.wikipedia.org/wiki/தேசிய": 8598,
  "ம்](https://ta.wikipedia.org/wiki/ம": 8599,
  "▁பீ": 8600,
  "▁பதிவாளர்": 8601,
  "omo": 8602,
  "▁(199": 8603,
  "▁(2007),": 8604,
  "](https://hi.wikipedia.org/wiki/दक्षिण": 8605,
  "](https://hi.wikipedia.org/wiki/तमिल": 8606,
  "issile": 8607,
  "▁काल": 8608,
  "▁कॉंग्रेस": 8609,
  "ர்ஹ": 8610,
  "anda": 8611,
  "्रय": 8612,
  "▁மத்தியில்": 8613,
  "asht": 8614,
  "த்தட்ட": 8615,
  "▁கிழக்கு": 8616,
  "ள்வன": 8617,
  "भारतीय": 8618,
  "▁தய": 8619,
  "▁सभा": 8620,
  "▁सित": 8621,
  "▁समाज": 8622,
  "-1\")\n": 8623,
  "ids": 8624,
  "ent_value": 8625,
  "▁இறு": 8626,
  "▁Century": 8627,
  "ingap": 8628,
  "▁அள": 8629,
  "▁அடைய": 8630,
  "▁அடிப்பட": 8631,
  "சிதா": 8632,
  "▁मई": 8633,
  "▁मन": 8634,
  "▁मह": 8635,
  "▁मिल": 8636,
  "▁मशीन": 8637,
  "ப்புடி": 8638,
  "த்ரியா": 8639,
  "ையும்,": 8640,
  "loth": 8641,
  "▁நகர": 8642,
  "▁2012.": 8643,
  "▁சீ": 8644,
  "▁சார்": 8645,
  "ாகக்": 8646,
  "ices": 8647,
  "urk": 8648,
  "ेंगल": 8649,
  "▁ஆட்சிய": 8650,
  "▁ஆணையர்": 8651,
  "டுக": 8652,
  "र्ध": 8653,
  "](https://hi.wikipedia.org/wiki/भारत_के_राज्य": 8654,
  "ண்டை": 8655,
  "una": 8656,
  "லைவர்": 8657,
  "]](https://ta.wikipedia.org/wiki/இந்தியா#cite_note-Combined": 8658,
  "्तु": 8659,
  "▁maint": 8660,
  "istorical": 8661,
  "2649": 8662,
  "269,": 8663,
  "▁में,": 8664,
  "▁Dyson": 8665,
  "▁Desert": 8666,
  "▁Bharat": 8667,
  "▁अभ": 8668,
  "▁எடுத்து": 8669,
  "▁எதிர்": 8670,
  "-4\")\n": 8671,
  "irz": 8672,
  "▁when": 8673,
  "11)": 8674,
  "_(भारत)": 8675,
  "ிலும்": 8676,
  "ிலாளர்": 8677,
  "_பே": 8678,
  "▁जब": 8679,
  "▁Global": 8680,
  "▁rel": 8681,
  "▁द्वीप": 8682,
  "oples": 8683,
  "16.": 8684,
  "ற்கை": 8685,
  "-9\")\n": 8686,
  "147": 8687,
  "▁नव": 8688,
  "abour": 8689,
  "ப்பட்டன.[[": 8690,
  "perCol": 8691,
  "_से": 8692,
  "_साम": 8693,
  "வைச்": 8694,
  "▁குடி": 8695,
  "▁குழு": 8696,
  "டைகள்": 8697,
  "காதார": 8698,
  "▁व्या": 8699,
  "▁[↑](https://ta.wikipedia.org/wiki/இந்தியா#cite_ref-FOOTNOTEStein1998": 8700,
  "ிருஷ்": 8701,
  "விட": 8702,
  "▁Kumar": 8703,
  "லிப": 8704,
  "ாளர்கள": 8705,
  "_Data_": 8706,
  "45)": 8707,
  "]](https://hi.wikipedia.org/wiki/भारत#cite_note-pib": 8708,
  "▁गई": 8709,
  "_Th": 8710,
  "ड़िया": 8711,
  "▁शहर": 8712,
  "▁[मध्य": 8713,
  "▁பாறை": 8714,
  "▁பாணிய": 8715,
  "म्भ": 8716,
  "டியின": 8717,
  "_के_अन": 8718,
  "-107-0": 8719,
  "மிழ": 8720,
  "▁சமவெளி": 8721,
  "संधान": 8722,
  "▁[மாநில": 8723,
  "त्तरी": 8724,
  "▁\"BBC": 8725,
  "▁அமைந்துள்ளது.": 8726,
  "emographic": 8727,
  "_River": 8728,
  "▁लिये": 8729,
  "▁[தில்லி": 8730,
  "](https://ta.wikipedia.org/wiki/தில்லி": 8731,
  "ச்சிப்புடி": 8732,
  "▁यूनिवर्सिट": 8733,
  "▁மாவட்ட": 8734,
  "▁வென்று": 8735,
  "efficient": 8736,
  "மையை": 8737,
  "_ஆற்றல்": 8738,
  "▁\"சிறப்பு:BookSources/978-0-521": 8739,
  "](https://ta.wikipedia.org/wiki/சிறப்பு:BookSources/978-0-521": 8740,
  "▁வேலை": 8741,
  "▁வேளாண்மை": 8742,
  "வெளிய": 8743,
  "▁\"De": 8744,
  "hosh": 8745,
  "முக": 8746,
  "▁சில": 8747,
  "▁சிலை": 8748,
  "▁கோயில": 8749,
  "ender": 8750,
  "ியாவின்": 8751,
  "valid": 8752,
  "IND": 8753,
  "%29.jpg)](https://ta.wikipedia.org/wiki/படிமம்:": 8754,
  "மாயண": 8755,
  "▁जनजाति": 8756,
  "](https://ta.wikipedia.org/wiki/இந்தியாவில்_ப": 8757,
  "](https://ta.wikipedia.org/wiki/இந்தியாவில்_ச": 8758,
  "க்காண": 8759,
  "▁राजधान": 8760,
  "ிரித்தானியாவின்": 8761,
  "த்_தலைவர்": 8762,
  "கின்றன.[[": 8763,
  "Articles\\_containing\\_": 8764,
  "▁தலைவர்": 8765,
  "ிருந்தது.": 8766,
  "▁ஏற்றும": 8767,
  "▁உற்பத்தியில்": 8768,
  "_உள்நாட்டு": 8769,
  "த்தைச்": 8770,
  "रुणा": 8771,
  "-8069": 8772,
  "▁மலைத்தொடர்": 8773,
  "▁China": 8774,
  "230-345": 8775,
  "▁நிறுவ": 8776,
  "▁அரசு](https://ta.wikipedia.org/wiki/இந்திய_அரசு": 8777,
  "▁2016.\n": 8778,
  "bian": 8779,
  "▁இருந்து](https://www.": 8780,
  "▁subcontinent\")": 8781,
  "▁Talbot,": 8782,
  "▁வரும்": 8783,
  "ண்பாடு": 8784,
  "uisine": 8785,
  "லுங்கு": 8786,
  "▁பகுதியில்": 8787,
  "ர்த்தா": 8788,
  "](https://ta.wikipedia.org/wiki/இந்தியாவின்_ப": 8789,
  "▁These": 8790,
  "▁முன்னர்": 8791,
  "inghamYoung": 8792,
  "ொருளாதார": 8793,
  "gypt": 8794,
  "▁2003](https://ta.wikipedia.org/wiki/இந்தியா#CITEREF": 8795,
  "epartment_of_": 8796,
  "ोर्ट": 8797,
  "▁ஐந்தா": 8798,
  "▁கணக்கெடுப்பின்": 8799,
  "காராட்ட": 8800,
  "▁Environmental": 8801,
  "▁போட்டிகளில்": 8802,
  "▁வரலாறு": 8803,
  "▁வரலாற்று": 8804,
  "▁[இந்தியாவின்": 8805,
  "சிந்துவெளி": 8806,
  "▁எண்ணிக்கைய": 8807,
  "ென்னிந்தியா": 8808,
  "most_rec": 8809,
  "லைமைப்": 8810,
  "▁நடத்தப்படும்": 8811,
  "▁உயிரின": 8812,
  "▁साम्राज्य\")": 8813,
  "▁கிராமப்புற": 8814,
  "▁இசையின்": 8815,
  "▁இதுவாகும்.[[": 8816,
  "धुनिक": 8817,
  "▁மொழிய": 8818,
  "▁மொழியாக": 8819,
  "ConinghamYoung": 8820,
  "▁2018](https://ta.wikipedia.org/wiki/இந்தியா#CITEREFDyson2018),": 8821,
  "▁2018](https://ta.wikipedia.org/wiki/இந்தியா#CITEREFFisher2018),": 8822,
  "ूर्ण": 8823,
  "▁(1,269,": 8824,
  "▁உறுப்பின": 8825,
  "▁நூற்றாண்டில்": 8826,
  "estiv": 8827,
  "ஒடிசி": 8828,
  "▁இவ்வா": 8829,
  "▁2009](https://ta.wikipedia.org/wiki/இந்தியா#CITEREFSingh2009),": 8830,
  "ஒன்றிய": 8831,
  "ன்கிழக்கா": 8832,
  "னியாட்ட": 8833,
  "▁நாட்டுப்புற": 8834,
  "rincely": 8835,
  "_देशों_की_सूची": 8836,
  "ताजमह": 8837,
  "ரதநாட்ட": 8838,
  "alysis": 8839,
  "क्षरता": 8840,
  "▁கிட்டத்தட்ட": 8841,
  "▁स्थाप": 8842,
  "▁[पाकिस्तान](https://hi.wikipedia.org/wiki/पाकिस्तान": 8843,
  "_மக்கள்தொகை": 8844,
  "வகர்லால்": 8845,
  "ோகினியாட்ட": 8846,
  "ள்வனவு": 8847,
  "ent_value_des": 8848,
  "ingapore": 8849,
  "ेंगलुरु": 8850,
  "▁Dyson,": 8851,
  "perCollin": 8852,
  "_साम्राज्य": 8853,
  "ிருஷ்ணா": 8854,
  "_के_अनुसार": 8855,
  "-107-02649": 8856,
  "▁यूनिवर्सिटी": 8857,
  "_உள்நாட்டு_உற்பத்தி": 8858,
  "230-34549-2": 8859,
  "most_recent_value_des": 8860,
  "ConinghamYoung2015": 8861,
  "-R": 8862,
  "-k": 8863,
  "-r": 8864,
  "-th": 8865,
  "-and": 8866,
  ".UK": 8867,
  "/news/": 8868,
  "0-0)": 8869,
  "126": 8870,
  "5,": 8871,
  "5-0": 8872,
  "97": 8873,
  ":\\_": 8874,
  "Kashmir": 8875,
  "SAARC_summit": 8876,
  "Tab": 8877,
  "TS.": 8878,
  "Ze": 8879,
  "c/": 8880,
  "fun": 8881,
  "oin": 8882,
  "s_": 8883,
  "via": 8884,
  "▁5.": 8885,
  "dis": 8886,
  "digen": 8887,
  "orm": 8888,
  "](https://catal": 8889,
  "dia.com/": 8890,
  "onal": 8891,
  "2020": 8892,
  "alt": 8893,
  "cil": 8894,
  "▁(7": 8895,
  "▁(19": 8896,
  "etah": 8897,
  "ately": 8898,
  "state": 8899,
  "▁Asher": 8900,
  "atna": 8901,
  "▁India](https://en.wikipedia.org/wiki/G": 8902,
  "▁prom": 8903,
  "▁partition": 8904,
  "▁1200": 8905,
  "00C-01%20MDDS.XLS": 8906,
  ".[[4": 8907,
  "2305": 8908,
  "▁*2011": 8909,
  "▁Black": 8910,
  "nimal": 8911,
  "-36": 8912,
  "-316": 8913,
  "308": 8914,
  "_industry": 8915,
  "180": 8916,
  "mons": 8917,
  "▁1988": 8918,
  "16)": 8919,
  "13)": 8920,
  "13.": 8921,
  "_and_For": 8922,
  "▁den": 8923,
  "%20A": 8924,
  "ia/A": 8925,
  "%2C_K": 8926,
  "▁[978-0-8": 8927,
  "905": 8928,
  "▁[![A": 8929,
  "ecu": 8930,
  "_Raj": 8931,
  "12)": 8932,
  "▁\"En": 8933,
  "AsherTalbot200853": 8934,
  "](https://en.wikipedia.org/wiki/List_of_SAARC_summit": 8935,
  "1994),": 8936,
  "](https://en.wikipedia.org/wiki/Re": 8937,
  "121–1": 8938,
  "▁adop": 8939,
  "▁regions": 8940,
  "ministered": 8941,
  "▁See": 8942,
  "countries_and_depend": 8943,
  "IAF": 8944,
  "eserve": 8945,
  "a.gov.in/": 8946,
  "IUCN.UK": 8947,
  "encies_by": 8948,
  "RLTS.": 8949,
  "▁Before": 8950,
  "MetcalfMetcalf2012-26": 8951,
  "_BRICS_summit": 8952,
  "hibia/A": 8953,
  "▁dependencies": 8954,
  "Environment_and_For": 8955,
  ".edu/": 8956,
  ":Cit": 8957,
  "censusindia.gov.in/2011census/C-01/DDW00C-01%20MDDS.XLS": 8958,
  "▁summits\")": 8959,
  "\\_of\\_": 8960,
  "▁Asher,": 8961,
  "](https://en.wikipedia.org/wiki/List_of_SAARC_summits": 8962,
  "countries_and_dependencies_by": 8963,
  "IUCN.UK.": 8964,
  "RLTS.T": 8965,
  "Environment_and_Forests": 8966,
  "-ve": 8967,
  "-230": 8968,
  "/st": 8969,
  "310": 8970,
  "4)\n": 8971,
  "417": 8972,
  "9-5": 8973,
  "Co": 8974,
  "Language": 8975,
  "Mumbai": 8976,
  "Political": 8977,
  "Urdu": 8978,
  "_21": 8979,
  "_history": 8980,
  "equality": 8981,
  "gf": 8982,
  "lled": 8983,
  "ocal": 8984,
  "ots": 8985,
  "–19": 8986,
  "▁low": 8987,
  "](https://id.": 8988,
  "rees": 8989,
  "arter": 8990,
  "▁(15": 8991,
  "ison": 8992,
  "rial_": 8993,
  "ashi": 8994,
  "78)": 8995,
  "▁Che": 8996,
  "▁Cooperation": 8997,
  "▁Amb": 8998,
  "ader": 8999,
  "▁fig": 9000,
  "▁feat": 9001,
  "▁Park": 9002,
  "eding": 9003,
  "▁cour": 9004,
  "verage": 9005,
  ".[[23": 9006,
  "▁may": 9007,
  "40.": 9008,
  "14.": 9009,
  "abin": 9010,
  "ables": 9011,
  "indias-": 9012,
  "▁become": 9013,
  "india.com/": 9014,
  "▁growth": 9015,
  "34238": 9016,
  "▁\"Ar": 9017,
  "world-f": 9018,
  "orities/": 9019,
  "▁300": 9020,
  "efs": 9021,
  "angetic": 9022,
  "acher": 9023,
  "▁\"Government": 9024,
  "uccess": 9025,
  "%29.jpg/250px-": 9026,
  "▁river": 9027,
  "overnment_of_India": 9028,
  "ronom": 9029,
  "otechnology": 9030,
  "▁2020.\n": 9031,
  "rishna": 9032,
  "docs/": 9033,
  "stitute": 9034,
  "11934238": 9035,
  "Ludden200": 9036,
  "/authorities/": 9037,
  "1999),": 9038,
  "tiger": 9039,
  "the-world-f": 9040,
  "▁York:": 9041,
  "violence": 9042,
  "▁increased": 9043,
  "▁Minorities,": 9044,
  "\\_country\\_with\\_": 9045,
  "forcement": 9046,
  "bbc.com/news/": 9047,
  "arbara": 9048,
  "Ludden2014),": 9049,
  "11934238p": 9050,
  "the-world-factbook/": 9051,
  "\"](http://www.": 9052,
  "%C": 9053,
  ")](https://ta.wikipedia.org/wiki/படிமம்:": 9054,
  "-G": 9055,
  "-T": 9056,
  "-ஐ": 9057,
  "-res": 9058,
  ".ac": 9059,
  "2-10": 9060,
  "4]](https://en.wikipedia.org/wiki/India#cite_note-": 9061,
  "631": 9062,
  "95.": 9063,
  "A0": 9064,
  "Bas": 9065,
  "Brown": 9066,
  "Balakrishnan": 9067,
  "Doi_(identifier)": 9068,
  "MC": 9069,
  "MID": 9070,
  "Pal": 9071,
  "Peers": 9072,
  "Republic": 9073,
  "Rediff": 9074,
  "_6": 9075,
  "_राज्य": 9076,
  "_వి": 9077,
  "_एशिया": 9078,
  "_work": 9079,
  "_కాశ్మీ": 9080,
  "gam": 9081,
  "hri": 9082,
  "hames": 9083,
  "katar": 9084,
  "late": 9085,
  "mir": 9086,
  "ncient": 9087,
  "ren": 9088,
  "u,": 9089,
  "vens": 9090,
  "v-res": 9091,
  "ंतर": 9092,
  "ईल": 9093,
  "ख्य": 9094,
  "घर": 9095,
  "चें": 9096,
  "तम": 9097,
  "तुल": 9098,
  "थियार": 9099,
  "फा": 9100,
  "बा": 9101,
  "मर": 9102,
  "मार": 9103,
  "वेश": 9104,
  "वैद": 9105,
  "शन": 9106,
  "िबंध": 9107,
  "ृष": 9108,
  "ृष्ण": 9109,
  "ोट": 9110,
  "्लेट": 9111,
  "கணை": 9112,
  "சீ": 9113,
  "ண்க": 9114,
  "தவி": 9115,
  "தமான": 9116,
  "னடா": 9117,
  "னநாயக": 9118,
  "பது": 9119,
  "மூ": 9120,
  "மனி": 9121,
  "ளு": 9122,
  "ாய்": 9123,
  "ூட்டு": 9124,
  "ைன": 9125,
  "ொக": 9126,
  "ோக": 9127,
  "ంస్కృ": 9128,
  "ఉత్తరా": 9129,
  "ఖో": 9130,
  "ఘాలయ": 9131,
  "చ్": 9132,
  "టై": 9133,
  "టర్": 9134,
  "డమ్": 9135,
  "డఖ్": 9136,
  "ణే": 9137,
  "ణంగా": 9138,
  "తే": 9139,
  "తెల": 9140,
  "దరంగ": 9141,
  "నో": 9142,
  "నంద": 9143,
  "బర్": 9144,
  "బార్": 9145,
  "యె": 9146,
  "రె": 9147,
  "లడఖ్": 9148,
  "ళా": 9149,
  "ళి": 9150,
  "శు": 9151,
  "హించ": 9152,
  "ుకు": 9153,
  "ెన్న": 9154,
  "ెట్రో": 9155,
  "ేతి": 9156,
  "ేఘాలయ": 9157,
  "ైనిక": 9158,
  "ొగలు": 9159,
  "ోళ": 9160,
  "‌కా": 9161,
  "‌మహ": 9162,
  "▁,": 9163,
  "▁५": 9164,
  "▁ఐ": 9165,
  "▁ఖ": 9166,
  "▁ला": 9167,
  "▁–సా.శ.": 9168,
  "▁భారతీయ": 9169,
  "▁times": 9170,
  "▁![](https://upload.wikimedia.org/wikipedia/commons/thumb/": 9171,
  "▁kingdom": 9172,
  "orary": 9173,
  "▁[f": 9174,
  "▁[प्र": 9175,
  "▁[రాష్ట్ర": 9176,
  "▁[జన": 9177,
  "▁[గో": 9178,
  "▁[तमिल": 9179,
  "▁[गुजरात": 9180,
  "▁\"ड": 9181,
  "▁\"ह": 9182,
  "▁\"పా": 9183,
  "▁\"జన": 9184,
  "▁\"గో": 9185,
  "▁\"మూస:": 9186,
  "ino-": 9187,
  "anat": 9188,
  "anchi": 9189,
  "enkatar": 9190,
  "ியது.": 9191,
  "tile": 9192,
  "reater": 9193,
  "th_BRICS_summit": 9194,
  "ந்தின்": 9195,
  "aland": 9196,
  "cienti": 9197,
  "ம்](https://ta.wikipedia.org/wiki/இந்திய": 9198,
  "ன்ம": 9199,
  "ommonwealth": 9200,
  "ப்படை": 9201,
  "ப்பகுதி": 9202,
  "ारो": 9203,
  "ारम्भ": 9204,
  "▁(அ": 9205,
  "▁(இ": 9206,
  "▁(भारत": 9207,
  "▁(2018": 9208,
  "▁(2009": 9209,
  "](https://hi.wikipedia.org/wiki/ग": 9210,
  "](https://hi.wikipedia.org/wiki/द": 9211,
  "isaria": 9212,
  "▁कम": 9213,
  "▁किन": 9214,
  "outheast": 9215,
  "க்கின்ற": 9216,
  "துணை": 9217,
  "20034": 9218,
  "ட்டைப்ப": 9219,
  "्रह": 9220,
  "astri": 9221,
  "த்திரை": 9222,
  "▁கவி": 9223,
  "](https://te.wikipedia.org/wiki/G": 9224,
  "](https://te.wikipedia.org/wiki/భారతదేశ": 9225,
  "](https://te.wikipedia.org/wiki/గో": 9226,
  "](https://te.wikipedia.org/wiki/మూస:": 9227,
  "▁தவ": 9228,
  "▁தசா": 9229,
  "▁தீவுகள்": 9230,
  "▁सह": 9231,
  "▁स्तर": 9232,
  "▁सभ्यता": 9233,
  "ారస్వ": 9234,
  "\\_क": 9235,
  "atelli": 9236,
  "▁inter": 9237,
  "FOOTNOTENational_Informatics_Centre2005": 9238,
  "▁இணைய": 9239,
  "stribution": 9240,
  "▁அவ": 9241,
  "ங்கீ": 9242,
  "▁prin": 9243,
  "▁poll": 9244,
  "▁popular": 9245,
  "▁Sharma": 9246,
  "edne": 9247,
  "edora": 9248,
  "க்ப": 9249,
  "ాలె": 9250,
  "▁நோ": 9251,
  "▁நாட்டின்": 9252,
  "▁2016.": 9253,
  "▁fol": 9254,
  "▁so": 9255,
  "tock": 9256,
  "edition": 9257,
  "స్ట": 9258,
  "స్వాతంత్ర్య": 9259,
  "ेंस": 9260,
  "▁ca.": 9261,
  "▁caus": 9262,
  "▁పర": 9263,
  "▁పండు": 9264,
  "cep": 9265,
  "திப்": 9266,
  "र्ट": 9267,
  "ratic": 9268,
  "ண்டி": 9269,
  "ண்டைக்": 9270,
  "uni": 9271,
  "्त्र": 9272,
  "▁man": 9273,
  "சுமீர்": 9274,
  "research": 9275,
  ".org/en/": 9276,
  "▁att": 9277,
  "ily": 9278,
  "களுடன்": 9279,
  "▁Dec": 9280,
  "లు](https://te.wikipedia.org/wiki/": 9281,
  "రాన్": 9282,
  "రాస్య": 9283,
  "▁अमेर": 9284,
  "▁अलग": 9285,
  "▁अर्थव्यवस्था": 9286,
  "▁எல்லை": 9287,
  "ayak": 9288,
  "mporary": 9289,
  "-8\")\n": 9290,
  "वियत": 9291,
  "▁కే": 9292,
  "▁కోర్": 9293,
  "ிலி": 9294,
  "_பிர": 9295,
  "▁जिन": 9296,
  "ाले": 9297,
  "ालैंड": 9298,
  "త్రిక": 9299,
  "▁[\"Indian": 9300,
  "▁[\"National": 9301,
  "]](https://en.wikipedia.org/wiki/India#cite_note-Combined": 9302,
  "క్స్": 9303,
  "క్కి": 9304,
  "▁देव": 9305,
  "▁दोन": 9306,
  "▁వె": 9307,
  "▁వంట": 9308,
  "வுகணை": 9309,
  "न्ध": 9310,
  "ற்கான": 9311,
  "former": 9312,
  "ராய": 9313,
  "ராணுவ": 9314,
  "▁बंगाल": 9315,
  "▁बड़े": 9316,
  ".in)\n": 9317,
  "-936": 9318,
  "-960": 9319,
  "-94-0": 9320,
  "ంగో": 9321,
  "▁प्रधानमंत्री": 9322,
  "▁సముద్ర": 9323,
  "▁సూచ": 9324,
  "▁సౌక": 9325,
  "भाजन": 9326,
  "▁सेवा": 9327,
  "ரிமை": 9328,
  "ப்பட்டன.": 9329,
  "ப்பட்டுள்ள": 9330,
  "్రామ": 9331,
  "▁काम": 9332,
  "_Act": 9333,
  "ండా": 9334,
  "ండీ": 9335,
  "ండ్య": 9336,
  "_in_March": 9337,
  "avalli": 9338,
  "வை\")": 9339,
  "▁Library": 9340,
  "HarperCollin": 9341,
  "ained": 9342,
  "తాజ్": 9343,
  "నాథ": 9344,
  "▁व्यवस्था": 9345,
  "▁West": 9346,
  "త్వా": 9347,
  "லாந்து": 9348,
  "_Cropped": 9349,
  "▁आक": 9350,
  "▁आद": 9351,
  "▁(సా.శ.16": 9352,
  "ులు?action=edit&redlink=1": 9353,
  "ாளர்கள்": 9354,
  "-7mar": 9355,
  "▁అభి": 9356,
  "▁ప్రజా": 9357,
  "ப்_பிரதேசம்": 9358,
  "తం?action=edit&redlink=1": 9359,
  "▁போட்டிய": 9360,
  "earson": 9361,
  "](https://hi.wikipedia.org/wiki/भारत#cite_ref-pib": 9362,
  "](https://hi.wikipedia.org/wiki/भारत#cite_ref-langoff": 9363,
  "]](https://hi.wikipedia.org/wiki/भारत#cite_note-langoff-1": 9364,
  "▁இருப்ப": 9365,
  "▁परि": 9366,
  "పూర్": 9367,
  "udson": 9368,
  "▁शा": 9369,
  "ప్రిల్": 9370,
  "▁deci": 9371,
  "▁ఉంట": 9372,
  "▁ఉత్తర": 9373,
  "▁Press](https://en.wikipedia.org/wiki/C": 9374,
  "▁संस्थान": 9375,
  "▁\"மொத்த": 9376,
  "தியாக": 9377,
  "](https://en.wikipedia.org/wiki/South_Asian": 9378,
  "▁సామా": 9379,
  "వాద": 9380,
  "ियन": 9381,
  "విధ": 9382,
  "ార్ఖండ్": 9383,
  "ी](https://hi.wikipedia.org/wiki/म": 9384,
  "](https://ta.wikipedia.org/wiki/மொத்த": 9385,
  "క్షరాస్య": 9386,
  "aite": 9387,
  "aith": 9388,
  "संबर": 9389,
  "सां": 9390,
  "त्ति": 9391,
  "▁रक्षा": 9392,
  "▁now": 9393,
  "▁நிதிய": 9394,
  "▁நிக்கோபார்": 9395,
  "](https://en.wikipedia.org/wiki/Ch": 9396,
  "▁அமைப்பானது": 9397,
  "▁செல": 9398,
  "▁500": 9399,
  "_Gandhi": 9400,
  "▁\"கோ": 9401,
  "పుర": 9402,
  "जापान": 9403,
  "▁\"मध्य": 9404,
  "▁నడి": 9405,
  "ikhism": 9406,
  "▁ఇండియా": 9407,
  "▁\"செ": 9408,
  "▁ஆண்டுகளுக்கு": 9409,
  "▁துடுப்பாட்ட": 9410,
  "▁வென்ற": 9411,
  "हाँ": 9412,
  "▁காலத்திற்கு": 9413,
  "▁language\"),": 9414,
  "ults/": 9415,
  "ोली": 9416,
  "ச்சர": 9417,
  "▁\"Economic": 9418,
  "](https://hi.wikipedia.org/wiki/मध्य": 9419,
  "Singh200925": 9420,
  "Singh2009545": 9421,
  "▁[978-1-317": 9422,
  "51–": 9423,
  "120]](https://hi.wikipedia.org/wiki/भारत#cite_note-langoff-1": 9424,
  "గుప్": 9425,
  "డుకు": 9426,
  "నేషియా": 9427,
  "asscom": 9428,
  "புக்": 9429,
  "▁மேல": 9430,
  "▁மேல்": 9431,
  "ంగాణ": 9432,
  "▁జన": 9433,
  "▁liter": 9434,
  "ங்குடியின": 9435,
  "▁இருந்தன.": 9436,
  "లియా": 9437,
  "▁உலகக்": 9438,
  "▁உலகக்கிண்ண": 9439,
  "tence": 9440,
  "Commonwealth": 9441,
  "▁ప్రాచ": 9442,
  "▁విభ": 9443,
  "▁వివిధ": 9444,
  "▁அதிகார": 9445,
  "▁సంఘ": 9446,
  "▁மொழிகள்": 9447,
  "▁மொழிகள்\")": 9448,
  "ండిచ్చేరి": 9449,
  "[![](https://upload.wikimedia.org/wikipedia/commons/thumb/7/": 9450,
  "▁(2013),": 9451,
  "द्यालय": 9452,
  "ivaper": 9453,
  "▁2009](https://hi.wikipedia.org/wiki/भारत#CITEREF": 9454,
  "oundation": 9455,
  "](https://ta.wikipedia.org/wiki/இந்தியாவில்_க": 9456,
  "▁தென்": 9457,
  "AsherTalbot2008286": 9458,
  "జీరియా": 9459,
  "गुप्त": 9460,
  "க்களவை": 9461,
  "▁21.": 9462,
  "கின்றனர்.": 9463,
  "கின்றனர்.[[": 9464,
  "ంకేతి": 9465,
  "▁தலைவர்\")": 9466,
  "వేలీ": 9467,
  "ங்கிணை": 9468,
  "ocratic": 9469,
  "▁உற்பத்திய": 9470,
  "▁2023.": 9471,
  "▁குடியரசின்": 9472,
  "ynth": 9473,
  "_இல": 9474,
  "_இசை": 9475,
  "▁[3](https://ta.wikipedia.org/wiki/இந்தியா#cite_ref-": 9476,
  "▁[International": 9477,
  "▁[978-0-19-5": 9478,
  "ங்கைச்": 9479,
  "▁India.[[": 9480,
  "▁languages\")": 9481,
  "ducational": 9482,
  "](https://hi.wikipedia.org/wiki/पंजाब": 9483,
  "](https://hi.wikipedia.org/wiki/पश्चिम": 9484,
  ".html),": 9485,
  "▁[Wolpert": 9486,
  "బియా": 9487,
  "▁agriculture": 9488,
  "▁CITEREFStein1998": 9489,
  "▁CITEREFSingh2009": 9490,
  "Chennai": 9491,
  "ென்னை": 9492,
  "%E0%AE%": 9493,
  "ों_की_सूची?action=edit&redlink=1": 9494,
  "2–38": 9495,
  "డామన్": 9496,
  "▁రాష్ట్రపతి": 9497,
  "▁[\"India's": 9498,
  "▁டென்னி": 9499,
  "▁निभा": 9500,
  "ighth": 9501,
  "త్రిపుర": 9502,
  "▁வருமான": 9503,
  "ணக்கெடுப்பு": 9504,
  "_కాల": 9505,
  "](https://hi.wikipedia.org/wiki/भारत#CITEREFStein1998),": 9506,
  "▁రైల్వే": 9507,
  "censusindia.gov.in/2011-pro": 9508,
  "▁1998](https://hi.wikipedia.org/wiki/भारत#CITEREFStein1998),": 9509,
  "య్యూ": 9510,
  "త్తీస్": 9511,
  "▁ప్రదేశ్](https://te.wikipedia.org/wiki/": 9512,
  "6–18": 9513,
  "_Valley": 9514,
  "▁கட்டடக்": 9515,
  "laci": 9516,
  "నాగాలా": 9517,
  "▁குறைவான": 9518,
  "▁Islands\")": 9519,
  "▁\"జమ్మూ": 9520,
  "▁थे": 9521,
  "▁पाकिस्तान": 9522,
  "1947)": 9523,
  "▁పాకిస్తాన్": 9524,
  "▁அகணிய": 9525,
  "▁उपमहाद्वीप": 9526,
  "Template:S": 9527,
  "कालीन": 9528,
  "_term": 9529,
  "కోవ": 9530,
  "కోబార్": 9531,
  "](https://te.wikipedia.org/wiki/జమ్మూ": 9532,
  "ల్లవ": 9533,
  "110-3": 9534,
  "▁ஜ.": 9535,
  "▁मंदिर\")": 9536,
  "-ஆவது": 9537,
  "नागालैंड": 9538,
  "▁பெயர்ச்சி": 9539,
  "▁போட்டிகள்": 9540,
  "धीरे": 9541,
  "abaddi": 9542,
  "▁கல்விய": 9543,
  "oyal": 9544,
  "▁rock": 9545,
  "▁துறையானது": 9546,
  "रोहर": 9547,
  "రేబియా": 9548,
  "▁वर्षों": 9549,
  "టాక్": 9550,
  "▁మాత్ర": 9551,
  "్రిటిష్": 9552,
  "▁திச": 9553,
  "▁Press](https://ta.wikipedia.org/wiki/University": 9554,
  "▁Monetary": 9555,
  "▁(2014),": 9556,
  "▁[doi](https://ta.wikipedia.org/wiki/Doi_(identifier)": 9557,
  "వెను": 9558,
  "ూచి": 9559,
  "▁(ed.),": 9560,
  "భారతదేశ_రాష్ట్రాలు,_కేంద్రపాలిత_ప్రాంత": 9561,
  "-85168": 9562,
  "▁देख": 9563,
  "_17_2019": 9564,
  "PPP)": 9565,
  "Collingham2007": 9566,
  "CollinghamCollingham2007": 9567,
  "மணம்": 9568,
  "adhya": 9569,
  "▁पार्टी": 9570,
  "ప్పటిక": 9571,
  "வார்ப்புரு:Navbox\")": 9572,
  "▁name:": 9573,
  "_விளையாட்டு": 9574,
  "ீக்கியம்": 9575,
  "▁பள்ளி": 9576,
  "▁முகமை": 9577,
  "▁सिनेमा\"),": 9578,
  "india.gov.in/india-glance/national-symbols": 9579,
  "లేషియా": 9580,
  "▁మొదల": 9581,
  "Taj_Mahal": 9582,
  "ांति": 9583,
  "ांधी": 9584,
  "ஸ்டர்": 9585,
  "▁கிழக்கிந்திய": 9586,
  "▁दृश्य": 9587,
  "ச்சு:Navbox": 9588,
  "▁முசுலிம": 9589,
  "▁2008](https://ta.wikipedia.org/wiki/இந்தியா#CITEREFAsherTalbot2008),": 9590,
  "ద్యు": 9591,
  "▁majority": 9592,
  "▁చిత్ర": 9593,
  "ద్వీప్": 9594,
  "▁ఉపఖండ": 9595,
  "osphere": 9596,
  "▁దేశంలోని": 9597,
  "▁కాంగ్రెసు": 9598,
  "ேலியா": 9599,
  "ருவப்": 9600,
  "▁होती": 9601,
  "▁இயற்கைப்": 9602,
  "▁भूमिका": 9603,
  "arnatic": 9604,
  "Michell2000": 9605,
  "ఆగష్టు": 9606,
  "లక్షద్వీప్": 9607,
  "హాయం:": 9608,
  "ీకరణ": 9609,
  "ోల్‌కా": 9610,
  "▁दिसंबर": 9611,
  "प्राचीन": 9612,
  "మిజోరా": 9613,
  "இந்தோனேசியா": 9614,
  "_Performance": 9615,
  "ல்லாத": 9616,
  "▁appro": 9617,
  "web.archive.org/web/20090": 9618,
  "hattis": 9619,
  "ర్యానా": 9620,
  "▁[ఢిల్లీ](https://te.wikipedia.org/wiki/ఢిల్లీ": 9621,
  "టిబెట్": 9622,
  "మెరికా": 9623,
  "Organisation_for_Economic_Co-operation_and_Development_2007": 9624,
  "हित्य": 9625,
  "ेघालय": 9626,
  "▁இலட்சம்": 9627,
  "▁different": 9628,
  "_Indian_general_election": 9629,
  "hmedabad": 9630,
  "▁\"पाकिस्तान\")": 9631,
  "-0-19-882905-8": 9632,
  "_அமைச்சகம்": 9633,
  "_November_17_2019": 9634,
  "▁नेतृत्व": 9635,
  "pBq9": 9636,
  "బడ్డీ": 9637,
  "ేరళ": 9638,
  "్రైస్త": 9639,
  "ండమాన్": 9640,
  "ెలవుదిన": 9641,
  "▁சார்ந்த": 9642,
  "रुणाचल": 9643,
  "▁எண்ணிக்கையிலான": 9644,
  "ரதநாட்டியம்": 9645,
  "%C3%": 9646,
  "Rediff_2008": 9647,
  "v-results/": 9648,
  "चेंज": 9649,
  "वैदिक": 9650,
  "िबंधीय": 9651,
  "பது20": 9652,
  "తెలంగాణ": 9653,
  "ెన్నై": 9654,
  "‌మహల్": 9655,
  "ino-Indian": 9656,
  "enkataraman": 9657,
  "ப்பகுதிகளும்": 9658,
  "▁(2018).": 9659,
  "▁தசாப்த": 9660,
  "ednekar": 9661,
  "-960110-3": 9662,
  "-94-010": 9663,
  "_in_March_2004": 9664,
  "HarperCollins": 9665,
  "తాజ్‌మహల్": 9666,
  "-7mar2011": 9667,
  "](https://hi.wikipedia.org/wiki/भारत#cite_ref-langoff_128": 9668,
  "](https://ta.wikipedia.org/wiki/மொத்த_உள்நாட்டு_உற்பத்தி": 9669,
  "క్షరాస్యత": 9670,
  "120]](https://hi.wikipedia.org/wiki/भारत#cite_note-langoff-128)": 9671,
  "ivaperuman": 9672,
  "▁2009](https://hi.wikipedia.org/wiki/भारत#CITEREFSingh2009),": 9673,
  "censusindia.gov.in/2011-prov-results/": 9674,
  "నాగాలాండ్": 9675,
  "](https://te.wikipedia.org/wiki/జమ్మూ_కాశ్మీ": 9676,
  "▁பெயர்ச்சிக்": 9677,
  "▁[doi](https://ta.wikipedia.org/wiki/Doi_(identifier)?action=edit&redlink=1": 9678,
  "Taj_Mahal_in_March_2004": 9679,
  "ోల్‌కాతా": 9680,
  "_November_17_2019c": 9681,
  "*](http://": 9682,
  "-india-": 9683,
  ".bnf.fr/ark:/12148/cb": 9684,
  "/28": 9685,
  "320": 9686,
  "317": 9687,
  "6-1": 9688,
  "613": 9689,
  "946": 9690,
  "CAAJ": 9691,
  "Copland": 9692,
  "Women": 9693,
  "YS": 9694,
  "_articles": 9695,
  "_range": 9696,
  "hut": 9697,
  "ip": 9698,
  "jana": 9699,
  "mj": 9700,
  "rand": 9701,
  "s)": 9702,
  "s*](https://books.google.com/books?id=": 9703,
  "t/": 9704,
  "vest": 9705,
  "zer": 9706,
  "{{": 9707,
  "tection": 9708,
  "▁\"World": 9709,
  "rely": 9710,
  "oman": 9711,
  "etro": 9712,
  "-138": 9713,
  "▁Acc": 9714,
  "▁political": 9715,
  "▁2013.": 9716,
  "▁fl": 9717,
  "▁Portal": 9718,
  "▁sha": 9719,
  "▁bi": 9720,
  "2340": 9721,
  "1050": 9722,
  "ldlife": 9723,
  "▁By": 9724,
  "▁Britannica": 9725,
  "▁what": 9726,
  "▁even": 9727,
  "▁empire": 9728,
  "▁early": 9729,
  "▁Hindus": 9730,
  "▁[\"World": 9731,
  "▁Ne": 9732,
  "▁Nicobar": 9733,
  "18.com/news/": 9734,
  "40-0)": 9735,
  "AACAAJ": 9736,
  "▁\"Sanskrit": 9737,
  "7080": 9738,
  "▁Le": 9739,
  "apter": 9740,
  "39)": 9741,
  "ajya": 9742,
  "ongman": 9743,
  "2010).\n": 9744,
  "▁[Ch": 9745,
  "ghts": 9746,
  "908": 9747,
  "ana-m": 9748,
  "ana-49": 9749,
  "emic": 9750,
  "▁55": 9751,
  "-billion": 9752,
  "▁77.": 9753,
  "ridget": 9754,
  "_Ex": 9755,
  "▁[978-1-4": 9756,
  "missions": 9757,
  "india/national": 9758,
  "1/1": 9759,
  "anujan": 9760,
  "▁\"International": 9761,
  "ctorate": 9762,
  ":Special:Search/India": 9763,
  "-gana-m": 9764,
  "raditional": 9765,
  "pura": 9766,
  "▁2015.\n": 9767,
  "jection": 9768,
  "oseph": 9769,
  "thehindu.com/": 9770,
  "data.bnf.fr/ark:/12148/cb": 9771,
  "Sharma2007),": 9772,
  ".JPG/": 9773,
  ".php?": 9774,
  "rief-on-": 9775,
  "Tritsch20011": 9776,
  "them-of-india-": 9777,
  "hicle": 9778,
  "▁record": 9779,
  "International_Monetary_Fund": 9780,
  "-anthem-of-india-": 9781,
  "a-brief-on-": 9782,
  "ogue.bnf.fr/ark:/12148/cb": 9783,
  "8576.": 9784,
  "▁oldest": 9785,
  "_Air_Force": 9786,
  "news18.com/news/": 9787,
  "beralisation": 9788,
  "hutan": 9789,
  "jana-gana-m": 9790,
  "ana-498576.": 9791,
  "india/national-anthem-of-india-": 9792,
  ":Special:Search/India\")": 9793,
  "a-brief-on-jana-gana-m": 9794,
  "news18.com/news/india/national-anthem-of-india-": 9795,
  "a-brief-on-jana-gana-mana-498576.": 9796,
  "news18.com/news/india/national-anthem-of-india-a-brief-on-jana-gana-mana-498576.": 9797,
  ",&s": 9798,
  "-y": 9799,
  "-ag": 9800,
  "/m": 9801,
  "2]](https://en.wikipedia.org/wiki/India#cite_note-": 9802,
  "3]](https://en.wikipedia.org/wiki/India#cite_note-FOOTNOTE": 9803,
  "6%": 9804,
  "Atlas": 9805,
  "Constituent": 9806,
  "Dey": 9807,
  "FT": 9808,
  "First": 9809,
  "Front": 9810,
  "HAS": 9811,
  "OUT": 9812,
  "TRI": 9813,
  "WB": 9814,
  "_se": 9815,
  "_27": 9816,
  "_47": 9817,
  "_1.": 9818,
  "bour": 9819,
  "cu": 9820,
  "cover": 9821,
  "d)": 9822,
  "dress": 9823,
  "dates": 9824,
  "list": 9825,
  "mc": 9826,
  "osi": 9827,
  "vil": 9828,
  "wn": 9829,
  "}}": 9830,
  "▁X": 9831,
  "▁x": 9832,
  "▁enti": 9833,
  "▁70%": 9834,
  "digarh": 9835,
  "oro": 9836,
  "temporary": 9837,
  "▁\"Y": 9838,
  "ala": 9839,
  "alk": 9840,
  "hiv": 9841,
  "cir": 9842,
  "rime": 9843,
  "▁independence": 9844,
  "▁Cha": 9845,
  "▁Country": 9846,
  "ingle": 9847,
  "▁Americ": 9848,
  "▁India](https://en.wikipedia.org/wiki/C": 9849,
  "▁pres": 9850,
  "▁185": 9851,
  "adras": 9852,
  "chae": 9853,
  "▁sur": 9854,
  "urd": 9855,
  "▁Rec": 9856,
  "▁R.;": 9857,
  "rab": 9858,
  "▁Mana": 9859,
  "▁Machine": 9860,
  "rove": 9861,
  "rowing": 9862,
  "BNF": 9863,
  "▁military": 9864,
  "106": 9865,
  "irth": 9866,
  "▁evidence": 9867,
  "▁Gana": 9868,
  "▁Ganges": 9869,
  "▁Har": 9870,
  "18.": 9871,
  "▁1971": 9872,
  "ouncil": 9873,
  "70.": 9874,
  "a_N": 9875,
  "▁[↑](https://en.wikipedia.org/wiki/India#cite_ref-4": 9876,
  "35.": 9877,
  "48.": 9878,
  "▁original](http://": 9879,
  "397": 9880,
  "lick": 9881,
  "hai": 9882,
  "▁\"Mughal": 9883,
  "▁Ver": 9884,
  "ogn": 9885,
  "▁direct": 9886,
  "](https://en.wikipedia.org/wiki/Mugh": 9887,
  "▁expan": 9888,
  "](https://en.wikipedia.org/wiki/British": 9889,
  "▁contin": 9890,
  "▁contrib": 9891,
  "PPPPC": 9892,
  "sport": 9893,
  "▁[Re": 9894,
  "58)": 9895,
  "▁2007](https://en.wikipedia.org/wiki/India#CITEREF": 9896,
  "▁(2017).": 9897,
  "▁Street": 9898,
  "profile": 9899,
  "AsherTalbot200815": 9900,
  "▁via": 9901,
  "_%28cropped": 9902,
  "▁centuri": 9903,
  "▁plain": 9904,
  "view/": 9905,
  "Chang": 9906,
  "handigarh": 9907,
  "Robb200": 9908,
  "grawal": 9909,
  "4/4": 9910,
  "▁Division": 9911,
  ",NGDPD": 9912,
  "nergy": 9913,
  "▁upper": 9914,
  "NAL": 9915,
  "▁Data*.": 9916,
  "arnataka": 9917,
  "Bihar": 9918,
  "▁mathema": 9919,
  "_of_India.svg": 9920,
  "▁2018](https://en.wikipedia.org/wiki/India#CITEREFDyson2018),": 9921,
  "_class": 9922,
  "/weo-": 9923,
  "olden_Temple": 9924,
  "](https://en.wikipedia.org/wiki/History_of_": 9925,
  "Kuiper2010": 9926,
  "ulpture": 9927,
  "▁widely": 9928,
  "dia.com/india/": 9929,
  "▁adopted": 9930,
  "BalakrishnanDey": 9931,
  "HASIAEXT": 9932,
  "OUTHASIAEXT": 9933,
  "](https://en.wikipedia.org/wiki/Mughal_": 9934,
  "BalakrishnanDey2019": 9935,
  ");": 9936,
  "*),": 9937,
  ",500": 9938,
  "-world": 9939,
  "/R": 9940,
  "0/": 9941,
  "2C": 9942,
  "4.\n": 9943,
  "7),": 9944,
  "8]](https://ta.wikipedia.org/wiki/இந்தியா#cite_note-": 9945,
  "833": 9946,
  "95": 9947,
  "AQBAJ": 9948,
  "KI": 9949,
  "Mol": 9950,
  "NI": 9951,
  "Official": 9952,
  "Up": 9953,
  "_h": 9954,
  "_78": 9955,
  "_199": 9956,
  "_World": 9957,
  "ette": 9958,
  "ges": 9959,
  "ito": 9960,
  "jo": 9961,
  "journal": 9962,
  "jayan": 9963,
  "lk": 9964,
  "nu": 9965,
  "puri": 9966,
  "uchi": 9967,
  "wa": 9968,
  "अरब": 9969,
  "इन": 9970,
  "ईद": 9971,
  "ऍथ": 9972,
  "ऑक्सफोर्ड": 9973,
  "कणी": 9974,
  "ख़": 9975,
  "गध": 9976,
  "जल": 9977,
  "जपा": 9978,
  "जपुरी": 9979,
  "जिस्ट": 9980,
  "ताल": 9981,
  "थम": 9982,
  "थल": 9983,
  "दल": 9984,
  "दान": 9985,
  "नोल": 9986,
  "न्तर": 9987,
  "फ्रां": 9988,
  "बी": 9989,
  "बू": 9990,
  "बार": 9991,
  "मत": 9992,
  "मृत": 9993,
  "यपुर": 9994,
  "रस": 9995,
  "ल्ल": 9996,
  "शत": 9997,
  "शोक": 9998,
  "हम": 9999
}