{
  "vocab_size": 10000,
  "special_tokens": {
    "<pad>": 0,
    "<bos>": 1,
    "<eos>": 2,
    "<unk>": 3
  },
  "tokens": {
    "0": "<pad>",
    "1": "<bos>",
    "2": "<eos>",
    "3": "<unk>",
    "4": "\"",
    "5": "$",
    "6": "%",
    "7": "&",
    "8": "'",
    "9": "(",
    "10": ")",
    "11": "+",
    "12": ",",
    "13": "-",
    "14": ".",
    "15": "/",
    "16": "0",
    "17": "1",
    "18": "2",
    "19": "3",
    "20": "4",
    "21": "5",
    "22": "6",
    "23": "7",
    "24": "8",
    "25": "9",
    "26": ":",
    "27": ";",
    "28": "=",
    "29": "A",
    "30": "B",
    "31": "C",
    "32": "D",
    "33": "E",
    "34": "F",
    "35": "G",
    "36": "H",
    "37": "I",
    "38": "J",
    "39": "K",
    "40": "L",
    "41": "M",
    "42": "N",
    "43": "O",
    "44": "P",
    "45": "R",
    "46": "S",
    "47": "T",
    "48": "U",
    "49": "V",
    "50": "W",
    "51": "Y",
    "52": "Z",
    "53": "[",
    "54": "]",
    "55": "^",
    "56": "a",
    "57": "b",
    "58": "c",
    "59": "d",
    "60": "e",
    "61": "f",
    "62": "g",
    "63": "h",
    "64": "i",
    "65": "j",
    "66": "k",
    "67": "l",
    "68": "m",
    "69": "n",
    "70": "o",
    "71": "p",
    "72": "q",
    "73": "r",
    "74": "s",
    "75": "t",
    "76": "u",
    "77": "v",
    "78": "w",
    "79": "x",
    "80": "y",
    "81": "z",
    "82": "|",
    "83": "°",
    "84": "Ö",
    "85": "á",
    "86": "â",
    "87": "í",
    "88": "ā",
    "89": "ī",
    "90": "Ś",
    "91": "ū",
    "92": "ə",
    "93": "ɦ",
    "94": "ɪ",
    "95": "ɾ",
    "96": "ʊ",
    "97": "ʱ",
    "98": "ˈ",
    "99": "ː",
    "100": "ί",
    "101": "α",
    "102": "δ",
    "103": "ν",
    "104": "ο",
    "105": "ς",
    "106": "ό",
    "107": "ँ",
    "108": "ं",
    "109": "ः",
    "110": "अ",
    "111": "आ",
    "112": "इ",
    "113": "ई",
    "114": "उ",
    "115": "ऊ",
    "116": "ऋ",
    "117": "ए",
    "118": "ऐ",
    "119": "ऑ",
    "120": "ओ",
    "121": "औ",
    "122": "क",
    "123": "ख",
    "124": "ग",
    "125": "घ",
    "126": "च",
    "127": "छ",
    "128": "ज",
    "129": "झ",
    "130": "ञ",
    "131": "ट",
    "132": "ठ",
    "133": "ड",
    "134": "ढ",
    "135": "ण",
    "136": "त",
    "137": "थ",
    "138": "द",
    "139": "ध",
    "140": "न",
    "141": "प",
    "142": "फ",
    "143": "ब",
    "144": "भ",
    "145": "म",
    "146": "य",
    "147": "र",
    "148": "ल",
    "149": "व",
    "150": "श",
    "151": "ष",
    "152": "स",
    "153": "ह",
    "154": "़",
    "155": "ा",
    "156": "ि",
    "157": "ी",
    "158": "ु",
    "159": "ू",
    "160": "ृ",
    "161": "े",
    "162": "ै",
    "163": "ॉ",
    "164": "ो",
    "165": "ौ",
    "166": "्",
    "167": "।",
    "168": "०",
    "169": "१",
    "170": "२",
    "171": "३",
    "172": "४",
    "173": "५",
    "174": "६",
    "175": "७",
    "176": "८",
    "177": "९",
    "178": "॰",
    "179": "ஃ",
    "180": "அ",
    "181": "ஆ",
    "182": "இ",
    "183": "ஈ",
    "184": "உ",
    "185": "ஊ",
    "186": "எ",
    "187": "ஏ",
    "188": "ஐ",
    "189": "ஒ",
    "190": "ஓ",
    "191": "க",
    "192": "ங",
    "193": "ச",
    "194": "ஜ",
    "195": "ஞ",
    "196": "ட",
    "197": "ண",
    "198": "த",
    "199": "ந",
    "200": "ன",
    "201": "ப",
    "202": "ம",
    "203": "ய",
    "204": "ர",
    "205": "ற",
    "206": "ல",
    "207": "ள",
    "208": "ழ",
    "209": "வ",
    "210": "ஷ",
    "211": "ஸ",
    "212": "ஹ",
    "213": "ா",
    "214": "ி",
    "215": "ீ",
    "216": "ு",
    "217": "ூ",
    "218": "ெ",
    "219": "ே",
    "220": "ை",
    "221": "ொ",
    "222": "ோ",
    "223": "ௌ",
    "224": "்",
    "225": "ం",
    "226": "ః",
    "227": "అ",
    "228": "ఆ",
    "229": "ఇ",
    "230": "ఈ",
    "231": "ఉ",
    "232": "ఋ",
    "233": "ఎ",
    "234": "ఏ",
    "235": "ఐ",
    "236": "ఒ",
    "237": "ఓ",
    "238": "ఔ",
    "239": "క",
    "240": "ఖ",
    "241": "గ",
    "242": "ఘ",
    "243": "చ",
    "244": "ఛ",
    "245": "జ",
    "246": "ఞ",
    "247": "ట",
    "248": "ఠ",
    "249": "డ",
    "250": "ఢ",
    "251": "ణ",
    "252": "త",
    "253": "థ",
    "254": "ద",
    "255": "ధ",
    "256": "న",
    "257": "ప",
    "258": "ఫ",
    "259": "బ",
    "260": "భ",
    "261": "మ",
    "262": "య",
    "263": "ర",
    "264": "ల",
    "265": "ళ",
    "266": "వ",
    "267": "శ",
    "268": "ష",
    "269": "స",
    "270": "హ",
    "271": "ా",
    "272": "ి",
    "273": "ీ",
    "274": "ు",
    "275": "ూ",
    "276": "ృ",
    "277": "ె",
    "278": "ే",
    "279": "ై",
    "280": "ొ",
    "281": "ో",
    "282": "ౌ",
    "283": "్",
    "284": "ṅ",
    "285": "ṇ",
    "286": "ṣ",
    "287": "ṭ",
    "288": "Ἰ",
    "289": "‌",
    "290": "‍",
    "291": "–",
    "292": "—",
    "293": "‘",
    "294": "’",
    "295": "“",
    "296": "”",
    "297": "†",
    "298": "′",
    "299": "₹",
    "300": "▁",
    "301": "▁t",
    "302": "an",
    "303": "in",
    "304": "he",
    "305": "on",
    "306": "▁the",
    "307": "er",
    "308": "்த",
    "309": "்க",
    "310": "re",
    "311": "al",
    "312": "en",
    "313": "st",
    "314": "at",
    "315": "▁o",
    "316": "di",
    "317": "▁क",
    "318": "ar",
    "319": "▁ப",
    "320": "ிய",
    "321": "▁c",
    "322": "ed",
    "323": "▁I",
    "324": "and",
    "325": "ப்",
    "326": "ம்",
    "327": "▁a",
    "328": "it",
    "329": "▁s",
    "330": "▁In",
    "331": "▁w",
    "332": "▁இ",
    "333": "▁of",
    "334": "▁in",
    "335": "து",
    "336": "▁and",
    "337": "▁ம",
    "338": "్ర",
    "339": "▁ప",
    "340": "ன்",
    "341": "ல்",
    "342": "or",
    "343": "ion",
    "344": "▁க",
    "345": "்ட",
    "346": "▁p",
    "347": "▁b",
    "348": "ந்த",
    "349": "es",
    "350": "ార",
    "351": "ic",
    "352": "▁Indi",
    "353": "▁m",
    "354": "▁f",
    "355": "க்க",
    "356": "ing",
    "357": "ப்ப",
    "358": "is",
    "359": "లు",
    "360": "▁1",
    "361": "த்த",
    "362": "ும்",
    "363": "▁स",
    "364": "as",
    "365": "▁வ",
    "366": "ent",
    "367": "▁l",
    "368": "ள்",
    "369": "om",
    "370": "▁స",
    "371": "▁म",
    "372": "▁அ",
    "373": "▁த",
    "374": "▁India",
    "375": "ou",
    "376": "▁క",
    "377": "▁e",
    "378": "ரு",
    "379": "▁ह",
    "380": "ற்",
    "381": "ार",
    "382": "ட்ட",
    "383": "ான",
    "384": "లో",
    "385": "▁ச",
    "386": "ைய",
    "387": "▁प",
    "388": "్య",
    "389": "्र",
    "390": "ின்",
    "391": "▁వ",
    "392": "ில்",
    "393": "▁to",
    "394": "▁భ",
    "395": "▁మ",
    "396": "ly",
    "397": "ற்ற",
    "398": "▁ந",
    "399": "ாக",
    "400": "▁d",
    "401": "▁के",
    "402": "▁2",
    "403": "▁T",
    "404": "ec",
    "405": "▁h",
    "406": "ur",
    "407": "ர்",
    "408": "న్",
    "409": "▁re",
    "410": "ें",
    "411": "▁भ",
    "412": "ங்க",
    "413": "దే",
    "414": "ది",
    "415": "▁உ",
    "416": "▁19",
    "417": "దేశ",
    "418": "ిం",
    "419": "▁n",
    "420": "▁g",
    "421": "ాల",
    "422": "▁ర",
    "423": "ిక",
    "424": "il",
    "425": "▁இந்த",
    "426": "ారత",
    "427": "▁में",
    "428": "స్",
    "429": "ర్",
    "430": "▁ప్ర",
    "431": "▁A",
    "432": "ுக",
    "433": "th",
    "434": "00",
    "435": "▁భారత",
    "436": "▁C",
    "437": "▁ஆ",
    "438": "ver",
    "439": "ol",
    "440": "▁అ",
    "441": "ra",
    "442": "ri",
    "443": "న్న",
    "444": "ண்ட",
    "445": "ాలు",
    "446": "▁है",
    "447": "ul",
    "448": "▁இந்திய",
    "449": "▁B",
    "450": "▁The",
    "451": "ிக",
    "452": "्य",
    "453": "ation",
    "454": "▁(",
    "455": "am",
    "456": "ro",
    "457": "ve",
    "458": "▁S",
    "459": "▁अ",
    "460": "le",
    "461": "ारत",
    "462": "ள்ள",
    "463": "గా",
    "464": "ut",
    "465": "▁भारत",
    "466": "ce",
    "467": "▁ఉ",
    "468": "▁न",
    "469": "▁ज",
    "470": "▁ब",
    "471": "ist",
    "472": "र्",
    "473": "ிர",
    "474": "▁is",
    "475": "et",
    "476": "▁व",
    "477": "▁జ",
    "478": "ని",
    "479": "▁Indian",
    "480": "▁by",
    "481": "ast",
    "482": "▁மற்ற",
    "483": "ad",
    "484": "im",
    "485": "us",
    "486": "க்",
    "487": "ాయ",
    "488": "ig",
    "489": "ాత",
    "490": "▁மற்றும்",
    "491": "ாவ",
    "492": "▁द",
    "493": "या",
    "494": "ों",
    "495": "id",
    "496": "క్",
    "497": "▁th",
    "498": "ge",
    "499": "ow",
    "500": "▁औ",
    "501": "దేశం",
    "502": "िक",
    "503": "▁और",
    "504": "un",
    "505": "▁மு",
    "506": "▁र",
    "507": "▁చ",
    "508": "ில",
    "509": "▁M",
    "510": "ాన",
    "511": "▁20",
    "512": "▁for",
    "513": "uc",
    "514": "ith",
    "515": "ment",
    "516": "కు",
    "517": "▁r",
    "518": "ir",
    "519": "க்கு",
    "520": "▁con",
    "521": "ானது",
    "522": "్ట",
    "523": "्त",
    "524": "▁P",
    "525": "▁be",
    "526": "ate",
    "527": "tion",
    "528": "ान",
    "529": "ies",
    "530": "ను",
    "531": "్వ",
    "532": "்ச",
    "533": "ப்பட்ட",
    "534": "res",
    "535": "▁st",
    "536": "op",
    "537": "ter",
    "538": "டு",
    "539": "ీయ",
    "540": "▁with",
    "541": "em",
    "542": "▁की",
    "543": "▁was",
    "544": "ండ",
    "545": "ிற",
    "546": "▁ఇ",
    "547": "ిన",
    "548": "▁கா",
    "549": "▁as",
    "550": "▁E",
    "551": "▁त",
    "552": "▁mo",
    "553": "▁wh",
    "554": "▁प्र",
    "555": "rom",
    "556": "ain",
    "557": "ts",
    "558": "த்",
    "559": "▁का",
    "560": "ங்கள",
    "561": "ong",
    "562": "▁ஒ",
    "563": "ac",
    "564": "ical",
    "565": "▁எ",
    "566": "▁ex",
    "567": "▁di",
    "568": "டி",
    "569": "ருந்த",
    "570": "తి",
    "571": "est",
    "572": "ించ",
    "573": "▁it",
    "574": "▁கு",
    "575": "ன்ற",
    "576": "త్ర",
    "577": "▁से",
    "578": "▁D",
    "579": "▁G",
    "580": "her",
    "581": "ంది",
    "582": "▁தொ",
    "583": "▁பெ",
    "584": "ab",
    "585": "ang",
    "586": "art",
    "587": "der",
    "588": "ுள்ள",
    "589": "ाज",
    "590": "ద్",
    "591": "▁an",
    "592": "▁ఆ",
    "593": "▁రా",
    "594": "ial",
    "595": "se",
    "596": "மை",
    "597": "ர்க",
    "598": "ల్",
    "599": "▁on",
    "600": "gh",
    "601": "▁or",
    "602": "ay",
    "603": "ులు",
    "604": "▁N",
    "605": "▁from",
    "606": "ich",
    "607": "up",
    "608": "ంగ",
    "609": "రి",
    "610": "▁H",
    "611": "▁has",
    "612": "um",
    "613": "ill",
    "614": "ीय",
    "615": "ive",
    "616": "िया",
    "617": "▁త",
    "618": "▁பா",
    "619": "ld",
    "620": "▁ग",
    "621": "வை",
    "622": "ுகள",
    "623": "రు",
    "624": "▁un",
    "625": "▁பொ",
    "626": "ity",
    "627": "స్త",
    "628": "▁आ",
    "629": "ud",
    "630": "லை",
    "631": "ింది",
    "632": "▁న",
    "633": "था",
    "634": "ுத",
    "635": "▁which",
    "636": "▁கொ",
    "637": "ता",
    "638": "ాయి",
    "639": "▁ద",
    "640": "▁బ",
    "641": "▁இந்தியாவ",
    "642": "▁201",
    "643": "्ष",
    "644": "ంట",
    "645": "▁उ",
    "646": "ak",
    "647": "ure",
    "648": "con",
    "649": "ted",
    "650": "ub",
    "651": "ப்பட",
    "652": "▁వి",
    "653": "▁are",
    "654": "ற்க",
    "655": "▁భారతదేశం",
    "656": "oc",
    "657": "oun",
    "658": "ाल",
    "659": "ము",
    "660": "▁ल",
    "661": "rit",
    "662": "ult",
    "663": "ரச",
    "664": "ంలో",
    "665": "ైన",
    "666": "ना",
    "667": "li",
    "668": "ుత",
    "669": "ూడ",
    "670": "▁గ",
    "671": "▁पर",
    "672": "over",
    "673": "ுவ",
    "674": "వి",
    "675": "▁इ",
    "676": "▁श",
    "677": "▁సం",
    "678": "iv",
    "679": "▁com",
    "680": "▁inc",
    "681": "ண்",
    "682": "ரி",
    "683": "▁वि",
    "684": "▁போ",
    "685": "ers",
    "686": "▁al",
    "687": "▁v",
    "688": "▁को",
    "689": "▁உள்ள",
    "690": "ere",
    "691": "ுக்கு",
    "692": "▁ఎ",
    "693": "▁its",
    "694": "▁శ",
    "695": "end",
    "696": "ధిక",
    "697": "▁सं",
    "698": "ary",
    "699": "ch",
    "700": "du",
    "701": "ால்",
    "702": "▁de",
    "703": "▁हैं",
    "704": "ated",
    "705": "ுட",
    "706": "▁ఉన్న",
    "707": "ans",
    "708": "os",
    "709": "ort",
    "710": "ంగా",
    "711": "▁ए",
    "712": "्व",
    "713": "క్ష",
    "714": "el",
    "715": "ுள்ளது",
    "716": "ారు",
    "717": "టి",
    "718": "▁were",
    "719": "▁கொண்ட",
    "720": "ாட்ட",
    "721": "od",
    "722": "ாட",
    "723": "ear",
    "724": "▁W",
    "725": "▁அத",
    "726": "ot",
    "727": "न्",
    "728": "పు",
    "729": "▁cent",
    "730": "▁சம",
    "731": "og",
    "732": "त्र",
    "733": "ப்பு",
    "734": "▁இது",
    "735": "▁సా",
    "736": "ism",
    "737": "ry",
    "738": "ைக்",
    "739": "ార్",
    "740": "్చ",
    "741": "▁ஆக",
    "742": "ంత",
    "743": "▁ch",
    "744": "▁pro",
    "745": "▁ने",
    "746": "▁ஒரு",
    "747": "arge",
    "748": "mp",
    "749": "ough",
    "750": "ous",
    "751": "ிக்க",
    "752": "ின",
    "753": "▁कर",
    "754": "overn",
    "755": "▁7",
    "756": "▁200",
    "757": "▁cont",
    "758": "▁sp",
    "759": "▁செ",
    "760": "▁பிர",
    "761": "िय",
    "762": "▁सा",
    "763": "▁இந்தியா",
    "764": "ச்",
    "765": "▁As",
    "766": "▁wor",
    "767": "ions",
    "768": "ने",
    "769": "ित",
    "770": "▁வி",
    "771": "ag",
    "772": "our",
    "773": "ड़",
    "774": "கள",
    "775": "ார",
    "776": "▁5",
    "777": "▁at",
    "778": "▁హ",
    "779": "av",
    "780": "ష్ట",
    "781": "▁3",
    "782": "▁R",
    "783": "▁ar",
    "784": "▁य",
    "785": "▁int",
    "786": "▁కూడ",
    "787": "ant",
    "788": "fter",
    "789": "ிருந்த",
    "790": "▁4",
    "791": "▁U",
    "792": "▁co",
    "793": "▁தொட",
    "794": "age",
    "795": "ally",
    "796": "ass",
    "797": "றை",
    "798": "ற்ப",
    "799": "ாத",
    "800": "conom",
    "801": "outh",
    "802": "क्ष",
    "803": "▁राज",
    "804": "▁ஆண்ட",
    "805": "ap",
    "806": "if",
    "807": "overnment",
    "808": "ति",
    "809": "ेश",
    "810": "ச்ச",
    "811": "டுத்த",
    "812": "மாக",
    "813": "త్",
    "814": "▁च",
    "815": "▁Hin",
    "816": "ame",
    "817": "ास",
    "818": "▁ఈ",
    "819": "▁దేశ",
    "820": "▁ప్రా",
    "821": "ance",
    "822": "low",
    "823": "ाद",
    "824": "மைய",
    "825": "స్థ",
    "826": "▁దేశం",
    "827": "▁జాత",
    "828": "ct",
    "829": "▁part",
    "830": "▁கால",
    "831": "ress",
    "832": "uring",
    "833": "ிகள",
    "834": "▁195",
    "835": "▁Ch",
    "836": "▁రాజ",
    "837": "ish",
    "838": "्ट",
    "839": "ாக்க",
    "840": "చ్చ",
    "841": "▁bec",
    "842": "▁mar",
    "843": "▁வே",
    "844": "ங்கள்",
    "845": "▁ad",
    "846": "▁form",
    "847": "▁se",
    "848": "▁భారతీయ",
    "849": "िस",
    "850": "த்தின்",
    "851": "ருவ",
    "852": "ంచ",
    "853": "ట్ట",
    "854": "▁\"",
    "855": "▁F",
    "856": "▁econom",
    "857": "▁into",
    "858": "ிப்ப",
    "859": "యా",
    "860": "▁k",
    "861": "▁ఒ",
    "862": "▁le",
    "863": "▁pl",
    "864": "▁reg",
    "865": "▁இருந்த",
    "866": "aj",
    "867": "illion",
    "868": "ore",
    "869": "stit",
    "870": "ाष",
    "871": "ஆம்",
    "872": "ாள",
    "873": "్ల",
    "874": "▁199",
    "875": "▁sub",
    "876": "▁భా",
    "877": "▁రై",
    "878": "angu",
    "879": "ates",
    "880": "ces",
    "881": "తం",
    "882": "లి",
    "883": "▁J",
    "884": "▁K",
    "885": "▁202",
    "886": "▁इस",
    "887": "▁भारतीय",
    "888": "▁வெ",
    "889": "any",
    "890": "ern",
    "891": "ரிய",
    "892": "తర",
    "893": "▁196",
    "894": "▁cl",
    "895": "▁அரச",
    "896": "▁இந்தியாவின்",
    "897": "▁பக",
    "898": "ence",
    "899": "hi",
    "900": "ia",
    "901": "inist",
    "902": "qu",
    "903": "ution",
    "904": "ர்கள",
    "905": "ித்த",
    "906": "▁centur",
    "907": "▁rel",
    "908": "▁सम",
    "909": "▁அமை",
    "910": "ல்ல",
    "911": "▁y",
    "912": "▁el",
    "913": "▁large",
    "914": "▁per",
    "915": "ine",
    "916": "mer",
    "917": "ரும்",
    "918": "ష్ట్ర",
    "919": "▁pop",
    "920": "▁நில",
    "921": "▁మొ",
    "922": "ener",
    "923": "me",
    "924": "ాబ",
    "925": "▁V",
    "926": "▁ని",
    "927": "▁dec",
    "928": "000",
    "929": "ire",
    "930": "மான",
    "931": "மானது",
    "932": "று",
    "933": "ால",
    "934": "ిత",
    "935": "▁அதிக",
    "936": "▁இத",
    "937": "ff",
    "938": "னர்",
    "939": "வு",
    "940": "ாய",
    "941": "ிறது",
    "942": "ேர",
    "943": "ంద",
    "944": "▁१",
    "945": "▁government",
    "946": "▁பொரு",
    "947": "▁పే",
    "948": "▁రాష్ట్ర",
    "949": "ber",
    "950": "ok",
    "951": "ைப்",
    "952": "ద్ధ",
    "953": "▁langu",
    "954": "▁pri",
    "955": "▁एक",
    "956": "▁तथा",
    "957": "cc",
    "958": "duc",
    "959": "pp",
    "960": "reas",
    "961": "red",
    "962": "சிய",
    "963": "ఖ్య",
    "964": "ల్ల",
    "965": "ికి",
    "966": "్రీ",
    "967": "▁comp",
    "968": "▁popul",
    "969": "▁अन",
    "970": "▁हु",
    "971": "▁இர",
    "972": "▁జాతీయ",
    "973": "▁స్",
    "974": "all",
    "975": "ect",
    "976": "reat",
    "977": "ద్ద",
    "978": "▁tra",
    "979": "▁world",
    "980": "▁भी",
    "981": "▁உல",
    "982": "▁అధిక",
    "983": "▁భారతదేశ",
    "984": "lud",
    "985": "ome",
    "986": "so",
    "987": "ंग",
    "988": "ந்து",
    "989": "ாகும்",
    "990": "ிட",
    "991": "ర్వ",
    "992": "్యవ",
    "993": "▁ల",
    "994": "▁Ind",
    "995": "▁ag",
    "996": "▁sh",
    "997": "▁sy",
    "998": "▁जा",
    "999": "▁பகுத",
    "1000": "▁జన",
    "1001": "▁ము",
    "1002": "ave",
    "1003": "ection",
    "1004": "ved",
    "1005": "க்கிய",
    "1006": "த்து",
    "1007": "నే",
    "1008": "ాక",
    "1009": "ింద",
    "1010": "▁exp",
    "1011": "▁year",
    "1012": "▁ஆகிய",
    "1013": "dition",
    "1014": "ide",
    "1015": "igh",
    "1016": "ign",
    "1017": "irst",
    "1018": "ட்ச",
    "1019": "ார்",
    "1020": "ండి",
    "1021": "మైన",
    "1022": "▁6",
    "1023": "▁end",
    "1024": "▁లో",
    "1025": "▁Hindu",
    "1026": "▁first",
    "1027": "▁res",
    "1028": "▁हो",
    "1029": "▁மே",
    "1030": "dern",
    "1031": "ian",
    "1032": "oth",
    "1033": "ther",
    "1034": "uch",
    "1035": "த்தில்",
    "1036": "ர்கள்",
    "1037": "ற்கு",
    "1038": "ణా",
    "1039": "వా",
    "1040": "▁18",
    "1041": "▁art",
    "1042": "▁உருவ",
    "1043": "▁ఉంది",
    "1044": "▁ఉన్నాయి",
    "1045": "ew",
    "1046": "row",
    "1047": "stitution",
    "1048": "न्द",
    "1049": "இல்",
    "1050": "டை",
    "1051": "ப்படுக",
    "1052": "ின்ற",
    "1053": "డి",
    "1054": "▁L",
    "1055": "▁includ",
    "1056": "▁தெ",
    "1057": "▁ఒక",
    "1058": "▁స్థ",
    "1059": "ational",
    "1060": "gan",
    "1061": "har",
    "1062": "stem",
    "1063": "▁O",
    "1064": "▁cons",
    "1065": "▁over",
    "1066": "▁system",
    "1067": "▁கோ",
    "1068": "▁மா",
    "1069": "ics",
    "1070": "used",
    "1071": "we",
    "1072": "से",
    "1073": "हा",
    "1074": "வைய",
    "1075": "పా",
    "1076": "్‌",
    "1077": "▁து",
    "1078": "▁2011",
    "1079": "▁became",
    "1080": "▁during",
    "1081": "▁rep",
    "1082": "▁மிக",
    "1083": "ages",
    "1084": "र्व",
    "1085": "्या",
    "1086": "ும",
    "1087": "టు",
    "1088": "మా",
    "1089": "▁8",
    "1090": "▁ri",
    "1091": "▁me",
    "1092": "▁உலக",
    "1093": "▁ఎన్న",
    "1094": "▁భారతదేశంలో",
    "1095": "ajor",
    "1096": "dh",
    "1097": "mpire",
    "1098": "ral",
    "1099": "upp",
    "1100": "कार",
    "1101": "र्म",
    "1102": "டைய",
    "1103": "தி",
    "1104": "ுக்",
    "1105": "తో",
    "1106": "ధ్య",
    "1107": "న్ని",
    "1108": "భా",
    "1109": "ాన్",
    "1110": "▁194",
    "1111": "▁also",
    "1112": "▁but",
    "1113": "▁been",
    "1114": "▁had",
    "1115": "▁have",
    "1116": "▁inf",
    "1117": "▁नि",
    "1118": "▁குற",
    "1119": "▁మార్",
    "1120": "als",
    "1121": "estern",
    "1122": "ound",
    "1123": "ric",
    "1124": "ural",
    "1125": "விய",
    "1126": "ியாக",
    "1127": "▁ఏ",
    "1128": "▁197",
    "1129": "▁కా",
    "1130": "ep",
    "1131": "रा",
    "1132": "ழ்",
    "1133": "డు",
    "1134": "ిన్న",
    "1135": "ుల",
    "1136": "▁198",
    "1137": "▁dis",
    "1138": "▁more",
    "1139": "▁relig",
    "1140": "▁వచ్చ",
    "1141": "▁హింద",
    "1142": "ongress",
    "1143": "ord",
    "1144": "vers",
    "1145": "िल",
    "1146": "த்தை",
    "1147": "ன்ன",
    "1148": "ம்ப",
    "1149": "ிகள்",
    "1150": "ధాన",
    "1151": "ెండ",
    "1152": "్యవస్థ",
    "1153": "▁pe",
    "1154": "▁நாட",
    "1155": "▁முத",
    "1156": "▁మార్గ",
    "1157": "▁స్వ",
    "1158": "ens",
    "1159": "ower",
    "1160": "ures",
    "1161": "स्",
    "1162": "డ్",
    "1163": "▁he",
    "1164": "▁im",
    "1165": "▁ஐ",
    "1166": "▁gener",
    "1167": "▁lat",
    "1168": "▁pol",
    "1169": "▁किया",
    "1170": "ph",
    "1171": "ust",
    "1172": "wo",
    "1173": "ाम",
    "1174": "லா",
    "1175": "రా",
    "1176": "▁ஊ",
    "1177": "▁South",
    "1178": "▁after",
    "1179": "▁century",
    "1180": "▁class",
    "1181": "▁increas",
    "1182": "▁million",
    "1183": "▁minist",
    "1184": "▁modern",
    "1185": "▁most",
    "1186": "▁num",
    "1187": "▁such",
    "1188": "▁that",
    "1189": "▁years",
    "1190": "▁वर्",
    "1191": "▁பு",
    "1192": "▁மொ",
    "1193": "▁కూడా",
    "1194": "▁చె",
    "1195": "ren",
    "1196": "ते",
    "1197": "धिक",
    "1198": "ணை",
    "1199": "்கள",
    "1200": "ంబ",
    "1201": "ారం",
    "1202": "్యం",
    "1203": "్రమ",
    "1204": "▁ca",
    "1205": "▁par",
    "1206": "▁நீ",
    "1207": "▁కో",
    "1208": "20",
    "1209": "CE",
    "1210": "les",
    "1211": "orth",
    "1212": "ंत्र",
    "1213": "री",
    "1214": "ன்ப",
    "1215": "ానికి",
    "1216": "▁ஏ",
    "1217": "▁sc",
    "1218": "▁tradition",
    "1219": "▁கூ",
    "1220": "▁செய",
    "1221": "ik",
    "1222": "mong",
    "1223": "ount",
    "1224": "tin",
    "1225": "ीन",
    "1226": "ையும்",
    "1227": "పంచ",
    "1228": "్రా",
    "1229": "▁Congress",
    "1230": "▁Un",
    "1231": "▁both",
    "1232": "▁long",
    "1233": "▁prime",
    "1234": "▁rul",
    "1235": "▁region",
    "1236": "▁soc",
    "1237": "▁two",
    "1238": "▁तक",
    "1239": "▁राज्य",
    "1240": "▁பெரும்",
    "1241": "▁ప్రపంచ",
    "1242": "▁ప్రాంత",
    "1243": "▁రైలు",
    "1244": "▁శా",
    "1245": "ef",
    "1246": "istan",
    "1247": "ose",
    "1248": "olog",
    "1249": "ty",
    "1250": "ती",
    "1251": "சு",
    "1252": "டிய",
    "1253": "ுகள்",
    "1254": "ంత్ర",
    "1255": "క్షి",
    "1256": "గు",
    "1257": "▁9",
    "1258": "▁ध",
    "1259": "▁–",
    "1260": "▁1950",
    "1261": "▁ser",
    "1262": "▁under",
    "1263": "▁हि",
    "1264": "▁இரு",
    "1265": "▁நட",
    "1266": "▁வர",
    "1267": "▁పేరు",
    "1268": "▁ప్రధాన",
    "1269": "aste",
    "1270": "ban",
    "1271": "hed",
    "1272": "ically",
    "1273": "isation",
    "1274": "ulture",
    "1275": "urban",
    "1276": "vel",
    "1277": "के",
    "1278": "िण",
    "1279": "க்கப்பட்ட",
    "1280": "ண்ண",
    "1281": "ట్",
    "1282": "స్క",
    "1283": "ాల్",
    "1284": "▁Asia",
    "1285": "▁BCE",
    "1286": "▁major",
    "1287": "▁పార",
    "1288": "▁మత",
    "1289": "▁రాజ్య",
    "1290": "ations",
    "1291": "etwe",
    "1292": "etween",
    "1293": "ite",
    "1294": "lic",
    "1295": "ory",
    "1296": "rough",
    "1297": "ंध",
    "1298": "றைய",
    "1299": "ாண்ட",
    "1300": "ாட்டு",
    "1301": "்கள்",
    "1302": "ర్య",
    "1303": "▁off",
    "1304": "▁देश",
    "1305": "▁மக்க",
    "1306": "▁క్రీ",
    "1307": "ari",
    "1308": "ince",
    "1309": "lo",
    "1310": "ree",
    "1311": "rib",
    "1312": "uddh",
    "1313": "ृत",
    "1314": "ளாத",
    "1315": "క్కు",
    "1316": "ప్ర",
    "1317": "సి",
    "1318": "▁ஓ",
    "1319": "▁1947",
    "1320": "▁Buddh",
    "1321": "▁rec",
    "1322": "▁स्",
    "1323": "▁साथ",
    "1324": "▁சமய",
    "1325": "▁வள",
    "1326": "▁కే",
    "1327": "▁దక్షి",
    "1328": "▁మధ్య",
    "1329": "▁వ్యవస్థ",
    "1330": "ament",
    "1331": "ell",
    "1332": "lear",
    "1333": "out",
    "1334": "pt",
    "1335": "ritish",
    "1336": "uclear",
    "1337": "धान",
    "1338": "ाषा",
    "1339": "ूप",
    "1340": "ளவ",
    "1341": "ிரு",
    "1342": "ுடன்",
    "1343": "దాయ",
    "1344": "ాలలో",
    "1345": "ుక",
    "1346": "్టీ",
    "1347": "▁urban",
    "1348": "▁British",
    "1349": "▁Con",
    "1350": "▁Empire",
    "1351": "▁caste",
    "1352": "▁election",
    "1353": "▁grow",
    "1354": "▁land",
    "1355": "▁language",
    "1356": "▁minister",
    "1357": "▁not",
    "1358": "▁population",
    "1359": "▁supp",
    "1360": "▁this",
    "1361": "▁their",
    "1362": "▁उत",
    "1363": "▁அல்ல",
    "1364": "▁உள்ளது",
    "1365": "▁கொண்டுள்ளது",
    "1366": "▁అధికార",
    "1367": "▁పార్టీ",
    "1368": "eng",
    "1369": "ially",
    "1370": "lowing",
    "1371": "ond",
    "1372": "का",
    "1373": "क्षिण",
    "1374": "ங்களில்",
    "1375": "வற்ற",
    "1376": "வும்",
    "1377": "ిస్త",
    "1378": "ున్న",
    "1379": "▁ra",
    "1380": "▁था",
    "1381": "▁26",
    "1382": "▁An",
    "1383": "▁ear",
    "1384": "▁ter",
    "1385": "▁सर",
    "1386": "▁१९",
    "1387": "▁என்ற",
    "1388": "▁பொருளாத",
    "1389": "▁చే",
    "1390": "▁ప్రజ",
    "1391": "akistan",
    "1392": "anges",
    "1393": "dic",
    "1394": "imal",
    "1395": "ition",
    "1396": "sh",
    "1397": "स्त",
    "1398": "ीं",
    "1399": "ोग",
    "1400": "्तर",
    "1401": "्षे",
    "1402": "ர்ச்ச",
    "1403": "ான்",
    "1404": "ித",
    "1405": "ிழ",
    "1406": "ியில்",
    "1407": "ீத",
    "1408": "క్కువ",
    "1409": "త్వ",
    "1410": "ప్",
    "1411": "భుత",
    "1412": "భుత్వ",
    "1413": "▁12",
    "1414": "▁fol",
    "1415": "▁imp",
    "1416": "▁nort",
    "1417": "▁north",
    "1418": "▁south",
    "1419": "▁जन",
    "1420": "▁दक्षिण",
    "1421": "▁पू",
    "1422": "▁सरकार",
    "1423": "▁அல்லது",
    "1424": "▁உய",
    "1425": "▁குறிப்ப",
    "1426": "▁பர",
    "1427": "▁பல",
    "1428": "▁பொது",
    "1429": "▁பொருளாதார",
    "1430": "▁ఆర్",
    "1431": "▁జనా",
    "1432": "▁దేశంలో",
    "1433": "▁ప్రభుత్వ",
    "1434": "▁భాష",
    "1435": "▁హిందూ",
    "1436": "ard",
    "1437": "contin",
    "1438": "continent",
    "1439": "enc",
    "1440": "ni",
    "1441": "वा",
    "1442": "हु",
    "1443": "्षेत्र",
    "1444": "ல்வ",
    "1445": "வாக",
    "1446": "ியது",
    "1447": "ிருந்து",
    "1448": "ுக்க",
    "1449": "త్య",
    "1450": "రణ",
    "1451": "▁j",
    "1452": "▁app",
    "1453": "▁between",
    "1454": "▁began",
    "1455": "▁dance",
    "1456": "▁many",
    "1457": "▁अप",
    "1458": "▁क्षेत्र",
    "1459": "▁गया",
    "1460": "▁அதிகரி",
    "1461": "▁ஆண்டு",
    "1462": "▁பார",
    "1463": "▁అయ",
    "1464": "▁ఇతర",
    "1465": "▁కాల",
    "1466": "▁పరి",
    "1467": "▁మొద",
    "1468": "ack",
    "1469": "ade",
    "1470": "atic",
    "1471": "ered",
    "1472": "ice",
    "1473": "ilit",
    "1474": "ited",
    "1475": "lu",
    "1476": "merg",
    "1477": "raph",
    "1478": "vi",
    "1479": "versity",
    "1480": "ओं",
    "1481": "भा",
    "1482": "्रे",
    "1483": "கள்",
    "1484": "ించింది",
    "1485": "▁15",
    "1486": "▁जिस",
    "1487": "▁बाद",
    "1488": "▁यह",
    "1489": "▁படி",
    "1490": "▁பிற",
    "1491": "▁போது",
    "1492": "▁కు",
    "1493": "hern",
    "1494": "ins",
    "1495": "ised",
    "1496": "mon",
    "1497": "omin",
    "1498": "velop",
    "1499": "द्",
    "1500": "ली",
    "1501": "ப்பட்டது",
    "1502": "லி",
    "1503": "ானவை",
    "1504": "ிட்ட",
    "1505": "ைகள",
    "1506": "ెద్ద",
    "1507": "▁CE",
    "1508": "▁It",
    "1509": "▁Pakistan",
    "1510": "▁east",
    "1511": "▁economy",
    "1512": "▁fore",
    "1513": "▁later",
    "1514": "▁northern",
    "1515": "▁tim",
    "1516": "▁विश",
    "1517": "▁साम",
    "1518": "▁பெரும்ப",
    "1519": "▁వచ్చింది",
    "1520": "▁సభ",
    "1521": "▁సాం",
    "1522": "▁స్థాన",
    "1523": "aw",
    "1524": "ative",
    "1525": "ountry",
    "1526": "ublic",
    "1527": "क्त",
    "1528": "ढ़",
    "1529": "बसे",
    "1530": "िम",
    "1531": "ुख",
    "1532": "ந்திய",
    "1533": "ாண",
    "1534": "ின்றன",
    "1535": "ியல்",
    "1536": "స్కృ",
    "1537": "ాద",
    "1538": "ాత్ర",
    "1539": "ించిన",
    "1540": "్రి",
    "1541": "▁२",
    "1542": "▁ab",
    "1543": "▁भाषा",
    "1544": "▁सबसे",
    "1545": "▁हिन्द",
    "1546": "▁இட",
    "1547": "▁கட்ட",
    "1548": "▁రెండ",
    "1549": "▁సి",
    "1550": "ace",
    "1551": "ci",
    "1552": "ex",
    "1553": "ected",
    "1554": "iter",
    "1555": "ta",
    "1556": "ugh",
    "1557": "ular",
    "1558": "ंद",
    "1559": "नी",
    "1560": "ां",
    "1561": "्च",
    "1562": "நில",
    "1563": "ப்படுகிறது",
    "1564": "ைத்",
    "1565": "்கு",
    "1566": "మీ",
    "1567": "ష్",
    "1568": "ారి",
    "1569": "ీన",
    "1570": "▁Al",
    "1571": "▁ext",
    "1572": "▁hum",
    "1573": "▁influ",
    "1574": "▁peop",
    "1575": "▁sec",
    "1576": "▁spec",
    "1577": "▁there",
    "1578": "▁कार",
    "1579": "▁இந்தியாவில்",
    "1580": "▁நூ",
    "1581": "▁வந்த",
    "1582": "▁வழ",
    "1583": "able",
    "1584": "ains",
    "1585": "ately",
    "1586": "ech",
    "1587": "esp",
    "1588": "hm",
    "1589": "ise",
    "1590": "own",
    "1591": "sl",
    "1592": "tern",
    "1593": "ஞ்ச",
    "1594": "రువ",
    "1595": "రువాత",
    "1596": "▁थ",
    "1597": "▁10",
    "1598": "▁17",
    "1599": "▁After",
    "1600": "▁By",
    "1601": "▁Mo",
    "1602": "▁Th",
    "1603": "▁classical",
    "1604": "▁economic",
    "1605": "▁increased",
    "1606": "▁non",
    "1607": "▁occ",
    "1608": "▁rate",
    "1609": "▁since",
    "1610": "▁subcontinent",
    "1611": "▁western",
    "1612": "▁बहु",
    "1613": "▁அமைப்ப",
    "1614": "▁இல",
    "1615": "▁క్రీడ",
    "1616": "▁తరువాత",
    "1617": "▁పు",
    "1618": "▁మార్గాలు",
    "1619": "athe",
    "1620": "ments",
    "1621": "omp",
    "1622": "orm",
    "1623": "rol",
    "1624": "ron",
    "1625": "ting",
    "1626": "vent",
    "1627": "ya",
    "1628": "कर",
    "1629": "ले",
    "1630": "ाष्ट",
    "1631": "ाष्ट्र",
    "1632": "கு",
    "1633": "சி",
    "1634": "ணிய",
    "1635": "மையான",
    "1636": "ரண",
    "1637": "ంద్ర",
    "1638": "గర",
    "1639": "పాల",
    "1640": "రిగ",
    "1641": "వాణా",
    "1642": "ావ",
    "1643": "ిల్ల",
    "1644": "్రె",
    "1645": "▁ను",
    "1646": "▁Ma",
    "1647": "▁cour",
    "1648": "▁develop",
    "1649": "▁emerg",
    "1650": "▁mid",
    "1651": "▁mus",
    "1652": "▁पा",
    "1653": "▁प्रा",
    "1654": "▁இரண்ட",
    "1655": "▁குடிய",
    "1656": "▁தே",
    "1657": "▁மூ",
    "1658": "▁வா",
    "1659": "▁అతి",
    "1660": "▁అయిన",
    "1661": "▁ఉంట",
    "1662": "▁ఉత్",
    "1663": "▁జనాభా",
    "1664": "19",
    "1665": "amil",
    "1666": "ars",
    "1667": "cient",
    "1668": "ever",
    "1669": "iod",
    "1670": "ife",
    "1671": "lim",
    "1672": "liament",
    "1673": "ograph",
    "1674": "rig",
    "1675": "til",
    "1676": "ंग्रे",
    "1677": "ाज्य",
    "1678": "िए",
    "1679": "िका",
    "1680": "ங்களை",
    "1681": "டிவ",
    "1682": "ப்படும்",
    "1683": "ம்பரிய",
    "1684": "ளி",
    "1685": "ிவ",
    "1686": "ீன",
    "1687": "క్క",
    "1688": "నాలు",
    "1689": "మి",
    "1690": "లం",
    "1691": "ాలను",
    "1692": "ుంది",
    "1693": "ుకు",
    "1694": "▁1991",
    "1695": "▁Chin",
    "1696": "▁Mugh",
    "1697": "▁among",
    "1698": "▁general",
    "1699": "▁hist",
    "1700": "▁life",
    "1701": "▁liter",
    "1702": "▁largest",
    "1703": "▁milit",
    "1704": "▁new",
    "1705": "▁nuclear",
    "1706": "▁number",
    "1707": "▁power",
    "1708": "▁parliament",
    "1709": "▁people",
    "1710": "▁period",
    "1711": "▁ref",
    "1712": "▁species",
    "1713": "▁state",
    "1714": "▁than",
    "1715": "▁अधिक",
    "1716": "▁दो",
    "1717": "▁அற",
    "1718": "▁குறை",
    "1719": "▁பாரம்பரிய",
    "1720": "▁மொழ",
    "1721": "▁కొ",
    "1722": "▁ద్వ",
    "1723": "▁పట్ట",
    "1724": "ati",
    "1725": "fe",
    "1726": "hen",
    "1727": "ities",
    "1728": "की",
    "1729": "द्ध",
    "1730": "बंध",
    "1731": "मा",
    "1732": "ला",
    "1733": "னை",
    "1734": "ர்வ",
    "1735": "ாம",
    "1736": "ிருந்தது",
    "1737": "ுடைய",
    "1738": "ையில்",
    "1739": "ప్ప",
    "1740": "ౌక",
    "1741": "▁फ",
    "1742": "▁య",
    "1743": "▁set",
    "1744": "▁धर्म",
    "1745": "▁शास",
    "1746": "▁ஆய",
    "1747": "▁உருவாக்க",
    "1748": "▁தன",
    "1749": "▁தொக",
    "1750": "▁பெற்ற",
    "1751": "▁வட",
    "1752": "▁விள",
    "1753": "▁ముఖ్య",
    "1754": "42",
    "1755": "ai",
    "1756": "athem",
    "1757": "enni",
    "1758": "engal",
    "1759": "ennium",
    "1760": "ied",
    "1761": "illennium",
    "1762": "ket",
    "1763": "ks",
    "1764": "ope",
    "1765": "orld",
    "1766": "ten",
    "1767": "urope",
    "1768": "प्त",
    "1769": "र्थ",
    "1770": "ुर",
    "1771": "्प",
    "1772": "ண்ப",
    "1773": "தாக",
    "1774": "த்திற",
    "1775": "ாங்க",
    "1776": "ிலிருந்து",
    "1777": "்ப",
    "1778": "்த்த",
    "1779": "ంగ్రె",
    "1780": "ందిన",
    "1781": "కీయ",
    "1782": "గం",
    "1783": "ప్రదాయ",
    "1784": "రో",
    "1785": "స్త్ర",
    "1786": "ుకో",
    "1787": "ెలు",
    "1788": "▁Bengal",
    "1789": "▁Indo",
    "1790": "▁Pl",
    "1791": "▁World",
    "1792": "▁bas",
    "1793": "▁constitution",
    "1794": "▁est",
    "1795": "▁gra",
    "1796": "▁lead",
    "1797": "▁pre",
    "1798": "▁social",
    "1799": "▁though",
    "1800": "▁through",
    "1801": "▁रूप",
    "1802": "▁वर्ष",
    "1803": "▁ஒன்ற",
    "1804": "▁தோ",
    "1805": "▁பெரிய",
    "1806": "▁முறை",
    "1807": "▁முதல்",
    "1808": "▁అనే",
    "1809": "▁ఇది",
    "1810": "▁ఎక్కువ",
    "1811": "▁ఎన్నో",
    "1812": "▁కలి",
    "1813": "▁కాంగ్రె",
    "1814": "▁కేంద్ర",
    "1815": "▁జరిగ",
    "1816": "▁దక్షిణ",
    "1817": "▁పాక",
    "1818": "▁పెద్ద",
    "1819": "▁రవాణా",
    "1820": "ansk",
    "1821": "anskrit",
    "1822": "emp",
    "1823": "jab",
    "1824": "ood",
    "1825": "roc",
    "1826": "ultan",
    "1827": "unjab",
    "1828": "देश",
    "1829": "रे",
    "1830": "सा",
    "1831": "िन",
    "1832": "த்தது",
    "1833": "ந்தது",
    "1834": "ர்ந்து",
    "1835": "ற்றாண்ட",
    "1836": "ிக்",
    "1837": "ியான",
    "1838": "ுள்ளன",
    "1839": "బడ",
    "1840": "లలో",
    "1841": "లా",
    "1842": "స్తుత",
    "1843": "ాబ్",
    "1844": "▁China",
    "1845": "▁East",
    "1846": "▁Mughal",
    "1847": "▁Punjab",
    "1848": "▁Sanskrit",
    "1849": "▁US",
    "1850": "▁country",
    "1851": "▁cr",
    "1852": "▁caused",
    "1853": "▁dire",
    "1854": "▁emp",
    "1855": "▁gr",
    "1856": "▁including",
    "1857": "▁languages",
    "1858": "▁main",
    "1859": "▁military",
    "1860": "▁rule",
    "1861": "▁tr",
    "1862": "▁them",
    "1863": "▁जो",
    "1864": "▁विश्व",
    "1865": "▁स्थ",
    "1866": "▁ஆகும்",
    "1867": "▁இவ",
    "1868": "▁என்று",
    "1869": "▁காரண",
    "1870": "▁தலை",
    "1871": "▁தொழ",
    "1872": "▁நூற்றாண்ட",
    "1873": "▁பய",
    "1874": "▁ఏర్",
    "1875": "▁పాల",
    "1876": "▁బహ",
    "1877": "▁వంట",
    "1878": "▁సంగ",
    "1879": "▁సాధ",
    "1880": "ared",
    "1881": "ach",
    "1882": "act",
    "1883": "heast",
    "1884": "ians",
    "1885": "ident",
    "1886": "ild",
    "1887": "ivil",
    "1888": "led",
    "1889": "orts",
    "1890": "read",
    "1891": "vement",
    "1892": "दी",
    "1893": "ियों",
    "1894": "சியாவ",
    "1895": "ரா",
    "1896": "ாகக்",
    "1897": "ிறுவ",
    "1898": "గ్",
    "1899": "టిక",
    "1900": "దు",
    "1901": "ర్ణ",
    "1902": "ిమ",
    "1903": "▁up",
    "1904": "▁घ",
    "1905": "▁ట",
    "1906": "▁Sik",
    "1907": "▁sign",
    "1908": "▁we",
    "1909": "▁नाम",
    "1910": "▁पूर्व",
    "1911": "▁राष्ट्र",
    "1912": "▁இய",
    "1913": "▁உலகின்",
    "1914": "▁எண்ண",
    "1915": "▁என",
    "1916": "▁கட",
    "1917": "▁நக",
    "1918": "▁மக்கள்",
    "1919": "▁வை",
    "1920": "30",
    "1921": "amp",
    "1922": "ange",
    "1923": "ands",
    "1924": "argest",
    "1925": "cri",
    "1926": "duced",
    "1927": "entral",
    "1928": "imalay",
    "1929": "ird",
    "1930": "ives",
    "1931": "ked",
    "1932": "largest",
    "1933": "mit",
    "1934": "ors",
    "1935": "ording",
    "1936": "owever",
    "1937": "rew",
    "1938": "uslim",
    "1939": "जा",
    "1940": "க்கும்",
    "1941": "ந்திர",
    "1942": "ர்ந்த",
    "1943": "ூக",
    "1944": "ండు",
    "1945": "ండియా",
    "1946": "త్యధిక",
    "1947": "ద్ధి",
    "1948": "ిల్లీ",
    "1949": "▁1965",
    "1950": "▁Comp",
    "1951": "▁Himalay",
    "1952": "▁Indus",
    "1953": "▁St",
    "1954": "▁all",
    "1955": "▁billion",
    "1956": "▁centuries",
    "1957": "▁disp",
    "1958": "▁forest",
    "1959": "▁led",
    "1960": "▁mathem",
    "1961": "▁millennium",
    "1962": "▁music",
    "1963": "▁other",
    "1964": "▁one",
    "1965": "▁polit",
    "1966": "▁rural",
    "1967": "▁religi",
    "1968": "▁river",
    "1969": "▁some",
    "1970": "▁sur",
    "1971": "▁served",
    "1972": "▁sty",
    "1973": "▁war",
    "1974": "▁who",
    "1975": "▁अनु",
    "1976": "▁हुआ",
    "1977": "▁हुई",
    "1978": "▁அடி",
    "1979": "▁ஆண்டுகள",
    "1980": "▁உள்ளன",
    "1981": "▁சே",
    "1982": "▁நிறுவ",
    "1983": "▁అత్యధిక",
    "1984": "▁ఆర్ధిక",
    "1985": "▁ఇండియా",
    "1986": "▁ఉత్తర",
    "1987": "▁కార",
    "1988": "▁కాలంలో",
    "1989": "▁గల",
    "1990": "▁చిన్న",
    "1991": "▁మహ",
    "1992": "▁రాజకీయ",
    "1993": "▁వే",
    "1994": "▁శాస్త్ర",
    "1995": "▁సిని",
    "1996": "200",
    "1997": "ances",
    "1998": "ants",
    "1999": "anu",
    "2000": "arn",
    "2001": "ata",
    "2002": "hes",
    "2003": "ived",
    "2004": "nolog",
    "2005": "odi",
    "2006": "ost",
    "2007": "omet",
    "2008": "ribut",
    "2009": "ड़ा",
    "2010": "म्",
    "2011": "सार",
    "2012": "ாப",
    "2013": "ேரரச",
    "2014": "ంగ్ల",
    "2015": "కాల",
    "2016": "క్రమ",
    "2017": "గి",
    "2018": "ణి",
    "2019": "దం",
    "2020": "పతి",
    "2021": "రిహ",
    "2022": "రిహద్ద",
    "2023": "లకు",
    "2024": "సు",
    "2025": "సియా",
    "2026": "ాట",
    "2027": "ాల్లో",
    "2028": "్మ",
    "2029": "▁en",
    "2030": "▁us",
    "2031": "▁16",
    "2032": "▁Sh",
    "2033": "▁col",
    "2034": "▁found",
    "2035": "▁out",
    "2036": "▁tech",
    "2037": "▁trans",
    "2038": "▁चु",
    "2039": "▁जाता",
    "2040": "▁ஆகியவை",
    "2041": "▁கிழ",
    "2042": "▁கூட்ட",
    "2043": "▁கோடி",
    "2044": "▁சி",
    "2045": "▁சு",
    "2046": "▁சமூக",
    "2047": "▁பண்ப",
    "2048": "▁மிகப்",
    "2049": "▁வடிவ",
    "2050": "▁வளர்ச்ச",
    "2051": "▁ఏర్ప",
    "2052": "▁దేశాల",
    "2053": "▁పర",
    "2054": "▁ప్రతి",
    "2055": "▁ప్రస్తుత",
    "2056": "▁ప్రాచ",
    "2057": "▁వా",
    "2058": "▁వె",
    "2059": "▁సరిహద్ద",
    "2060": "▁సంస్కృ",
    "2061": "▁సంగీ",
    "2062": "acy",
    "2063": "andhi",
    "2064": "ats",
    "2065": "day",
    "2066": "dle",
    "2067": "dust",
    "2068": "eat",
    "2069": "eh",
    "2070": "ehr",
    "2071": "ensus",
    "2072": "gl",
    "2073": "ines",
    "2074": "ocal",
    "2075": "ories",
    "2076": "str",
    "2077": "very",
    "2078": "कि",
    "2079": "मान",
    "2080": "में",
    "2081": "वि",
    "2082": "ाग",
    "2083": "ैन",
    "2084": "ोड़",
    "2085": "००",
    "2086": "துக",
    "2087": "த்திய",
    "2088": "த்திற்கு",
    "2089": "ப்புற",
    "2090": "ையானது",
    "2091": "ையின்",
    "2092": "డిప",
    "2093": "ధి",
    "2094": "మే",
    "2095": "ల్ప",
    "2096": "ించి",
    "2097": "▁ஜ",
    "2098": "▁2001",
    "2099": "▁50",
    "2100": "▁En",
    "2101": "▁Gandhi",
    "2102": "▁Isl",
    "2103": "▁Plate",
    "2104": "▁Sikh",
    "2105": "▁ac",
    "2106": "▁ass",
    "2107": "▁central",
    "2108": "▁coal",
    "2109": "▁control",
    "2110": "▁far",
    "2111": "▁great",
    "2112": "▁ne",
    "2113": "▁territ",
    "2114": "▁दिया",
    "2115": "▁दे",
    "2116": "▁शासन",
    "2117": "▁स्व",
    "2118": "▁அண",
    "2119": "▁இக்க",
    "2120": "▁கீ",
    "2121": "▁குறிப்பிட",
    "2122": "▁தொடங்க",
    "2123": "▁தொழில்",
    "2124": "▁பகுதிகள",
    "2125": "▁பயன்ப",
    "2126": "▁ఉప",
    "2127": "▁సిం",
    "2128": "35",
    "2129": "ccording",
    "2130": "elhi",
    "2131": "eral",
    "2132": "icial",
    "2133": "minist",
    "2134": "oin",
    "2135": "omen",
    "2136": "ons",
    "2137": "ultanate",
    "2138": "ven",
    "2139": "vid",
    "2140": "ving",
    "2141": "wor",
    "2142": "ध्य",
    "2143": "स्क",
    "2144": "हीं",
    "2145": "ारी",
    "2146": "யம",
    "2147": "ருக",
    "2148": "லாம்",
    "2149": "வையாக",
    "2150": "ாவது",
    "2151": "ின்றனர்",
    "2152": "ிலான",
    "2153": "்வ",
    "2154": "ఢిల్లీ",
    "2155": "తిక",
    "2156": "తంత్ర",
    "2157": "విధ",
    "2158": "▁ent",
    "2159": "▁used",
    "2160": "▁—",
    "2161": "▁Central",
    "2162": "▁Company",
    "2163": "▁Delhi",
    "2164": "▁Hinduism",
    "2165": "▁Indians",
    "2166": "▁Muslim",
    "2167": "▁agric",
    "2168": "▁areas",
    "2169": "▁cap",
    "2170": "▁culture",
    "2171": "▁coast",
    "2172": "▁cook",
    "2173": "▁dra",
    "2174": "▁dev",
    "2175": "▁emerged",
    "2176": "▁following",
    "2177": "▁growth",
    "2178": "▁high",
    "2179": "▁human",
    "2180": "▁include",
    "2181": "▁li",
    "2182": "▁leg",
    "2183": "▁made",
    "2184": "▁no",
    "2185": "▁occup",
    "2186": "▁political",
    "2187": "▁religious",
    "2188": "▁third",
    "2189": "▁time",
    "2190": "▁wide",
    "2191": "▁women",
    "2192": "▁उत्तर",
    "2193": "▁कु",
    "2194": "▁भू",
    "2195": "▁मान",
    "2196": "▁राज्यों",
    "2197": "▁सि",
    "2198": "▁அக",
    "2199": "▁அதன்",
    "2200": "▁இவை",
    "2201": "▁இதன்",
    "2202": "▁சட்ட",
    "2203": "▁பேரரச",
    "2204": "▁பெரும்பால",
    "2205": "▁பொருட",
    "2206": "▁மாநில",
    "2207": "▁దేశంలోని",
    "2208": "▁ప్రాంతాలు",
    "2209": "▁బ్రి",
    "2210": "▁భారత్",
    "2211": "▁వివిధ",
    "2212": "▁సౌక",
    "2213": "▁సామ",
    "2214": "are",
    "2215": "abl",
    "2216": "cy",
    "2217": "cess",
    "2218": "eration",
    "2219": "ess",
    "2220": "iz",
    "2221": "ific",
    "2222": "istic",
    "2223": "ists",
    "2224": "oms",
    "2225": "ulpt",
    "2226": "und",
    "2227": "vol",
    "2228": "west",
    "2229": "ंद्र",
    "2230": "नाव",
    "2231": "मुख",
    "2232": "यु",
    "2233": "रिक",
    "2234": "ष्",
    "2235": "ाने",
    "2236": "ाली",
    "2237": "ोल",
    "2238": "தற்கு",
    "2239": "ப்பட்டன",
    "2240": "ற்பட்ட",
    "2241": "வன",
    "2242": "வர்கள",
    "2243": "ாட்ச",
    "2244": "ாணுவ",
    "2245": "ானிய",
    "2246": "ைச்",
    "2247": "ంధ",
    "2248": "కాలు",
    "2249": "గలు",
    "2250": "జ్య",
    "2251": "డ్డ",
    "2252": "తా",
    "2253": "దార",
    "2254": "ద్ర",
    "2255": "దారులు",
    "2256": "ముఖ",
    "2257": "రం",
    "2258": "లను",
    "2259": "ల్వ",
    "2260": "సింది",
    "2261": "ివ",
    "2262": "ెంగ",
    "2263": "ెల",
    "2264": "▁her",
    "2265": "▁ई",
    "2266": "▁ड",
    "2267": "▁ர",
    "2268": "▁arch",
    "2269": "▁arm",
    "2270": "▁bi",
    "2271": "▁bir",
    "2272": "▁cult",
    "2273": "▁contribut",
    "2274": "▁diff",
    "2275": "▁direct",
    "2276": "▁marri",
    "2277": "▁orig",
    "2278": "▁sculpt",
    "2279": "▁अन्य",
    "2280": "▁उप",
    "2281": "▁थी",
    "2282": "▁पार",
    "2283": "▁प्रमुख",
    "2284": "▁बढ़",
    "2285": "▁यु",
    "2286": "▁लिए",
    "2287": "▁समय",
    "2288": "▁हिन्दी",
    "2289": "▁அளவ",
    "2290": "▁இராணுவ",
    "2291": "▁இருந்தது",
    "2292": "▁உண",
    "2293": "▁கல",
    "2294": "▁தொடக்க",
    "2295": "▁நடு",
    "2296": "▁பத",
    "2297": "▁பி",
    "2298": "▁பயன்படுத்த",
    "2299": "▁முக்கிய",
    "2300": "▁முன்ன",
    "2301": "▁ఆధ",
    "2302": "▁పత",
    "2303": "▁పా",
    "2304": "▁పూ",
    "2305": "▁పట్టణ",
    "2306": "▁ప్రముఖ",
    "2307": "▁బెంగ",
    "2308": "▁బహు",
    "2309": "▁మన",
    "2310": "▁మూడ",
    "2311": "▁మొదల",
    "2312": "▁రహ",
    "2313": "▁రాష్ట్రపతి",
    "2314": "▁రాష్ట్రాలు",
    "2315": "▁రెండు",
    "2316": "▁సమా",
    "2317": "JP",
    "2318": "au",
    "2319": "ades",
    "2320": "ainting",
    "2321": "alle",
    "2322": "ating",
    "2323": "ecially",
    "2324": "ehru",
    "2325": "emoc",
    "2326": "especially",
    "2327": "fore",
    "2328": "glish",
    "2329": "ib",
    "2330": "ix",
    "2331": "ined",
    "2332": "ites",
    "2333": "main",
    "2334": "ped",
    "2335": "reated",
    "2336": "tions",
    "2337": "ually",
    "2338": "uropean",
    "2339": "verse",
    "2340": "ँच",
    "2341": "ंड",
    "2342": "दान",
    "2343": "्म",
    "2344": "्री",
    "2345": "ப்படுத்த",
    "2346": "ர்க்க",
    "2347": "ற்று",
    "2348": "வர",
    "2349": "ంతో",
    "2350": "కొ",
    "2351": "నా",
    "2352": "ప్పటిక",
    "2353": "యో",
    "2354": "▁especially",
    "2355": "▁छ",
    "2356": "▁13",
    "2357": "▁185",
    "2358": "▁21",
    "2359": "▁2022",
    "2360": "▁40",
    "2361": "▁Constitution",
    "2362": "▁English",
    "2363": "▁Ganges",
    "2364": "▁Hindi",
    "2365": "▁Its",
    "2366": "▁Jain",
    "2367": "▁Nehru",
    "2368": "▁There",
    "2369": "▁United",
    "2370": "▁ago",
    "2371": "▁ancient",
    "2372": "▁census",
    "2373": "▁diversity",
    "2374": "▁early",
    "2375": "▁feat",
    "2376": "▁fed",
    "2377": "▁fig",
    "2378": "▁grew",
    "2379": "▁indust",
    "2380": "▁last",
    "2381": "▁local",
    "2382": "▁literacy",
    "2383": "▁majority",
    "2384": "▁mathemat",
    "2385": "▁painting",
    "2386": "▁prom",
    "2387": "▁parliamentary",
    "2388": "▁party",
    "2389": "▁rates",
    "2390": "▁remain",
    "2391": "▁regions",
    "2392": "▁religions",
    "2393": "▁righ",
    "2394": "▁second",
    "2395": "▁states",
    "2396": "▁they",
    "2397": "▁केंद्र",
    "2398": "▁बन",
    "2399": "▁मह",
    "2400": "▁रह",
    "2401": "▁அழ",
    "2402": "▁ஆத",
    "2403": "▁ஆன",
    "2404": "▁ஆகியவற்ற",
    "2405": "▁இடைய",
    "2406": "▁இற",
    "2407": "▁இதில்",
    "2408": "▁இந்து",
    "2409": "▁இருந்து",
    "2410": "▁உயிர",
    "2411": "▁கட்ச",
    "2412": "▁கிர",
    "2413": "▁நடத்த",
    "2414": "▁பின்",
    "2415": "▁புவ",
    "2416": "▁பெய",
    "2417": "▁வீத",
    "2418": "▁నడిప",
    "2419": "▁పో",
    "2420": "▁సింధ",
    "2421": "ani",
    "2422": "ank",
    "2423": "arat",
    "2424": "ced",
    "2425": "de",
    "2426": "ders",
    "2427": "ety",
    "2428": "ight",
    "2429": "ings",
    "2430": "ively",
    "2431": "mar",
    "2432": "ministr",
    "2433": "ract",
    "2434": "rop",
    "2435": "ual",
    "2436": "ue",
    "2437": "चीन",
    "2438": "जी",
    "2439": "टे",
    "2440": "शिया",
    "2441": "श्च",
    "2442": "ारा",
    "2443": "िस्त",
    "2444": "िस्तान",
    "2445": "ीप",
    "2446": "த்தைக்",
    "2447": "வீன",
    "2448": "ித்",
    "2449": "ிந்திய",
    "2450": "ுகளை",
    "2451": "ுக்குப்",
    "2452": "்ய",
    "2453": "నుక",
    "2454": "ర్వహ",
    "2455": "ళం",
    "2456": "షు",
    "2457": "ాతంత్ర",
    "2458": "▁14",
    "2459": "▁1951",
    "2460": "▁Government",
    "2461": "▁car",
    "2462": "▁decl",
    "2463": "▁inter",
    "2464": "▁sm",
    "2465": "▁stat",
    "2466": "▁करने",
    "2467": "▁द्व",
    "2468": "▁देशों",
    "2469": "▁पाक",
    "2470": "▁बना",
    "2471": "▁मिल",
    "2472": "▁रहा",
    "2473": "▁संघ",
    "2474": "▁அனை",
    "2475": "▁அரசாங்க",
    "2476": "▁இந்தியப்",
    "2477": "▁உடைய",
    "2478": "▁என்ப",
    "2479": "▁ஓர்",
    "2480": "▁கண்ட",
    "2481": "▁போன்ற",
    "2482": "▁வக",
    "2483": "▁வங்க",
    "2484": "▁விர",
    "2485": "▁ఒకటి",
    "2486": "▁కోర్",
    "2487": "▁చైన",
    "2488": "▁నిర్వహ",
    "2489": "▁పండు",
    "2490": "▁ప్రపంచంలో",
    "2491": "▁భూ",
    "2492": "▁వల",
    "2493": "▁సార",
    "2494": "▁సౌకర్య",
    "2495": "▁స్వాతంత్ర",
    "2496": "DP",
    "2497": "alth",
    "2498": "alled",
    "2499": "aman",
    "2500": "amm",
    "2501": "ana",
    "2502": "bal",
    "2503": "cent",
    "2504": "daman",
    "2505": "dian",
    "2506": "ecut",
    "2507": "enins",
    "2508": "ert",
    "2509": "etic",
    "2510": "ft",
    "2511": "ificant",
    "2512": "ingd",
    "2513": "ished",
    "2514": "leg",
    "2515": "ned",
    "2516": "ook",
    "2517": "ody",
    "2518": "orted",
    "2519": "osed",
    "2520": "ould",
    "2521": "oup",
    "2522": "outheast",
    "2523": "quent",
    "2524": "sequent",
    "2525": "ternal",
    "2526": "urther",
    "2527": "wn",
    "2528": "काल",
    "2529": "ड़ी",
    "2530": "द्य",
    "2531": "ब्",
    "2532": "वं",
    "2533": "श्चिम",
    "2534": "सी",
    "2535": "हर",
    "2536": "िये",
    "2537": "ोक",
    "2538": "्यव",
    "2539": "ங்களின்",
    "2540": "ணிக",
    "2541": "ப்பின",
    "2542": "மயம",
    "2543": "லில்",
    "2544": "ழு",
    "2545": "ாட்சி",
    "2546": "ிச",
    "2547": "ியின்",
    "2548": "ீக",
    "2549": "ுகளின்",
    "2550": "ுட்ப",
    "2551": "ெடு",
    "2552": "ைகள்",
    "2553": "కారం",
    "2554": "టం",
    "2555": "ట్లు",
    "2556": "తాబ్",
    "2557": "తాబ్దం",
    "2558": "త్తం",
    "2559": "థిక",
    "2560": "నీ",
    "2561": "మంత్ర",
    "2562": "మ్య",
    "2563": "ముద్ర",
    "2564": "రణం",
    "2565": "రిత్ర",
    "2566": "ల్వే",
    "2567": "ళ్ల",
    "2568": "వడ",
    "2569": "వు",
    "2570": "స్య",
    "2571": "స్వా",
    "2572": "ాన్ని",
    "2573": "ాతావ",
    "2574": "ాతావరణం",
    "2575": "ాబిత",
    "2576": "ాబితా",
    "2577": "▁roc",
    "2578": "▁ख",
    "2579": "▁या",
    "2580": "▁ఐ",
    "2581": "▁ఖ",
    "2582": "▁గా",
    "2583": "▁1962",
    "2584": "▁55",
    "2585": "▁Act",
    "2586": "▁Ar",
    "2587": "▁Andaman",
    "2588": "▁Pers",
    "2589": "▁Pro",
    "2590": "▁commer",
    "2591": "▁contin",
    "2592": "▁earli",
    "2593": "▁endem",
    "2594": "▁execut",
    "2595": "▁ind",
    "2596": "▁low",
    "2597": "▁lower",
    "2598": "▁national",
    "2599": "▁origin",
    "2600": "▁penins",
    "2601": "▁popular",
    "2602": "▁sever",
    "2603": "▁technolog",
    "2604": "▁अम",
    "2605": "▁अनुसार",
    "2606": "▁इसके",
    "2607": "▁कई",
    "2608": "▁कारण",
    "2609": "▁दश",
    "2610": "▁नहीं",
    "2611": "▁पाकिस्तान",
    "2612": "▁बी",
    "2613": "▁लग",
    "2614": "▁संस्क",
    "2615": "▁हुए",
    "2616": "▁होता",
    "2617": "▁ஆயுத",
    "2618": "▁தீ",
    "2619": "▁பாதுக",
    "2620": "▁மக்கள",
    "2621": "▁வணிக",
    "2622": "▁வாழ்",
    "2623": "▁అభ",
    "2624": "▁అధికారిక",
    "2625": "▁అనేక",
    "2626": "▁ఉంటాయి",
    "2627": "▁ఎక్కువగా",
    "2628": "▁కాంగ్రెసు",
    "2629": "▁కూడిన",
    "2630": "▁చరిత్ర",
    "2631": "▁జాబితా",
    "2632": "▁జరిగిన",
    "2633": "▁తన",
    "2634": "▁తమి",
    "2635": "▁నగర",
    "2636": "▁నే",
    "2637": "▁నుండి",
    "2638": "▁పద్ధ",
    "2639": "▁పరిశ",
    "2640": "▁పేర్",
    "2641": "▁ప్రధానమంత్ర",
    "2642": "▁ప్రస్తుతం",
    "2643": "▁ప్రాచీన",
    "2644": "▁భారతదేశానికి",
    "2645": "▁మొత్తం",
    "2646": "▁మొదటి",
    "2647": "▁రో",
    "2648": "▁రహదారులు",
    "2649": "▁రైల్వే",
    "2650": "▁వాతావరణం",
    "2651": "▁వెబ",
    "2652": "▁శతాబ్దం",
    "2653": "▁సమ",
    "2654": "▁సర్వ",
    "2655": "▁సు",
    "2656": "▁సంఖ్య",
    "2657": "alley",
    "2658": "ards",
    "2659": "educ",
    "2660": "education",
    "2661": "mb",
    "2662": "min",
    "2663": "outher",
    "2664": "outhern",
    "2665": "ज़",
    "2666": "तंत्र",
    "2667": "ணி",
    "2668": "தாகும்",
    "2669": "பு",
    "2670": "ப்படுகின்றன",
    "2671": "ரோ",
    "2672": "வல",
    "2673": "வான",
    "2674": "ாற்ற",
    "2675": "ிர்",
    "2676": "ித்தானிய",
    "2677": "ியானது",
    "2678": "ிலும்",
    "2679": "ంక",
    "2680": "కి",
    "2681": "చే",
    "2682": "టీ",
    "2683": "దర",
    "2684": "ర్ష",
    "2685": "లతో",
    "2686": "వచ్చ",
    "2687": "వత్",
    "2688": "వే",
    "2689": "ాలకు",
    "2690": "ాలతో",
    "2691": "ించే",
    "2692": "ీర్ణ",
    "2693": "ూప",
    "2694": "్యా",
    "2695": "▁education",
    "2696": "▁z",
    "2697": "▁1971",
    "2698": "▁2023",
    "2699": "▁According",
    "2700": "▁Among",
    "2701": "▁BJP",
    "2702": "▁Buddhism",
    "2703": "▁During",
    "2704": "▁Himalayas",
    "2705": "▁National",
    "2706": "▁States",
    "2707": "▁Tamil",
    "2708": "▁These",
    "2709": "▁Western",
    "2710": "▁air",
    "2711": "▁based",
    "2712": "▁become",
    "2713": "▁cities",
    "2714": "▁created",
    "2715": "▁common",
    "2716": "▁def",
    "2717": "▁dist",
    "2718": "▁eastern",
    "2719": "▁elections",
    "2720": "▁fl",
    "2721": "▁federal",
    "2722": "▁forms",
    "2723": "▁histor",
    "2724": "▁longer",
    "2725": "▁market",
    "2726": "▁movement",
    "2727": "▁ob",
    "2728": "▁often",
    "2729": "▁pres",
    "2730": "▁regional",
    "2731": "▁republic",
    "2732": "▁southern",
    "2733": "▁sultanate",
    "2734": "▁styles",
    "2735": "▁union",
    "2736": "▁well",
    "2737": "▁won",
    "2738": "▁whose",
    "2739": "▁widely",
    "2740": "▁अंग्रे",
    "2741": "▁आध",
    "2742": "▁एशिया",
    "2743": "▁चुनाव",
    "2744": "▁जी",
    "2745": "▁निर्म",
    "2746": "▁पह",
    "2747": "▁मध्य",
    "2748": "▁मै",
    "2749": "▁विक",
    "2750": "▁ஆட்ச",
    "2751": "▁ஆற்ற",
    "2752": "▁ஆனால்",
    "2753": "▁உற",
    "2754": "▁உற்ப",
    "2755": "▁கண",
    "2756": "▁கலை",
    "2757": "▁குழ",
    "2758": "▁சிற",
    "2759": "▁செய்ய",
    "2760": "▁பங்க",
    "2761": "▁பிரித்தானிய",
    "2762": "▁பெரும்பாலான",
    "2763": "▁போட்ட",
    "2764": "▁மீ",
    "2765": "▁முக",
    "2766": "▁முறைய",
    "2767": "▁மேற்கு",
    "2768": "▁விளைய",
    "2769": "▁అను",
    "2770": "▁చి",
    "2771": "▁చేయ",
    "2772": "▁యు",
    "2773": "▁విశ",
    "2774": "01",
    "2775": "17",
    "2776": "ah",
    "2777": "ax",
    "2778": "ale",
    "2779": "ality",
    "2780": "anted",
    "2781": "ays",
    "2782": "can",
    "2783": "cial",
    "2784": "cho",
    "2785": "chool",
    "2786": "ded",
    "2787": "eak",
    "2788": "eograph",
    "2789": "ences",
    "2790": "ices",
    "2791": "ility",
    "2792": "ingly",
    "2793": "ising",
    "2794": "isl",
    "2795": "iss",
    "2796": "lief",
    "2797": "loy",
    "2798": "mary",
    "2799": "oci",
    "2800": "oss",
    "2801": "rahm",
    "2802": "redi",
    "2803": "ros",
    "2804": "ross",
    "2805": "sc",
    "2806": "urren",
    "2807": "utes",
    "2808": "val",
    "2809": "work",
    "2810": "yan",
    "2811": "ंत्री",
    "2812": "क्षा",
    "2813": "टि",
    "2814": "तिक",
    "2815": "नों",
    "2816": "न्ह",
    "2817": "पा",
    "2818": "राज्य",
    "2819": "र्ण",
    "2820": "विधान",
    "2821": "स्था",
    "2822": "ाण",
    "2823": "िव",
    "2824": "ियाँ",
    "2825": "्राज्य",
    "2826": "ட்டு",
    "2827": "த்தக்க",
    "2828": "நாட்டு",
    "2829": "மு",
    "2830": "ர்த்த",
    "2831": "றுப",
    "2832": "லிய",
    "2833": "ாடு",
    "2834": "ாண்",
    "2835": "ாய்",
    "2836": "ில்லை",
    "2837": "ுகிறது",
    "2838": "ுதிய",
    "2839": "శ్చ",
    "2840": "శ్చిమ",
    "2841": "▁ऊ",
    "2842": "▁2013",
    "2843": "▁30",
    "2844": "▁Ara",
    "2845": "▁Bhar",
    "2846": "▁Bi",
    "2847": "▁Brahm",
    "2848": "▁aff",
    "2849": "▁administr",
    "2850": "▁bl",
    "2851": "▁caus",
    "2852": "▁char",
    "2853": "▁comple",
    "2854": "▁consid",
    "2855": "▁differ",
    "2856": "▁eth",
    "2857": "▁employ",
    "2858": "▁fast",
    "2859": "▁gen",
    "2860": "▁legisl",
    "2861": "▁liber",
    "2862": "▁prot",
    "2863": "▁ren",
    "2864": "▁resp",
    "2865": "▁sa",
    "2866": "▁soci",
    "2867": "▁str",
    "2868": "▁surv",
    "2869": "▁temp",
    "2870": "▁tex",
    "2871": "▁vari",
    "2872": "▁win",
    "2873": "▁करोड़",
    "2874": "▁जल",
    "2875": "▁दशक",
    "2876": "▁देख",
    "2877": "▁न्या",
    "2878": "▁प्रति",
    "2879": "▁प्राचीन",
    "2880": "▁भाषाओं",
    "2881": "▁भूम",
    "2882": "▁मु",
    "2883": "▁लोक",
    "2884": "▁सैन",
    "2885": "▁साम्राज्य",
    "2886": "▁सेना",
    "2887": "▁हाल",
    "2888": "▁ही",
    "2889": "▁அவை",
    "2890": "▁அடிப்பட",
    "2891": "▁இணை",
    "2892": "▁இக்கால",
    "2893": "▁இவ்வ",
    "2894": "▁உட",
    "2895": "▁உள்",
    "2896": "▁ஐஅ",
    "2897": "▁ஒப்ப",
    "2898": "▁காண",
    "2899": "▁கீழ்",
    "2900": "▁குடியரச",
    "2901": "▁சந்த",
    "2902": "▁சோ",
    "2903": "▁தேர",
    "2904": "▁தொலை",
    "2905": "▁தொடர்ந்து",
    "2906": "▁நேர",
    "2907": "▁பிறகு",
    "2908": "▁பெரு",
    "2909": "▁மத",
    "2910": "▁மாற்ற",
    "2911": "▁மொத்த",
    "2912": "▁மொழிகள",
    "2913": "▁வேறுப",
    "2914": "▁చెంద",
    "2915": "▁పశ్చిమ",
    "2916": "▁బ్రిటి",
    "2917": "▁రాజ్యాలు",
    "2918": "10",
    "2919": "26",
    "2920": "91",
    "2921": "ales",
    "2922": "amilies",
    "2923": "angered",
    "2924": "anuary",
    "2925": "ashm",
    "2926": "ather",
    "2927": "ature",
    "2928": "bar",
    "2929": "bers",
    "2930": "dra",
    "2931": "ea",
    "2932": "ember",
    "2933": "enced",
    "2934": "ency",
    "2935": "epend",
    "2936": "gen",
    "2937": "ingdoms",
    "2938": "nown",
    "2939": "ortant",
    "2940": "ouse",
    "2941": "tle",
    "2942": "though",
    "2943": "ंप",
    "2944": "ंग्रेस",
    "2945": "ख्या",
    "2946": "त्य",
    "2947": "न्न",
    "2948": "माण",
    "2949": "योग",
    "2950": "रब",
    "2951": "र्ष",
    "2952": "शास",
    "2953": "सं",
    "2954": "सद",
    "2955": "्यवस्था",
    "2956": "ங்கிர",
    "2957": "டைந்த",
    "2958": "த்திர",
    "2959": "ந்",
    "2960": "ப்படு",
    "2961": "ராக",
    "2962": "ல்கள",
    "2963": "வது",
    "2964": "ஸ்",
    "2965": "ாட்டின்",
    "2966": "ாலும்",
    "2967": "ிகளை",
    "2968": "ுகளில்",
    "2969": "ேற்ற",
    "2970": "ையை",
    "2971": "ంప",
    "2972": "ంగం",
    "2973": "ంచి",
    "2974": "ంటారు",
    "2975": "ంటే",
    "2976": "క్షరా",
    "2977": "క్షరాస్య",
    "2978": "క్షరాస్యత",
    "2979": "గంగా",
    "2980": "గో",
    "2981": "టిలో",
    "2982": "టుంబ",
    "2983": "డే",
    "2984": "డ్డు",
    "2985": "ణంగా",
    "2986": "ణాసియా",
    "2987": "త్రక",
    "2988": "దా",
    "2989": "ద్య",
    "2990": "దినాలు",
    "2991": "పూ",
    "2992": "పాలిత",
    "2993": "భారత",
    "2994": "మాలు",
    "2995": "మె",
    "2996": "మ్మ",
    "2997": "ములో",
    "2998": "యాలు",
    "2999": "రాలు",
    "3000": "ర్జ",
    "3001": "ర్తి",
    "3002": "ల్లో",
    "3003": "ళ్లను",
    "3004": "విస్త",
    "3005": "సై",
    "3006": "స్థాన్",
    "3007": "స్వామ్య",
    "3008": "ాద్",
    "3009": "ాస్వామ్య",
    "3010": "ాత్రం",
    "3011": "ాబాద్",
    "3012": "ాలీ",
    "3013": "ిస్థాన్",
    "3014": "ికత",
    "3015": "ివృ",
    "3016": "ివృద్ధి",
    "3017": "ిస్తాన్",
    "3018": "ీలు",
    "3019": "ుకోవడ",
    "3020": "ుతున్న",
    "3021": "ూచ",
    "3022": "ైగా",
    "3023": "ోర",
    "3024": "్యులు",
    "3025": "▁-",
    "3026": "▁ओ",
    "3027": "▁ஈ",
    "3028": "▁ఢిల్లీ",
    "3029": "▁25",
    "3030": "▁36",
    "3031": "▁Af",
    "3032": "▁At",
    "3033": "▁Although",
    "3034": "▁Buddhist",
    "3035": "▁De",
    "3036": "▁GDP",
    "3037": "▁Islam",
    "3038": "▁January",
    "3039": "▁Jainism",
    "3040": "▁Kashm",
    "3041": "▁Persian",
    "3042": "▁Raj",
    "3043": "▁Southeast",
    "3044": "▁This",
    "3045": "▁Union",
    "3046": "▁along",
    "3047": "▁ann",
    "3048": "▁around",
    "3049": "▁birth",
    "3050": "▁civil",
    "3051": "▁changes",
    "3052": "▁coalition",
    "3053": "▁conduc",
    "3054": "▁court",
    "3055": "▁courts",
    "3056": "▁dances",
    "3057": "▁domin",
    "3058": "▁developed",
    "3059": "▁empire",
    "3060": "▁every",
    "3061": "▁earliest",
    "3062": "▁endangered",
    "3063": "▁establ",
    "3064": "▁estim",
    "3065": "▁executive",
    "3066": "▁families",
    "3067": "▁five",
    "3068": "▁four",
    "3069": "▁further",
    "3070": "▁figures",
    "3071": "▁formed",
    "3072": "▁gar",
    "3073": "▁glo",
    "3074": "▁group",
    "3075": "▁however",
    "3076": "▁held",
    "3077": "▁indi",
    "3078": "▁independ",
    "3079": "▁industry",
    "3080": "▁influenced",
    "3081": "▁kingdoms",
    "3082": "▁left",
    "3083": "▁leading",
    "3084": "▁mak",
    "3085": "▁men",
    "3086": "▁middle",
    "3087": "▁now",
    "3088": "▁old",
    "3089": "▁official",
    "3090": "▁peninsular",
    "3091": "▁plain",
    "3092": "▁polic",
    "3093": "▁rise",
    "3094": "▁record",
    "3095": "▁rock",
    "3096": "▁sing",
    "3097": "▁sup",
    "3098": "▁sculpture",
    "3099": "▁significant",
    "3100": "▁spread",
    "3101": "▁subsequent",
    "3102": "▁technology",
    "3103": "▁term",
    "3104": "▁territories",
    "3105": "▁three",
    "3106": "▁thought",
    "3107": "▁times",
    "3108": "▁traditional",
    "3109": "▁traditions",
    "3110": "▁until",
    "3111": "▁vast",
    "3112": "▁vill",
    "3113": "▁west",
    "3114": "▁worn",
    "3115": "▁गण",
    "3116": "▁गु",
    "3117": "▁चुनावों",
    "3118": "▁द्वारा",
    "3119": "▁नेत",
    "3120": "▁पश्चिम",
    "3121": "▁पु",
    "3122": "▁पार्ट",
    "3123": "▁प्रदेश",
    "3124": "▁प्रधान",
    "3125": "▁बा",
    "3126": "▁बीच",
    "3127": "▁मैदान",
    "3128": "▁सक",
    "3129": "▁संबंध",
    "3130": "▁संविधान",
    "3131": "▁स्वतंत्र",
    "3132": "▁அதிகரித்து",
    "3133": "▁அனைத்து",
    "3134": "▁அரசியல்",
    "3135": "▁இடையில்",
    "3136": "▁உள்ளட",
    "3137": "▁கரு",
    "3138": "▁காங்கிர",
    "3139": "▁திரு",
    "3140": "▁தெற்க",
    "3141": "▁தேசிய",
    "3142": "▁தேர்த",
    "3143": "▁நிறுவன",
    "3144": "▁பூ",
    "3145": "▁பிரத",
    "3146": "▁பொதுவாக",
    "3147": "▁மூன்ற",
    "3148": "▁வருக",
    "3149": "▁வங்காள",
    "3150": "▁வெற்ற",
    "3151": "▁வெள",
    "3152": "▁வேக",
    "3153": "▁అని",
    "3154": "▁అభివృద్ధి",
    "3155": "▁ఆధార",
    "3156": "▁ఆర్థిక",
    "3157": "▁ఉన్నారు",
    "3158": "▁క్య",
    "3159": "▁కలిగి",
    "3160": "▁కార్య",
    "3161": "▁కుటుంబ",
    "3162": "▁కేంద్రపాలిత",
    "3163": "▁కొన్ని",
    "3164": "▁చెందిన",
    "3165": "▁దక్షిణాన",
    "3166": "▁దేశాలలో",
    "3167": "▁నా",
    "3168": "▁పాత్ర",
    "3169": "▁పైగా",
    "3170": "▁పొ",
    "3171": "▁పరిశ్రమ",
    "3172": "▁పాక్",
    "3173": "▁పాకిస్తాన్",
    "3174": "▁పాకిస్థాన్",
    "3175": "▁ప్రకారం",
    "3176": "▁ప్రధానమంత్రి",
    "3177": "▁ప్రభుత్వం",
    "3178": "▁బెంగాలీ",
    "3179": "▁భారతదేశపు",
    "3180": "▁భారతదేశంలోని",
    "3181": "▁భాషలు",
    "3182": "▁మాత్రం",
    "3183": "▁ముంబ",
    "3184": "▁మూడు",
    "3185": "▁రకాల",
    "3186": "▁రాష్ట్రాల",
    "3187": "▁రోడ్డు",
    "3188": "▁లే",
    "3189": "▁లోక్",
    "3190": "▁వంటి",
    "3191": "▁వచ్చిన",
    "3192": "▁విభ",
    "3193": "▁శాస్త్రం",
    "3194": "▁సంప్రదాయ",
    "3195": "▁సంగీతం",
    "3196": "▁సంస్కృతి",
    "3197": "▁సరిహద్దు",
    "3198": "▁సర్వీ",
    "3199": "▁సాంప్రదాయ",
    "3200": "▁సామ్రా",
    "3201": "▁సినిమా",
    "3202": "▁స్వతంత్ర",
    "3203": "24",
    "3204": "80",
    "3205": "ali",
    "3206": "aries",
    "3207": "ash",
    "3208": "back",
    "3209": "div",
    "3210": "erv",
    "3211": "ett",
    "3212": "has",
    "3213": "here",
    "3214": "ining",
    "3215": "mitt",
    "3216": "old",
    "3217": "olid",
    "3218": "ti",
    "3219": "ture",
    "3220": "ured",
    "3221": "uted",
    "3222": "yp",
    "3223": "ंगा",
    "3224": "क्ति",
    "3225": "च्च",
    "3226": "टी",
    "3227": "ण्",
    "3228": "द्योग",
    "3229": "धिकार",
    "3230": "पू",
    "3231": "बर",
    "3232": "मंत्री",
    "3233": "माल",
    "3234": "र्थिक",
    "3235": "ाय",
    "3236": "ृष",
    "3237": "ॉंग्रेस",
    "3238": "्यों",
    "3239": "டித்த",
    "3240": "த்தால்",
    "3241": "த்தி",
    "3242": "ப்பட்டுள்ளது",
    "3243": "றுப்பின",
    "3244": "ற்போ",
    "3245": "லாய",
    "3246": "ளவு",
    "3247": "வாகும்",
    "3248": "வெ",
    "3249": "வையாகும்",
    "3250": "ாச",
    "3251": "ாப்பு",
    "3252": "ாப்த",
    "3253": "ாளும",
    "3254": "ாளுமன்ற",
    "3255": "ாவின்",
    "3256": "ாவில்",
    "3257": "ியல",
    "3258": "ீட்ட",
    "3259": "ீர",
    "3260": "ுகளும்",
    "3261": "ைக்க",
    "3262": "ோர்",
    "3263": "ఖండ",
    "3264": "జి",
    "3265": "ట్ల",
    "3266": "తులు",
    "3267": "నిస్త",
    "3268": "న్మ",
    "3269": "న్నాయి",
    "3270": "ప్పటికీ",
    "3271": "ఫ్",
    "3272": "మన",
    "3273": "మై",
    "3274": "మైనది",
    "3275": "రత",
    "3276": "రీ",
    "3277": "ర్గ",
    "3278": "లే",
    "3279": "వత్స",
    "3280": "సత్వ",
    "3281": "హార",
    "3282": "ాఖ",
    "3283": "ాయక",
    "3284": "ారసత్వ",
    "3285": "ిక్",
    "3286": "ీప",
    "3287": "ెట్",
    "3288": "ెహ",
    "3289": "్యాయ",
    "3290": "▁0",
    "3291": "▁qu",
    "3292": "▁ve",
    "3293": "▁ఘ",
    "3294": "▁ఫ",
    "3295": "▁1200",
    "3296": "▁1980",
    "3297": "▁2008",
    "3298": "▁2010",
    "3299": "▁2024",
    "3300": "▁Des",
    "3301": "▁Fore",
    "3302": "▁Mah",
    "3303": "▁acc",
    "3304": "▁can",
    "3305": "▁consolid",
    "3306": "▁der",
    "3307": "▁equ",
    "3308": "▁mon",
    "3309": "▁prov",
    "3310": "▁अभ",
    "3311": "▁आर्थिक",
    "3312": "▁उन",
    "3313": "▁क्र",
    "3314": "▁कार्य",
    "3315": "▁जनजा",
    "3316": "▁जाती",
    "3317": "▁निर्माण",
    "3318": "▁नेतृत",
    "3319": "▁ब्र",
    "3320": "▁बहुत",
    "3321": "▁मा",
    "3322": "▁मुख",
    "3323": "▁राष्ट्रीय",
    "3324": "▁विस्त",
    "3325": "▁शुर",
    "3326": "▁सैन्य",
    "3327": "▁स्था",
    "3328": "▁स्थित",
    "3329": "▁அட",
    "3330": "▁இந்தியத்",
    "3331": "▁உறுப்பின",
    "3332": "▁உருவானது",
    "3333": "▁உள்நாட்டு",
    "3334": "▁ஓவிய",
    "3335": "▁காட்ட",
    "3336": "▁கிழக்க",
    "3337": "▁கூட",
    "3338": "▁கொண்டிருந்தது",
    "3339": "▁சொ",
    "3340": "▁செல",
    "3341": "▁துறைய",
    "3342": "▁தோன்ற",
    "3343": "▁நுட்ப",
    "3344": "▁நகர",
    "3345": "▁பரி",
    "3346": "▁பல்வ",
    "3347": "▁பரவல",
    "3348": "▁மன",
    "3349": "▁முகலாய",
    "3350": "▁முதன்",
    "3351": "▁ரீத",
    "3352": "▁வரலா",
    "3353": "▁வரை",
    "3354": "▁வளர்ச்சி",
    "3355": "▁வழி",
    "3356": "▁வேள",
    "3357": "▁అవ",
    "3358": "▁ఆక్రమ",
    "3359": "▁ఆఫ్",
    "3360": "▁ఇవ",
    "3361": "▁గు",
    "3362": "▁గో",
    "3363": "▁ద్వీప",
    "3364": "▁న్యాయ",
    "3365": "▁నడిపించ",
    "3366": "▁పుట్ట",
    "3367": "▁మే",
    "3368": "▁లక్ష",
    "3369": "▁వహ",
    "3370": "▁వారసత్వ",
    "3371": "▁వై",
    "3372": "▁విస్త",
    "3373": "▁సంక",
    "3374": "▁సంఘ",
    "3375": "▁సంవత్స",
    "3376": "14",
    "3377": "In",
    "3378": "ail",
    "3379": "aist",
    "3380": "ability",
    "3381": "ably",
    "3382": "ained",
    "3383": "ara",
    "3384": "aving",
    "3385": "bian",
    "3386": "dis",
    "3387": "dually",
    "3388": "ee",
    "3389": "ely",
    "3390": "equ",
    "3391": "erc",
    "3392": "erial",
    "3393": "ering",
    "3394": "ets",
    "3395": "ga",
    "3396": "gu",
    "3397": "gy",
    "3398": "hedul",
    "3399": "ico",
    "3400": "ified",
    "3401": "igr",
    "3402": "ildli",
    "3403": "ildlife",
    "3404": "inc",
    "3405": "itect",
    "3406": "iving",
    "3407": "line",
    "3408": "lied",
    "3409": "miss",
    "3410": "otion",
    "3411": "ones",
    "3412": "operation",
    "3413": "orn",
    "3414": "orter",
    "3415": "ortion",
    "3416": "ouch",
    "3417": "oul",
    "3418": "ously",
    "3419": "rial",
    "3420": "ropical",
    "3421": "touch",
    "3422": "ternational",
    "3423": "ues",
    "3424": "uj",
    "3425": "ulti",
    "3426": "upta",
    "3427": "vention",
    "3428": "vided",
    "3429": "णा",
    "3430": "तर",
    "3431": "त्",
    "3432": "न्द्र",
    "3433": "प्र",
    "3434": "माणु",
    "3435": "रो",
    "3436": "वाद",
    "3437": "ाँ",
    "3438": "ील",
    "3439": "ून",
    "3440": "ेष",
    "3441": "ोष",
    "3442": "ஆக",
    "3443": "ங்கு",
    "3444": "ங்களாக",
    "3445": "ண்கள",
    "3446": "த்தியில்",
    "3447": "த்துவ",
    "3448": "பல",
    "3449": "ரின்",
    "3450": "ர்ப",
    "3451": "றி",
    "3452": "ல்ப",
    "3453": "ள்க",
    "3454": "ுகளானவை",
    "3455": "ுக்கும்",
    "3456": "ுமே",
    "3457": "ும்ப",
    "3458": "ைவ",
    "3459": "ையான",
    "3460": "ொரு",
    "3461": "▁Y",
    "3462": "▁ட",
    "3463": "▁1977",
    "3464": "▁1998",
    "3465": "▁28",
    "3466": "▁29",
    "3467": "▁2014",
    "3468": "▁2018",
    "3469": "▁2026",
    "3470": "▁300",
    "3471": "▁400",
    "3472": "▁70",
    "3473": "▁Ass",
    "3474": "▁Bharat",
    "3475": "▁Civil",
    "3476": "▁Constit",
    "3477": "▁Dec",
    "3478": "▁Gree",
    "3479": "▁Guj",
    "3480": "▁Maur",
    "3481": "▁West",
    "3482": "▁architect",
    "3483": "▁body",
    "3484": "▁che",
    "3485": "▁curren",
    "3486": "▁capit",
    "3487": "▁commercial",
    "3488": "▁crust",
    "3489": "▁different",
    "3490": "▁exc",
    "3491": "▁exch",
    "3492": "▁extens",
    "3493": "▁fam",
    "3494": "▁head",
    "3495": "▁intro",
    "3496": "▁lay",
    "3497": "▁lo",
    "3498": "▁man",
    "3499": "▁nat",
    "3500": "▁near",
    "3501": "▁pr",
    "3502": "▁pract",
    "3503": "▁partition",
    "3504": "▁plate",
    "3505": "▁poll",
    "3506": "▁process",
    "3507": "▁produc",
    "3508": "▁ret",
    "3509": "▁renew",
    "3510": "▁school",
    "3511": "▁so",
    "3512": "▁sum",
    "3513": "▁scri",
    "3514": "▁serv",
    "3515": "▁show",
    "3516": "▁small",
    "3517": "▁tax",
    "3518": "▁trib",
    "3519": "▁tur",
    "3520": "▁waist",
    "3521": "▁wear",
    "3522": "▁writ",
    "3523": "▁अल",
    "3524": "▁अव",
    "3525": "▁कम",
    "3526": "▁कॉंग्रेस",
    "3527": "▁गणराज्य",
    "3528": "▁जनजाति",
    "3529": "▁न्याया",
    "3530": "▁पर्व",
    "3531": "▁परमाणु",
    "3532": "▁प्राप्त",
    "3533": "▁मुख्य",
    "3534": "▁सद",
    "3535": "▁सह",
    "3536": "▁संग",
    "3537": "▁स्थान",
    "3538": "▁அவ",
    "3539": "▁அணு",
    "3540": "▁அறிய",
    "3541": "▁இரண்டு",
    "3542": "▁இலக்கிய",
    "3543": "▁உயர்",
    "3544": "▁எண்ணிக்க",
    "3545": "▁கல்",
    "3546": "▁கட்டு",
    "3547": "▁கிராம",
    "3548": "▁குறிப்பிடத்தக்க",
    "3549": "▁சில",
    "3550": "▁சேர்ந்த",
    "3551": "▁தாக்க",
    "3552": "▁தனி",
    "3553": "▁நவீன",
    "3554": "▁நகர்",
    "3555": "▁நிலை",
    "3556": "▁பஞ்ச",
    "3557": "▁புதிய",
    "3558": "▁பே",
    "3559": "▁பௌ",
    "3560": "▁பகுதிய",
    "3561": "▁பெரும்பான்",
    "3562": "▁மதிப்ப",
    "3563": "▁முக்கியமான",
    "3564": "▁மேற்க",
    "3565": "▁வகு",
    "3566": "▁வென்ற",
    "3567": "13",
    "3568": "31",
    "3569": "46",
    "3570": "BN",
    "3571": "SBN",
    "3572": "acted",
    "3573": "aceut",
    "3574": "aceutical",
    "3575": "actb",
    "3576": "actbook",
    "3577": "aksh",
    "3578": "amental",
    "3579": "astri",
    "3580": "cast",
    "3581": "dia",
    "3582": "dram",
    "3583": "dramas",
    "3584": "eb",
    "3585": "ey",
    "3586": "elf",
    "3587": "emocr",
    "3588": "emocratic",
    "3589": "era",
    "3590": "genous",
    "3591": "hats",
    "3592": "harm",
    "3593": "harmaceutical",
    "3594": "ile",
    "3595": "imately",
    "3596": "ime",
    "3597": "ingh",
    "3598": "liance",
    "3599": "ots",
    "3600": "odiversity",
    "3601": "ole",
    "3602": "olence",
    "3603": "ommon",
    "3604": "ravi",
    "3605": "ravidian",
    "3606": "reme",
    "3607": "rica",
    "3608": "rox",
    "3609": "roximately",
    "3610": "ued",
    "3611": "ulting",
    "3612": "ultural",
    "3613": "undamental",
    "3614": "upper",
    "3615": "ण्ड",
    "3616": "ताब्",
    "3617": "ताब्दी",
    "3618": "द्र",
    "3619": "निक",
    "3620": "फ़",
    "3621": "रूप",
    "3622": "शन",
    "3623": "िर",
    "3624": "ीरे",
    "3625": "ृति",
    "3626": "्ल",
    "3627": "्ले",
    "3628": "्तु",
    "3629": "्वीप",
    "3630": "களின்",
    "3631": "க்குப்",
    "3632": "சுலி",
    "3633": "டக்",
    "3634": "திய",
    "3635": "ந்தைய",
    "3636": "ன்னிந்திய",
    "3637": "ப்பின்",
    "3638": "ரால்",
    "3639": "ர்களால்",
    "3640": "ற்கர",
    "3641": "லும்",
    "3642": "லியன்",
    "3643": "வியல்",
    "3644": "ாசியாவ",
    "3645": "ாகப்",
    "3646": "ாட்டில்",
    "3647": "ார்ந்த",
    "3648": "ிகளில்",
    "3649": "ித்தது",
    "3650": "ினர்",
    "3651": "ில்லியன்",
    "3652": "ூர்",
    "3653": "ையுடைய",
    "3654": "ంధీ",
    "3655": "ంపె",
    "3656": "ంపెనీ",
    "3657": "ంబూ",
    "3658": "గణ",
    "3659": "గరికత",
    "3660": "గోళ",
    "3661": "టర్",
    "3662": "టులు",
    "3663": "ట్టమ",
    "3664": "ట్టమొ",
    "3665": "ట్టమొద",
    "3666": "ట్టమొదటి",
    "3667": "డిన",
    "3668": "ణిజ్య",
    "3669": "దన",
    "3670": "నుకటి",
    "3671": "న్నడ",
    "3672": "పాదన",
    "3673": "పుకు",
    "3674": "భాగం",
    "3675": "మాబాద్",
    "3676": "ముద్రం",
    "3677": "రుపుకు",
    "3678": "లిం",
    "3679": "లామాబాద్",
    "3680": "వలం",
    "3681": "వె",
    "3682": "విస్తారు",
    "3683": "వెనుకటి",
    "3684": "సులు",
    "3685": "సైటు",
    "3686": "స్లామాబాద్",
    "3687": "స్కృతిక",
    "3688": "ాపు",
    "3689": "ాస",
    "3690": "ాతో",
    "3691": "ాదాపు",
    "3692": "ారా",
    "3693": "ారిత్రక",
    "3694": "ాలా",
    "3695": "ాలెండ",
    "3696": "ాలుగు",
    "3697": "ాలెండర్",
    "3698": "ిల్",
    "3699": "ిమాల",
    "3700": "ీటిలో",
    "3701": "ుత్",
    "3702": "ెలవు",
    "3703": "ెలుగు",
    "3704": "్లా",
    "3705": "్‌సైటు",
    "3706": "▁era",
    "3707": "▁upper",
    "3708": "▁తి",
    "3709": "▁2003",
    "3710": "▁31",
    "3711": "▁Africa",
    "3712": "▁All",
    "3713": "▁Ancient",
    "3714": "▁Asian",
    "3715": "▁Dravidian",
    "3716": "▁European",
    "3717": "▁Factbook",
    "3718": "▁Ghats",
    "3719": "▁However",
    "3720": "▁Hindust",
    "3721": "▁Kashmir",
    "3722": "▁Many",
    "3723": "▁Nuclear",
    "3724": "▁Plateau",
    "3725": "▁Sea",
    "3726": "▁Singh",
    "3727": "▁Their",
    "3728": "▁Valley",
    "3729": "▁War",
    "3730": "▁about",
    "3731": "▁again",
    "3732": "▁agricultural",
    "3733": "▁agriculture",
    "3734": "▁animal",
    "3735": "▁approximately",
    "3736": "▁before",
    "3737": "▁below",
    "3738": "▁called",
    "3739": "▁creat",
    "3740": "▁commonly",
    "3741": "▁composed",
    "3742": "▁conducted",
    "3743": "▁continued",
    "3744": "▁cooked",
    "3745": "▁cooking",
    "3746": "▁decades",
    "3747": "▁development",
    "3748": "▁diverse",
    "3749": "▁directly",
    "3750": "▁elites",
    "3751": "▁enacted",
    "3752": "▁established",
    "3753": "▁estimated",
    "3754": "▁external",
    "3755": "▁exports",
    "3756": "▁extant",
    "3757": "▁flow",
    "3758": "▁fundamental",
    "3759": "▁features",
    "3760": "▁foreign",
    "3761": "▁global",
    "3762": "▁greater",
    "3763": "▁growing",
    "3764": "▁his",
    "3765": "▁history",
    "3766": "▁important",
    "3767": "▁invol",
    "3768": "▁indigenous",
    "3769": "▁influence",
    "3770": "▁just",
    "3771": "▁known",
    "3772": "▁leader",
    "3773": "▁member",
    "3774": "▁mathematics",
    "3775": "▁meat",
    "3776": "▁numbers",
    "3777": "▁oldest",
    "3778": "▁pharmaceutical",
    "3779": "▁public",
    "3780": "▁place",
    "3781": "▁reduced",
    "3782": "▁recorded",
    "3783": "▁reform",
    "3784": "▁relations",
    "3785": "▁resulting",
    "3786": "▁rights",
    "3787": "▁sari",
    "3788": "▁secular",
    "3789": "▁single",
    "3790": "▁support",
    "3791": "▁took",
    "3792": "▁traditionally",
    "3793": "▁when",
    "3794": "▁within",
    "3795": "▁अरब",
    "3796": "▁अन्त",
    "3797": "▁इन",
    "3798": "▁ईसा",
    "3799": "▁ओर",
    "3800": "▁क्षेत्रीय",
    "3801": "▁गई",
    "3802": "▁जिसमें",
    "3803": "▁नेतृत्व",
    "3804": "▁पहले",
    "3805": "▁प्रधानमंत्री",
    "3806": "▁बहुम",
    "3807": "▁ब्रि",
    "3808": "▁यू",
    "3809": "▁युद्ध",
    "3810": "▁लिये",
    "3811": "▁वर्षों",
    "3812": "▁विभ",
    "3813": "▁विकास",
    "3814": "▁शताब्दी",
    "3815": "▁संसद",
    "3816": "▁समाज",
    "3817": "▁स्थाप",
    "3818": "▁१९९",
    "3819": "▁அதிகார",
    "3820": "▁அரசியல",
    "3821": "▁இன",
    "3822": "▁இப்ப",
    "3823": "▁இயக்க",
    "3824": "▁இருக்க",
    "3825": "▁இருந்தன",
    "3826": "▁இவ்வா",
    "3827": "▁உணவ",
    "3828": "▁உயிரின",
    "3829": "▁உருவாக",
    "3830": "▁உள்ளிட்ட",
    "3831": "▁உள்ளடக்கிய",
    "3832": "▁ஏற்பட்ட",
    "3833": "▁கடற்கர",
    "3834": "▁கணக்க",
    "3835": "▁கல்விய",
    "3836": "▁கொண்டு",
    "3837": "▁சா",
    "3838": "▁சாத",
    "3839": "▁தன்",
    "3840": "▁தம",
    "3841": "▁தற்போ",
    "3842": "▁திர",
    "3843": "▁துணை",
    "3844": "▁தென்னிந்திய",
    "3845": "▁தொடங்கியது",
    "3846": "▁நான",
    "3847": "▁நாடாளுமன்ற",
    "3848": "▁நீண்ட",
    "3849": "▁பழ",
    "3850": "▁பாதுகாப்பு",
    "3851": "▁புது",
    "3852": "▁பெற",
    "3853": "▁பெற்றது",
    "3854": "▁பொருட்கள",
    "3855": "▁பொருட்கள்",
    "3856": "▁போத",
    "3857": "▁பௌத்த",
    "3858": "▁மக",
    "3859": "▁மர",
    "3860": "▁மெ",
    "3861": "▁மைய",
    "3862": "▁மனித",
    "3863": "▁முசுலி",
    "3864": "▁முன்",
    "3865": "▁முதன்மையான",
    "3866": "▁வில",
    "3867": "▁வடக்கு",
    "3868": "▁விரிவ",
    "3869": "▁வேளாண்",
    "3870": "▁ఇంగ్ల",
    "3871": "▁ఇవి",
    "3872": "▁ఇస్లామాబాద్",
    "3873": "▁ఉండ",
    "3874": "▁ఉంటుంది",
    "3875": "▁ఎన్నిక",
    "3876": "▁ఏర్పడ్డ",
    "3877": "▁ఒకటిగా",
    "3878": "▁కంపెనీ",
    "3879": "▁కన్నడ",
    "3880": "▁కి",
    "3881": "▁కింద",
    "3882": "▁కుల",
    "3883": "▁కలిసి",
    "3884": "▁కారణంగా",
    "3885": "▁కార్యక్రమ",
    "3886": "▁కూడుకు",
    "3887": "▁కేవలం",
    "3888": "▁కోర్టు",
    "3889": "▁క్యాలెండర్",
    "3890": "▁క్రీడలు",
    "3891": "▁గాంధీ",
    "3892": "▁చారిత్రక",
    "3893": "▁చాలా",
    "3894": "▁చేసింది",
    "3895": "▁జంబూ",
    "3896": "▁జరుపుకు",
    "3897": "▁జనగణ",
    "3898": "▁జాతి",
    "3899": "▁తక్కువ",
    "3900": "▁తెలుగు",
    "3901": "▁తమిళం",
    "3902": "▁తరువాతి",
    "3903": "▁దాదాపు",
    "3904": "▁దక్షిణాసియా",
    "3905": "▁దేశానికి",
    "3906": "▁దేశంగా",
    "3907": "▁ద్వారా",
    "3908": "▁నాలుగు",
    "3909": "▁నగరాలు",
    "3910": "▁నాగరికత",
    "3911": "▁నిర్వహణ",
    "3912": "▁నుంచి",
    "3913": "▁పద",
    "3914": "▁పర్య",
    "3915": "▁పండుగలు",
    "3916": "▁పట్టణాలు",
    "3917": "▁పతకాలు",
    "3918": "▁పద్ధతి",
    "3919": "▁పరంగా",
    "3920": "▁పరిపాల",
    "3921": "▁పరిశ్రమలు",
    "3922": "▁పొందిన",
    "3923": "▁ప్రజల",
    "3924": "▁ప్రజాస్వామ్య",
    "3925": "▁ప్రతిపాదన",
    "3926": "▁బహుళ",
    "3927": "▁భిన్న",
    "3928": "▁భౌ",
    "3929": "▁భాగం",
    "3930": "▁మంది",
    "3931": "▁మాత",
    "3932": "▁మీ",
    "3933": "▁మౌ",
    "3934": "▁మతాలు",
    "3935": "▁మనదేశం",
    "3936": "▁ముంబై",
    "3937": "▁ముఖ్యమైన",
    "3938": "▁మొట్టమొదటి",
    "3939": "▁మొదలైన",
    "3940": "▁రాజు",
    "3941": "▁రాజ్యా",
    "3942": "▁రైళ్లను",
    "3943": "▁లేదా",
    "3944": "▁వీటిలో",
    "3945": "▁వాణిజ్య",
    "3946": "▁విద్య",
    "3947": "▁విభిన్న",
    "3948": "▁వెబ్‌సైటు",
    "3949": "▁వేగంగా",
    "3950": "▁వ్యవస్థలో",
    "3951": "▁శెలవు",
    "3952": "▁శాఖ",
    "3953": "▁శాస్త్రీయ",
    "3954": "▁సూచ",
    "3955": "▁సైన",
    "3956": "▁సంప్రదాయాలు",
    "3957": "▁సమాఖ్య",
    "3958": "▁సర్వీసులు",
    "3959": "▁సాంస్కృతిక",
    "3960": "▁సాంప్రదాయిక",
    "3961": "▁సినిమాలు",
    "3962": "▁స్థానంలో",
    "3963": "▁స్వాతంత్ర్య",
    "3964": "▁హిమాల",
    "3965": "▁హిందీ",
    "3966": "▁హిందూదేశం",
    "3967": "16",
    "3968": "40",
    "3969": "400",
    "3970": "50",
    "3971": "64",
    "3972": "94",
    "3973": "af",
    "3974": "abad",
    "3975": "ables",
    "3976": "aced",
    "3977": "ada",
    "3978": "ala",
    "3979": "alw",
    "3980": "ams",
    "3981": "anch",
    "3982": "ann",
    "3983": "anged",
    "3984": "assing",
    "3985": "ath",
    "3986": "avi",
    "3987": "ayback",
    "3988": "ble",
    "3989": "crimin",
    "3990": "crip",
    "3991": "des",
    "3992": "ees",
    "3993": "ections",
    "3994": "ening",
    "3995": "eri",
    "3996": "esc",
    "3997": "ese",
    "3998": "eter",
    "3999": "get",
    "4000": "ie",
    "4001": "ii",
    "4002": "irt",
    "4003": "ises",
    "4004": "itions",
    "4005": "itud",
    "4006": "ject",
    "4007": "la",
    "4008": "land",
    "4009": "lus",
    "4010": "lows",
    "4011": "nam",
    "4012": "no",
    "4013": "ogn",
    "4014": "oli",
    "4015": "one",
    "4016": "oral",
    "4017": "pic",
    "4018": "pur",
    "4019": "round",
    "4020": "reg",
    "4021": "ret",
    "4022": "redomin",
    "4023": "resent",
    "4024": "ressed",
    "4025": "sha",
    "4026": "struc",
    "4027": "uis",
    "4028": "uk",
    "4029": "ung",
    "4030": "ute",
    "4031": "wards",
    "4032": "νδ",
    "4033": "एँ",
    "4034": "टिश",
    "4035": "ड़े",
    "4036": "धि",
    "4037": "न्हें",
    "4038": "पर",
    "4039": "पाल",
    "4040": "बंधन",
    "4041": "भग",
    "4042": "भाव",
    "4043": "मिल",
    "4044": "म्भ",
    "4045": "लय",
    "4046": "सम",
    "4047": "संख्या",
    "4048": "हरी",
    "4049": "हाँ",
    "4050": "ाना",
    "4051": "ीस",
    "4052": "ॉल",
    "4053": "ौर",
    "4054": "கை",
    "4055": "க்கித்த",
    "4056": "சாப்த",
    "4057": "ஞ்சிய",
    "4058": "ணைய",
    "4059": "ண்டும்",
    "4060": "தற்க",
    "4061": "ந்ந",
    "4062": "பக",
    "4063": "பற்ற",
    "4064": "ப்படுவ",
    "4065": "ம்ம",
    "4066": "ய்",
    "4067": "ரப்ப",
    "4068": "ராச",
    "4069": "ரிக்க",
    "4070": "ற்றும",
    "4071": "லம்",
    "4072": "வர்",
    "4073": "வி",
    "4074": "வில்லை",
    "4075": "ாளர்கள்",
    "4076": "ிணை",
    "4077": "ுக்குள்",
    "4078": "ுடன",
    "4079": "ேய",
    "4080": "ைகளில்",
    "4081": "ంగ్లా",
    "4082": "ంగ్లాదేశ",
    "4083": "ంటి",
    "4084": "ందు",
    "4085": "కా",
    "4086": "కో",
    "4087": "కులు",
    "4088": "క్తి",
    "4089": "క్షం",
    "4090": "గిన",
    "4091": "గువ",
    "4092": "డుకు",
    "4093": "తంగా",
    "4094": "తంలో",
    "4095": "తీ",
    "4096": "తుల",
    "4097": "త్త",
    "4098": "ద్ధం",
    "4099": "నది",
    "4100": "నలో",
    "4101": "నిస్తాన్",
    "4102": "నులు",
    "4103": "పై",
    "4104": "బంధ",
    "4105": "బడ్డ",
    "4106": "బడింది",
    "4107": "బడిన",
    "4108": "మతి",
    "4109": "మాన",
    "4110": "మేన",
    "4111": "యం",
    "4112": "యింది",
    "4113": "రే",
    "4114": "రుష",
    "4115": "ర్చ",
    "4116": "ర్త",
    "4117": "ర్మ",
    "4118": "ర్‌",
    "4119": "లీ",
    "4120": "లంప",
    "4121": "లిచ",
    "4122": "ళి",
    "4123": "ళ్",
    "4124": "ళ్ళ",
    "4125": "వులు",
    "4126": "వచ్చు",
    "4127": "విధ్య",
    "4128": "శ్",
    "4129": "శ్మీ",
    "4130": "ష్ణ",
    "4131": "సా",
    "4132": "స్థాన",
    "4133": "ాకా",
    "4134": "ాతి",
    "4135": "ారంభ",
    "4136": "ారిగా",
    "4137": "ాలనే",
    "4138": "ినీ",
    "4139": "ిస్తారు",
    "4140": "ీక",
    "4141": "ీఠ",
    "4142": "ుకొ",
    "4143": "ుతుంది",
    "4144": "ుతో",
    "4145": "ూరు",
    "4146": "ెట్ట",
    "4147": "్యాప",
    "4148": "Ἰνδ",
    "4149": "▁,",
    "4150": "▁ir",
    "4151": "▁డ",
    "4152": "▁100",
    "4153": "▁1935",
    "4154": "▁1960",
    "4155": "▁1999",
    "4156": "▁22",
    "4157": "▁2007",
    "4158": "▁2017",
    "4159": "▁500",
    "4160": "▁Bh",
    "4161": "▁Dal",
    "4162": "▁Ex",
    "4163": "▁Kal",
    "4164": "▁Mal",
    "4165": "▁Me",
    "4166": "▁Rep",
    "4167": "▁Va",
    "4168": "▁att",
    "4169": "▁back",
    "4170": "▁band",
    "4171": "▁cal",
    "4172": "▁coun",
    "4173": "▁crit",
    "4174": "▁coll",
    "4175": "▁conce",
    "4176": "▁dri",
    "4177": "▁displ",
    "4178": "▁eff",
    "4179": "▁impro",
    "4180": "▁init",
    "4181": "▁lik",
    "4182": "▁min",
    "4183": "▁maint",
    "4184": "▁opp",
    "4185": "▁pat",
    "4186": "▁pers",
    "4187": "▁predomin",
    "4188": "▁prop",
    "4189": "▁recogn",
    "4190": "▁refer",
    "4191": "▁sil",
    "4192": "▁six",
    "4193": "▁sep",
    "4194": "▁tak",
    "4195": "▁te",
    "4196": "▁vis",
    "4197": "▁veget",
    "4198": "▁आद",
    "4199": "▁एवं",
    "4200": "▁कर्",
    "4201": "▁कि",
    "4202": "▁किन",
    "4203": "▁काल",
    "4204": "▁कुछ",
    "4205": "▁कुल",
    "4206": "▁गठ",
    "4207": "▁जब",
    "4208": "▁जनसंख्या",
    "4209": "▁थे",
    "4210": "▁दोनों",
    "4211": "▁निभा",
    "4212": "▁पुर",
    "4213": "▁ब्रिटिश",
    "4214": "▁भाग",
    "4215": "▁भूमिका",
    "4216": "▁रक्षा",
    "4217": "▁राजनी",
    "4218": "▁ला",
    "4219": "▁लोग",
    "4220": "▁व्या",
    "4221": "▁विदेश",
    "4222": "▁सर्व",
    "4223": "▁साल",
    "4224": "▁संस्कृति",
    "4225": "▁सदस",
    "4226": "▁स्वतंत्रता",
    "4227": "▁அதிகரித்த",
    "4228": "▁அரசியலமை",
    "4229": "▁ஆசியாவ",
    "4230": "▁இமயம",
    "4231": "▁இதற்கு",
    "4232": "▁இதுவாகும்",
    "4233": "▁இருப்ப",
    "4234": "▁இலட்ச",
    "4235": "▁எஞ்சிய",
    "4236": "▁எதி",
    "4237": "▁ஏற்றும",
    "4238": "▁ஐக்கிய",
    "4239": "▁கட்டுப்ப",
    "4240": "▁காங்கிரசு",
    "4241": "▁குறிப்பாக",
    "4242": "▁சார்ந்த",
    "4243": "▁சீன",
    "4244": "▁சூ",
    "4245": "▁சிற்ப",
    "4246": "▁செய்த",
    "4247": "▁தசாப்த",
    "4248": "▁துறை",
    "4249": "▁தென்",
    "4250": "▁தெற்கு",
    "4251": "▁நடன",
    "4252": "▁நீடித்த",
    "4253": "▁பண்ட",
    "4254": "▁பாக்கித்த",
    "4255": "▁பால",
    "4256": "▁பிரிவ",
    "4257": "▁பிரதம",
    "4258": "▁மலை",
    "4259": "▁முடி",
    "4260": "▁வாக்க",
    "4261": "▁வேத",
    "4262": "▁வேறுபட்ட",
    "4263": "▁வைத்த",
    "4264": "▁అహ",
    "4265": "▁ఆఫ్ఘ",
    "4266": "▁ఉపఖండ",
    "4267": "▁ఒకే",
    "4268": "▁కథ",
    "4269": "▁కల",
    "4270": "▁కల్ప",
    "4271": "▁కాశ్మీ",
    "4272": "▁గుర్త",
    "4273": "▁జన్మ",
    "4274": "▁టె",
    "4275": "▁టై",
    "4276": "▁దీ",
    "4277": "▁నిర్మ",
    "4278": "▁పంచ",
    "4279": "▁పార్",
    "4280": "▁పీఠ",
    "4281": "▁పురుష",
    "4282": "▁పేర్కొ",
    "4283": "▁ప్రదేశ",
    "4284": "▁ప్రారంభ",
    "4285": "▁బంగ్లాదేశ",
    "4286": "▁మంత్ర",
    "4287": "▁మై",
    "4288": "▁రంగ",
    "4289": "▁వర్గ",
    "4290": "▁వ్యాప",
    "4291": "▁వైవిధ్య",
    "4292": "▁శ్రీ",
    "4293": "▁సహ",
    "4294": "▁సంబంధ",
    "4295": "▁సంకీర్ణ",
    "4296": "▁సాధించ",
    "4297": "▁సింధు",
    "4298": "▁హై",
    "4299": "04",
    "4300": "23",
    "4301": "Ary",
    "4302": "Aryan",
    "4303": "DA",
    "4304": "European",
    "4305": "HO",
    "4306": "PA",
    "4307": "after",
    "4308": "aic",
    "4309": "aren",
    "4310": "aː",
    "4311": "abh",
    "4312": "abit",
    "4313": "ached",
    "4314": "acter",
    "4315": "adesh",
    "4316": "allav",
    "4317": "amee",
    "4318": "ameez",
    "4319": "ammals",
    "4320": "ample",
    "4321": "anag",
    "4322": "anata",
    "4323": "anced",
    "4324": "anies",
    "4325": "anism",
    "4326": "anding",
    "4327": "angl",
    "4328": "angladesh",
    "4329": "anguages",
    "4330": "anta",
    "4331": "apons",
    "4332": "arly",
    "4333": "aro",
    "4334": "arna",
    "4335": "arty",
    "4336": "avou",
    "4337": "aws",
    "4338": "ayed",
    "4339": "bly",
    "4340": "cean",
    "4341": "daro",
    "4342": "ds",
    "4343": "diately",
    "4344": "die",
    "4345": "dieval",
    "4346": "ditional",
    "4347": "eign",
    "4348": "ector",
    "4349": "eignty",
    "4350": "ellion",
    "4351": "embly",
    "4352": "emograph",
    "4353": "emocra",
    "4354": "emocracy",
    "4355": "emographics",
    "4356": "ened",
    "4357": "ense",
    "4358": "energy",
    "4359": "equality",
    "4360": "erch",
    "4361": "estic",
    "4362": "form",
    "4363": "ger",
    "4364": "gins",
    "4365": "gth",
    "4366": "ganisation",
    "4367": "guard",
    "4368": "hok",
    "4369": "heduled",
    "4370": "henj",
    "4371": "henjo",
    "4372": "hoka",
    "4373": "ict",
    "4374": "icobar",
    "4375": "idars",
    "4376": "iddle",
    "4377": "idly",
    "4378": "idents",
    "4379": "igration",
    "4380": "ilomet",
    "4381": "ilw",
    "4382": "ilometres",
    "4383": "imals",
    "4384": "imes",
    "4385": "isen",
    "4386": "ither",
    "4387": "ivity",
    "4388": "long",
    "4389": "mend",
    "4390": "mediately",
    "4391": "mitted",
    "4392": "nings",
    "4393": "oted",
    "4394": "ods",
    "4395": "olit",
    "4396": "omestic",
    "4397": "omic",
    "4398": "oming",
    "4399": "ometimes",
    "4400": "onial",
    "4401": "onds",
    "4402": "onesia",
    "4403": "oods",
    "4404": "orce",
    "4405": "osen",
    "4406": "other",
    "4407": "ott",
    "4408": "oulder",
    "4409": "ources",
    "4410": "overeignty",
    "4411": "overty",
    "4412": "pay",
    "4413": "pen",
    "4414": "pend",
    "4415": "put",
    "4416": "ran",
    "4417": "reen",
    "4418": "reasing",
    "4419": "reath",
    "4420": "reaty",
    "4421": "rength",
    "4422": "resident",
    "4423": "ries",
    "4424": "ricket",
    "4425": "road",
    "4426": "romise",
    "4427": "ront",
    "4428": "tal",
    "4429": "the",
    "4430": "touchability",
    "4431": "uent",
    "4432": "uous",
    "4433": "ubs",
    "4434": "ucial",
    "4435": "une",
    "4436": "uras",
    "4437": "uridars",
    "4438": "urred",
    "4439": "urta",
    "4440": "ush",
    "4441": "venues",
    "4442": "verage",
    "4443": "yanmar",
    "4444": "ंब",
    "4445": "ंपरा",
    "4446": "खा",
    "4447": "गत",
    "4448": "गर",
    "4449": "चल",
    "4450": "ची",
    "4451": "ज़ी",
    "4452": "तु",
    "4453": "थिय",
    "4454": "थियार",
    "4455": "दल",
    "4456": "धिकारिक",
    "4457": "पे",
    "4458": "मन",
    "4459": "मालय",
    "4460": "युक्त",
    "4461": "र्त",
    "4462": "वल",
    "4463": "सभा",
    "4464": "स्थ",
    "4465": "ाँकि",
    "4466": "ांति",
    "4467": "ाजपा",
    "4468": "ारम्भ",
    "4469": "ीत",
    "4470": "ुनिक",
    "4471": "ूल",
    "4472": "ूस",
    "4473": "ेर",
    "4474": "ोह",
    "4475": "ोलन",
    "4476": "्लेट",
    "4477": "க்கி",
    "4478": "ங்கில",
    "4479": "ங்கும்",
    "4480": "ங்களானவை",
    "4481": "சுக",
    "4482": "திர",
    "4483": "தில்",
    "4484": "த்தையும்",
    "4485": "பர்",
    "4486": "ப்த",
    "4487": "ப்பை",
    "4488": "மண",
    "4489": "மிச",
    "4490": "மே",
    "4491": "மையை",
    "4492": "ருக்க",
    "4493": "ர்களின்",
    "4494": "றிய",
    "4495": "ல்கள்",
    "4496": "ல்லை",
    "4497": "வே",
    "4498": "வற்றின்",
    "4499": "ஸ்த",
    "4500": "ாந்திய",
    "4501": "ாம்",
    "4502": "ாகவும்",
    "4503": "ாவிய",
    "4504": "ிக்கப்பட்ட",
    "4505": "ீட",
    "4506": "ூர",
    "4507": "ையாக",
    "4508": "ோக",
    "4509": "▁$",
    "4510": "▁energy",
    "4511": "▁very",
    "4512": "▁ऋ",
    "4513": "▁५",
    "4514": "▁192",
    "4515": "▁1967",
    "4516": "▁1974",
    "4517": "▁1984",
    "4518": "▁1996",
    "4519": "▁2009",
    "4520": "▁2020",
    "4521": "▁74",
    "4522": "▁Ak",
    "4523": "▁Arabian",
    "4524": "▁Ashoka",
    "4525": "▁Assembly",
    "4526": "▁Bangladesh",
    "4527": "▁Bay",
    "4528": "▁Buddha",
    "4529": "▁Cl",
    "4530": "▁Civilisation",
    "4531": "▁Constituent",
    "4532": "▁Dance",
    "4533": "▁Demographics",
    "4534": "▁Deccan",
    "4535": "▁Desert",
    "4536": "▁Early",
    "4537": "▁Econom",
    "4538": "▁Euras",
    "4539": "▁Europe",
    "4540": "▁For",
    "4541": "▁Front",
    "4542": "▁Geograph",
    "4543": "▁Gupta",
    "4544": "▁Greek",
    "4545": "▁Himalayan",
    "4546": "▁Indonesia",
    "4547": "▁Indira",
    "4548": "▁Islands",
    "4549": "▁Janata",
    "4550": "▁Languages",
    "4551": "▁Lank",
    "4552": "▁Middle",
    "4553": "▁Myanmar",
    "4554": "▁Maurya",
    "4555": "▁Modern",
    "4556": "▁Mohenjo",
    "4557": "▁Nicobar",
    "4558": "▁Non",
    "4559": "▁North",
    "4560": "▁Pallav",
    "4561": "▁She",
    "4562": "▁Sri",
    "4563": "▁Sikhism",
    "4564": "▁Temp",
    "4565": "▁Thar",
    "4566": "▁Treaty",
    "4567": "▁Vi",
    "4568": "▁age",
    "4569": "▁average",
    "4570": "▁across",
    "4571": "▁added",
    "4572": "▁adop",
    "4573": "▁adv",
    "4574": "▁administration",
    "4575": "▁animals",
    "4576": "▁another",
    "4577": "▁appear",
    "4578": "▁arts",
    "4579": "▁architecture",
    "4580": "▁area",
    "4581": "▁armies",
    "4582": "▁assert",
    "4583": "▁associ",
    "4584": "▁bor",
    "4585": "▁bri",
    "4586": "▁broad",
    "4587": "▁bu",
    "4588": "▁basin",
    "4589": "▁being",
    "4590": "▁belief",
    "4591": "▁belong",
    "4592": "▁becoming",
    "4593": "▁came",
    "4594": "▁cle",
    "4595": "▁cos",
    "4596": "▁could",
    "4597": "▁capita",
    "4598": "▁cause",
    "4599": "▁chosen",
    "4600": "▁churidars",
    "4601": "▁character",
    "4602": "▁clim",
    "4603": "▁classes",
    "4604": "▁companies",
    "4605": "▁compromise",
    "4606": "▁consists",
    "4607": "▁consum",
    "4608": "▁consider",
    "4609": "▁constitutional",
    "4610": "▁contain",
    "4611": "▁contains",
    "4612": "▁contributions",
    "4613": "▁crucial",
    "4614": "▁cultural",
    "4615": "▁cultures",
    "4616": "▁currency",
    "4617": "▁defe",
    "4618": "▁decade",
    "4619": "▁devotion",
    "4620": "▁div",
    "4621": "▁dishes",
    "4622": "▁disputes",
    "4623": "▁drain",
    "4624": "▁eight",
    "4625": "▁elected",
    "4626": "▁employed",
    "4627": "▁endemic",
    "4628": "▁enter",
    "4629": "▁example",
    "4630": "▁extin",
    "4631": "▁exchange",
    "4632": "▁expans",
    "4633": "▁express",
    "4634": "▁fact",
    "4635": "▁fall",
    "4636": "▁fem",
    "4637": "▁fra",
    "4638": "▁folk",
    "4639": "▁forests",
    "4640": "▁formal",
    "4641": "▁gas",
    "4642": "▁gave",
    "4643": "▁goods",
    "4644": "▁governments",
    "4645": "▁gradually",
    "4646": "▁habit",
    "4647": "▁having",
    "4648": "▁hig",
    "4649": "▁hy",
    "4650": "▁heredi",
    "4651": "▁inequality",
    "4652": "▁institution",
    "4653": "▁increasingly",
    "4654": "▁independence",
    "4655": "▁influences",
    "4656": "▁introduced",
    "4657": "▁isol",
    "4658": "▁kameez",
    "4659": "▁kilometres",
    "4660": "▁laws",
    "4661": "▁lim",
    "4662": "▁loss",
    "4663": "▁latter",
    "4664": "▁level",
    "4665": "▁liberal",
    "4666": "▁loose",
    "4667": "▁mammals",
    "4668": "▁merch",
    "4669": "▁mi",
    "4670": "▁much",
    "4671": "▁multi",
    "4672": "▁makes",
    "4673": "▁manus",
    "4674": "▁margins",
    "4675": "▁marked",
    "4676": "▁marriages",
    "4677": "▁mathematical",
    "4678": "▁ministers",
    "4679": "▁moist",
    "4680": "▁name",
    "4681": "▁nation",
    "4682": "▁nomin",
    "4683": "▁natal",
    "4684": "▁northwest",
    "4685": "▁numer",
    "4686": "▁office",
    "4687": "▁originally",
    "4688": "▁others",
    "4689": "▁poverty",
    "4690": "▁parts",
    "4691": "▁partic",
    "4692": "▁plains",
    "4693": "▁policies",
    "4694": "▁populous",
    "4695": "▁practices",
    "4696": "▁primary",
    "4697": "▁provided",
    "4698": "▁protected",
    "4699": "▁range",
    "4700": "▁rather",
    "4701": "▁rich",
    "4702": "▁railw",
    "4703": "▁reached",
    "4704": "▁revenues",
    "4705": "▁recent",
    "4706": "▁religion",
    "4707": "▁remaining",
    "4708": "▁residents",
    "4709": "▁retur",
    "4710": "▁rivers",
    "4711": "▁right",
    "4712": "▁sector",
    "4713": "▁sim",
    "4714": "▁sites",
    "4715": "▁slow",
    "4716": "▁sometimes",
    "4717": "▁sovereignty",
    "4718": "▁safe",
    "4719": "▁schools",
    "4720": "▁script",
    "4721": "▁seals",
    "4722": "▁setting",
    "4723": "▁share",
    "4724": "▁signed",
    "4725": "▁society",
    "4726": "▁speak",
    "4727": "▁ste",
    "4728": "▁strength",
    "4729": "▁status",
    "4730": "▁strong",
    "4731": "▁style",
    "4732": "▁summer",
    "4733": "▁suppl",
    "4734": "▁supported",
    "4735": "▁test",
    "4736": "▁tropical",
    "4737": "▁texts",
    "4738": "▁those",
    "4739": "▁threat",
    "4740": "▁then",
    "4741": "▁these",
    "4742": "▁today",
    "4743": "▁total",
    "4744": "▁town",
    "4745": "▁trade",
    "4746": "▁transmitted",
    "4747": "▁tribal",
    "4748": "▁unit",
    "4749": "▁urbanisation",
    "4750": "▁use",
    "4751": "▁vi",
    "4752": "▁vict",
    "4753": "▁village",
    "4754": "▁went",
    "4755": "▁wildlife",
    "4756": "▁would",
    "4757": "▁weapons",
    "4758": "▁written",
    "4759": "▁अर्थ",
    "4760": "▁अपनी",
    "4761": "▁अपने",
    "4762": "▁अप्र",
    "4763": "▁इंड",
    "4764": "▁इसी",
    "4765": "▁उत्प",
    "4766": "▁करना",
    "4767": "▁काम",
    "4768": "▁केन्द्र",
    "4769": "▁गठबंधन",
    "4770": "▁घोष",
    "4771": "▁जिन",
    "4772": "▁जाते",
    "4773": "▁तमिल",
    "4774": "▁दर",
    "4775": "▁नद",
    "4776": "▁नाग",
    "4777": "▁निभाई",
    "4778": "▁न्यायालय",
    "4779": "▁पड़",
    "4780": "▁पै",
    "4781": "▁प्लेट",
    "4782": "▁परंपरा",
    "4783": "▁पार्टी",
    "4784": "▁प्रकार",
    "4785": "▁प्रभाव",
    "4786": "▁प्रारम्भ",
    "4787": "▁बड़ा",
    "4788": "▁बने",
    "4789": "▁मन",
    "4790": "▁रहे",
    "4791": "▁लिया",
    "4792": "▁लगभग",
    "4793": "▁वर्ग",
    "4794": "▁संयुक्त",
    "4795": "▁सेवा",
    "4796": "▁हथियार",
    "4797": "▁हालाँकि",
    "4798": "▁हिमालय",
    "4799": "▁२००",
    "4800": "▁அடைய",
    "4801": "▁அம",
    "4802": "▁அறி",
    "4803": "▁ஆசிய",
    "4804": "▁ஆண்டின்",
    "4805": "▁ஆதர",
    "4806": "▁இந்தியக்",
    "4807": "▁இரண்டாவது",
    "4808": "▁என்பது",
    "4809": "▁ஐரோ",
    "4810": "▁ஒன்றிய",
    "4811": "▁கவன",
    "4812": "▁கி",
    "4813": "▁கணக்கெடு",
    "4814": "▁காட",
    "4815": "▁காரணமாக",
    "4816": "▁காலத்திற்கு",
    "4817": "▁கிழக்கு",
    "4818": "▁குட",
    "4819": "▁குடியரசு",
    "4820": "▁குறைவான",
    "4821": "▁கொள்க",
    "4822": "▁சராச",
    "4823": "▁சும",
    "4824": "▁சமவெ",
    "4825": "▁செயல",
    "4826": "▁செயல்ப",
    "4827": "▁தடு",
    "4828": "▁தள",
    "4829": "▁தா",
    "4830": "▁தாங்க",
    "4831": "▁தில்",
    "4832": "▁தற்போது",
    "4833": "▁தொகை",
    "4834": "▁நாட்டின்",
    "4835": "▁நாட்டு",
    "4836": "▁நகர்ப்புற",
    "4837": "▁பங்கள",
    "4838": "▁பட்ட",
    "4839": "▁பகுதி",
    "4840": "▁பாத",
    "4841": "▁பிரபல",
    "4842": "▁பிராந்திய",
    "4843": "▁புர",
    "4844": "▁புற",
    "4845": "▁மத்தியில்",
    "4846": "▁மாமிச",
    "4847": "▁முன்னர்",
    "4848": "▁முன்னேற்ற",
    "4849": "▁மேற்பட்ட",
    "4850": "▁விளையாட்ட",
    "4851": "▁வெப்ப",
    "4852": "▁வேலை",
    "4853": "▁வேளாண்மை",
    "4854": "100",
    "4855": "422",
    "4856": "500",
    "4857": "517",
    "4858": "62",
    "4859": "72",
    "4860": "BC",
    "4861": "IA",
    "4862": "chived",
    "4863": "file",
    "4864": "fficial",
    "4865": "nd",
    "4866": "yal",
    "4867": "ंक",
    "4868": "ंधी",
    "4869": "एं",
    "4870": "करण",
    "4871": "जन",
    "4872": "टन",
    "4873": "णी",
    "4874": "त्त",
    "4875": "दा",
    "4876": "पु",
    "4877": "पालिका",
    "4878": "लों",
    "4879": "लावा",
    "4880": "वरी",
    "4881": "शील",
    "4882": "शासित",
    "4883": "स्ट",
    "4884": "स्व",
    "4885": "सेना",
    "4886": "ांधी",
    "4887": "ाप्त",
    "4888": "ाद्वीप",
    "4889": "ार्",
    "4890": "ियन",
    "4891": "ुल",
    "4892": "ृद्ध",
    "4893": "ृष्ट",
    "4894": "ेक",
    "4895": "ैल",
    "4896": "ैली",
    "4897": "ॉलर",
    "4898": "ोत",
    "4899": "ोर",
    "4900": "्त्र",
    "4901": "्यता",
    "4902": "அண்",
    "4903": "களாவிய",
    "4904": "க்கும",
    "4905": "ங்களது",
    "4906": "ங்களுக்கு",
    "4907": "ங்களும்",
    "4908": "சுலா",
    "4909": "டியாக",
    "4910": "டுத்து",
    "4911": "ண்கள்",
    "4912": "ணியானது",
    "4913": "ண்களுக்கு",
    "4914": "திம",
    "4915": "திமன்ற",
    "4916": "த்துடன்",
    "4917": "த்தைச்",
    "4918": "நாய",
    "4919": "நாயக",
    "4920": "ந்தி",
    "4921": "பத்திய",
    "4922": "மளவ",
    "4923": "மிய",
    "4924": "முக",
    "4925": "மும்",
    "4926": "மயமாக்க",
    "4927": "ம்ச",
    "4928": "ருமான",
    "4929": "ருந்து",
    "4930": "றாக",
    "4931": "லின்",
    "4932": "லிருந்து",
    "4933": "லைய",
    "4934": "ல்த",
    "4935": "ல்தான",
    "4936": "ல்தானக",
    "4937": "ல்வி",
    "4938": "ளம்",
    "4939": "ளவில்",
    "4940": "விர",
    "4941": "வோ",
    "4942": "ஸ்ட",
    "4943": "ாசிய",
    "4944": "ியை",
    "4945": "ிர்வாக",
    "4946": "ிலேய",
    "4947": "ிலேயே",
    "4948": "ுக்கான",
    "4949": "ுதந்திர",
    "4950": "ுதல்",
    "4951": "ெரிக்க",
    "4952": "ேறு",
    "4953": "ைன",
    "4954": "ையாகக்",
    "4955": "ంగారు",
    "4956": "ంతర్జ",
    "4957": "ంతర్జాత",
    "4958": "ంతర్జాతీయ",
    "4959": "కాత",
    "4960": "కే",
    "4961": "కాతా",
    "4962": "కేతిక",
    "4963": "క్ట",
    "4964": "క్కన",
    "4965": "క్టోర",
    "4966": "క్టోరల్",
    "4967": "గాన్ని",
    "4968": "గుబ",
    "4969": "గుబా",
    "4970": "గుబాటు",
    "4971": "గోళిక",
    "4972": "చుకోవడ",
    "4973": "చుకోవడం",
    "4974": "జాలు",
    "4975": "జిక",
    "4976": "జ్యం",
    "4977": "టాన్",
    "4978": "టర్లకు",
    "4979": "ణతంత్ర",
    "4980": "ణులు",
    "4981": "తారు",
    "4982": "త్రిక",
    "4983": "త్రీలు",
    "4984": "థ్యం",
    "4985": "దగా",
    "4986": "దేశీ",
    "4987": "నిజాలు",
    "4988": "నుమ",
    "4989": "నుమలు",
    "4990": "న్నై",
    "4991": "పడిన",
    "4992": "పాల్",
    "4993": "పెద్ద",
    "4994": "ప్రీ",
    "4995": "పుణులు",
    "4996": "ప్రిల్",
    "4997": "ప్రీం",
    "4998": "బడతారు",
    "4999": "భాతో",
    "5000": "భారతదేశం",
    "5001": "మాజిక",
    "5002": "మీటర్లకు",
    "5003": "మెర",
    "5004": "మెరిక",
    "5005": "మెరికా",
    "5006": "మ్మూ",
    "5007": "యాళం",
    "5008": "రుగుబాటు",
    "5009": "రోపా",
    "5010": "ర్థ్యం",
    "5011": "ర్తిగా",
    "5012": "లక్టోరల్",
    "5013": "లయాళం",
    "5014": "లోమీటర్లకు",
    "5015": "ల్‌",
    "5016": "ల్‌కాతా",
    "5017": "ళలు",
    "5018": "వతం",
    "5019": "వరి",
    "5020": "శాన",
    "5021": "శాన్య",
    "5022": "షయాలు",
    "5023": "సన",
    "5024": "సిద్ధి",
    "5025": "స్ట్",
    "5026": "స్లిం",
    "5027": "స్వతం",
    "5028": "హారం",
    "5029": "ాట్లా",
    "5030": "ాట్లాడే",
    "5031": "ాత్",
    "5032": "ాత్మా",
    "5033": "ాదరణ",
    "5034": "ాను",
    "5035": "ాయాలు",
    "5036": "ాయు",
    "5037": "ావరాలు",
    "5038": "ాసముద్రం",
    "5039": "ించారు",
    "5040": "ించినట్లు",
    "5041": "ీషు",
    "5042": "ుకోబడతారు",
    "5043": "ూడండి",
    "5044": "ెలుచుకోవడం",
    "5045": "ౌకిక",
    "5046": "్రమే",
    "5047": "్వత్రిక",
    "5048": "్‌లో",
    "5049": "▁=",
    "5050": "▁°",
    "5051": "▁ऑ",
    "5052": "▁ல",
    "5053": "▁₹",
    "5054": "▁11",
    "5055": "▁1857",
    "5056": "▁1858",
    "5057": "▁1930",
    "5058": "▁1956",
    "5059": "▁1964",
    "5060": "▁1975",
    "5061": "▁1985",
    "5062": "▁1990",
    "5063": "▁24",
    "5064": "▁27",
    "5065": "▁2004",
    "5066": "▁2012",
    "5067": "▁2021",
    "5068": "▁34",
    "5069": "▁41",
    "5070": "▁42",
    "5071": "▁82",
    "5072": "▁83",
    "5073": "▁Archived",
    "5074": "▁BBC",
    "5075": "▁CIA",
    "5076": "▁Country",
    "5077": "▁ISBN",
    "5078": "▁New",
    "5079": "▁Profile",
    "5080": "▁web",
    "5081": "▁अफ",
    "5082": "▁अंग्रेजी",
    "5083": "▁अर्थव",
    "5084": "▁अलग",
    "5085": "▁आक",
    "5086": "▁आग",
    "5087": "▁आधिकारिक",
    "5088": "▁आधुनिक",
    "5089": "▁उस",
    "5090": "▁ऊँच",
    "5091": "▁कह",
    "5092": "▁कर्ज",
    "5093": "▁किन्तु",
    "5094": "▁गंगा",
    "5095": "▁गए",
    "5096": "▁गति",
    "5097": "▁गांधी",
    "5098": "▁चार",
    "5099": "▁चीन",
    "5100": "▁जि",
    "5101": "▁जनता",
    "5102": "▁जिसके",
    "5103": "▁डॉलर",
    "5104": "▁तीस",
    "5105": "▁धीरे",
    "5106": "▁निर",
    "5107": "▁पहा",
    "5108": "▁पर्वत",
    "5109": "▁बड़ी",
    "5110": "▁बड़े",
    "5111": "▁बार",
    "5112": "▁बहुमत",
    "5113": "▁युग",
    "5114": "▁वाल",
    "5115": "▁वे",
    "5116": "▁व्यवस्था",
    "5117": "▁विज",
    "5118": "▁विदेशी",
    "5119": "▁विस्तृत",
    "5120": "▁व्याप",
    "5121": "▁शुरू",
    "5122": "▁सभ",
    "5123": "▁स्तर",
    "5124": "▁संस्कृत",
    "5125": "▁सम्प",
    "5126": "▁सहयोग",
    "5127": "▁होती",
    "5128": "▁१९७",
    "5129": "▁१९८",
    "5130": "▁அந்ந",
    "5131": "▁அடிப்படையாகக்",
    "5132": "▁அதிகரித்தது",
    "5133": "▁அமெரிக்க",
    "5134": "▁அமைச்ச",
    "5135": "▁அமைந்த",
    "5136": "▁அமைப்பு",
    "5137": "▁அமைப்பானது",
    "5138": "▁ஆற",
    "5139": "▁ஆண்டில்",
    "5140": "▁ஆண்டுகளில்",
    "5141": "▁ஆண்டுகளுக்கு",
    "5142": "▁ஆயிர",
    "5143": "▁இச",
    "5144": "▁இணைய",
    "5145": "▁இறைய",
    "5146": "▁இந்தியாவை",
    "5147": "▁இரா",
    "5148": "▁இருக்கலாம்",
    "5149": "▁இறக்கும",
    "5150": "▁உண்ண",
    "5151": "▁உலகளாவிய",
    "5152": "▁உலகக்",
    "5153": "▁உள்ளிட்டவை",
    "5154": "▁எதிர",
    "5155": "▁கல்வி",
    "5156": "▁கட்டடக்",
    "5157": "▁காலத்தின்",
    "5158": "▁காலத்தில்",
    "5159": "▁கிராமப்புற",
    "5160": "▁கிழக்கிந்திய",
    "5161": "▁கீழ",
    "5162": "▁குடும்ப",
    "5163": "▁குறிக்க",
    "5164": "▁கொண்டுள்ளன",
    "5165": "▁சது",
    "5166": "▁சமை",
    "5167": "▁சுதந்திர",
    "5168": "▁சைன",
    "5169": "▁சமீ",
    "5170": "▁சுல்தானக",
    "5171": "▁சுமார்",
    "5172": "▁தங்களது",
    "5173": "▁திற",
    "5174": "▁தலைமை",
    "5175": "▁தில்லி",
    "5176": "▁துண",
    "5177": "▁தொடர்ச்ச",
    "5178": "▁நடை",
    "5179": "▁நபர்",
    "5180": "▁நிர்வாக",
    "5181": "▁நெ",
    "5182": "▁நடுவ",
    "5183": "▁நாடுகள",
    "5184": "▁நான்கு",
    "5185": "▁நூற்றாண்டின்",
    "5186": "▁நூற்றாண்டில்",
    "5187": "▁பில்லியன்",
    "5188": "▁பரிம",
    "5189": "▁பல்வேறு",
    "5190": "▁பிந்தைய",
    "5191": "▁பின்பற்ற",
    "5192": "▁புவிய",
    "5193": "▁பெயர",
    "5194": "▁பெருங்க",
    "5195": "▁பெருமளவ",
    "5196": "▁பொதுத்",
    "5197": "▁போட்டிகள்",
    "5198": "▁போதிலும்",
    "5199": "▁மீண்டும்",
    "5200": "▁முசுலிம்",
    "5201": "▁மேல்",
    "5202": "▁வருமான",
    "5203": "▁வரும்",
    "5204": "▁வர்க்க",
    "5205": "▁வலி",
    "5206": "▁வரைய",
    "5207": "▁வாக்கில்",
    "5208": "▁வாழ்வ",
    "5209": "▁விவ",
    "5210": "▁வெளிய",
    "5211": "▁வேகமாக",
    "5212": "▁అంతర్జాతీయ",
    "5213": "▁అక్షరాస్యత",
    "5214": "▁అమెరికా",
    "5215": "▁అవి",
    "5216": "▁అతిపెద్ద",
    "5217": "▁అధికారం",
    "5218": "▁అయినా",
    "5219": "▁ఆహారం",
    "5220": "▁ఆధారపడిన",
    "5221": "▁ఇంగ్లీషు",
    "5222": "▁ఈశాన్య",
    "5223": "▁ఈస్ట్",
    "5224": "▁ఉండటం",
    "5225": "▁ఉత్తరాన",
    "5226": "▁ఎలక్టోరల్",
    "5227": "▁ఎన్నుకోబడతారు",
    "5228": "▁ఎన్నికల్లో",
    "5229": "▁ఏప్రిల్",
    "5230": "▁ఏర్పడ్డాయి",
    "5231": "▁ఐరోపా",
    "5232": "▁కంటే",
    "5233": "▁కనుక",
    "5234": "▁కనుమలు",
    "5235": "▁కళలు",
    "5236": "▁కాంగ్రెస్",
    "5237": "▁కార్యక్రమాలు",
    "5238": "▁కిలోమీటర్లకు",
    "5239": "▁కిందకు",
    "5240": "▁కులాలు",
    "5241": "▁కూడి",
    "5242": "▁కూడుకుని",
    "5243": "▁కోల్‌కాతా",
    "5244": "▁కోర్టులు",
    "5245": "▁క్రీడలలో",
    "5246": "▁క్రీడా",
    "5247": "▁ఖనిజాలు",
    "5248": "▁గణతంత్ర",
    "5249": "▁గత",
    "5250": "▁గెలుచుకోవడం",
    "5251": "▁చూడండి",
    "5252": "▁చెన్నై",
    "5253": "▁చెందాయి",
    "5254": "▁చెందుతున్న",
    "5255": "▁చైనా",
    "5256": "▁చైనాను",
    "5257": "▁జమ్మూ",
    "5258": "▁జల",
    "5259": "▁జనతా",
    "5260": "▁జనవరి",
    "5261": "▁జనగణన",
    "5262": "▁జనాభాతో",
    "5263": "▁జరిగే",
    "5264": "▁జరుపుకుంటారు",
    "5265": "▁జాతులు",
    "5266": "▁తిరుగుబాటు",
    "5267": "▁దేశపు",
    "5268": "▁నిపుణులు",
    "5269": "▁నిర్వహించింది",
    "5270": "▁నేపాల్",
    "5271": "▁పక్కన",
    "5272": "▁పలు",
    "5273": "▁పదవి",
    "5274": "▁పరిపాలన",
    "5275": "▁పర్యాయాలు",
    "5276": "▁పశ్చిమాన",
    "5277": "▁పాలించారు",
    "5278": "▁పూర్తిగా",
    "5279": "▁పేర్లు",
    "5280": "▁ప్రసిద్ధి",
    "5281": "▁ప్రజలు",
    "5282": "▁ప్రజాదరణ",
    "5283": "▁ప్రతిపాదనకు",
    "5284": "▁ప్రపంచములో",
    "5285": "▁ప్రపంచంలోని",
    "5286": "▁ప్రభుత్వాన్ని",
    "5287": "▁ప్రాంతాల్లో",
    "5288": "▁ప్రాంతీయ",
    "5289": "▁బంగారు",
    "5290": "▁బ్రిటిషు",
    "5291": "▁బ్రిటిష్",
    "5292": "▁భాగాన్ని",
    "5293": "▁భావిస్తారు",
    "5294": "▁భారత్‌లో",
    "5295": "▁భాషలను",
    "5296": "▁భాషా",
    "5297": "▁భూటాన్",
    "5298": "▁భూభాగం",
    "5299": "▁భౌగోళిక",
    "5300": "▁మరో",
    "5301": "▁మలయాళం",
    "5302": "▁మాట్లాడే",
    "5303": "▁మహాత్మా",
    "5304": "▁మహాసముద్రం",
    "5305": "▁మాత్రమే",
    "5306": "▁మీదగా",
    "5307": "▁ముడి",
    "5308": "▁ముస్లిం",
    "5309": "▁ముఖ్యంగా",
    "5310": "▁మొదలైనవి",
    "5311": "▁మౌర్య",
    "5312": "▁రాజ్యంగా",
    "5313": "▁రాజ్యాంగం",
    "5314": "▁రాజ్యాలుగా",
    "5315": "▁రెండవ",
    "5316": "▁లకు",
    "5317": "▁లౌకిక",
    "5318": "▁వాయు",
    "5319": "▁వలన",
    "5320": "▁వలస",
    "5321": "▁విదేశీ",
    "5322": "▁విషయాలు",
    "5323": "▁విద్యుత్",
    "5324": "▁వేల",
    "5325": "▁వ్యవస్థకు",
    "5326": "▁శాసన",
    "5327": "▁శెలవుదినాలు",
    "5328": "▁సభను",
    "5329": "▁సభ్యులు",
    "5330": "▁సమరం",
    "5331": "▁సరిహద్దుగా",
    "5332": "▁సామాజిక",
    "5333": "▁సాంకేతిక",
    "5334": "▁సాధించిన",
    "5335": "▁సామర్థ్యం",
    "5336": "▁సామ్రాజ్యం",
    "5337": "▁సారస్వతం",
    "5338": "▁సార్వత్రిక",
    "5339": "▁సుప్రీం",
    "5340": "▁సూచించినట్లు",
    "5341": "▁సైనిక",
    "5342": "▁సౌకర్యాలలో",
    "5343": "▁సౌకర్యాలు",
    "5344": "▁స్త్రీలు",
    "5345": "▁స్థావరాలు",
    "5346": "▁స్థానం",
    "5347": "▁స్థానాలను",
    "5348": "▁స్వాతంత్ర్యం",
    "5349": "▁హిమాలయ",
    "5350": "15",
    "5351": "25",
    "5352": "2004",
    "5353": "36",
    "5354": "48",
    "5355": "70",
    "5356": "81",
    "5357": "Ar",
    "5358": "Art",
    "5359": "Artic",
    "5360": "Bh",
    "5361": "India",
    "5362": "PP",
    "5363": "aem",
    "5364": "aith",
    "5365": "ares",
    "5366": "aces",
    "5367": "achine",
    "5368": "adem",
    "5369": "ademi",
    "5370": "aemen",
    "5371": "ake",
    "5372": "akh",
    "5373": "aled",
    "5374": "alwars",
    "5375": "amy",
    "5376": "anc",
    "5377": "anded",
    "5378": "ando",
    "5379": "andy",
    "5380": "andoor",
    "5381": "angra",
    "5382": "anuf",
    "5383": "anufact",
    "5384": "app",
    "5385": "aps",
    "5386": "aras",
    "5387": "arb",
    "5388": "arc",
    "5389": "ased",
    "5390": "asi",
    "5391": "asive",
    "5392": "asured",
    "5393": "asures",
    "5394": "astoral",
    "5395": "atak",
    "5396": "atives",
    "5397": "atom",
    "5398": "atory",
    "5399": "atri",
    "5400": "atures",
    "5401": "aval",
    "5402": "aved",
    "5403": "avira",
    "5404": "ayat",
    "5405": "bour",
    "5406": "ched",
    "5407": "cil",
    "5408": "cover",
    "5409": "ction",
    "5410": "ctions",
    "5411": "castes",
    "5412": "ceed",
    "5413": "chaemen",
    "5414": "criminatory",
    "5415": "dd",
    "5416": "dent",
    "5417": "down",
    "5418": "dient",
    "5419": "dif",
    "5420": "dified",
    "5421": "duction",
    "5422": "ead",
    "5423": "east",
    "5424": "eolog",
    "5425": "eth",
    "5426": "ective",
    "5427": "ectively",
    "5428": "edd",
    "5429": "ently",
    "5430": "erly",
    "5431": "erved",
    "5432": "erves",
    "5433": "espite",
    "5434": "espread",
    "5435": "etwor",
    "5436": "etwork",
    "5437": "ettled",
    "5438": "etworks",
    "5439": "fast",
    "5440": "fer",
    "5441": "fl",
    "5442": "gener",
    "5443": "ganised",
    "5444": "gest",
    "5445": "han",
    "5446": "head",
    "5447": "hered",
    "5448": "heren",
    "5449": "hip",
    "5450": "iant",
    "5451": "ip",
    "5452": "iqu",
    "5453": "ires",
    "5454": "ibet",
    "5455": "ible",
    "5456": "ick",
    "5457": "icon",
    "5458": "idel",
    "5459": "idespread",
    "5460": "iding",
    "5461": "iger",
    "5462": "ighbour",
    "5463": "iled",
    "5464": "ili",
    "5465": "ilm",
    "5466": "ils",
    "5467": "ilitated",
    "5468": "illed",
    "5469": "iming",
    "5470": "inct",
    "5471": "indh",
    "5472": "irm",
    "5473": "ision",
    "5474": "isions",
    "5475": "isting",
    "5476": "ital",
    "5477": "itude",
    "5478": "ival",
    "5479": "ixed",
    "5480": "key",
    "5481": "king",
    "5482": "lands",
    "5483": "ling",
    "5484": "ls",
    "5485": "laiming",
    "5486": "lements",
    "5487": "ma",
    "5488": "mers",
    "5489": "mental",
    "5490": "mented",
    "5491": "mission",
    "5492": "mphi",
    "5493": "nic",
    "5494": "ning",
    "5495": "ns",
    "5496": "niqu",
    "5497": "nov",
    "5498": "och",
    "5499": "ogamy",
    "5500": "oint",
    "5501": "ointed",
    "5502": "olcan",
    "5503": "ological",
    "5504": "onomet",
    "5505": "oration",
    "5506": "ority",
    "5507": "orne",
    "5508": "orting",
    "5509": "osa",
    "5510": "osing",
    "5511": "osition",
    "5512": "osp",
    "5513": "osphere",
    "5514": "osts",
    "5515": "ought",
    "5516": "passing",
    "5517": "ple",
    "5518": "pro",
    "5519": "pts",
    "5520": "pped",
    "5521": "rical",
    "5522": "ring",
    "5523": "rup",
    "5524": "rac",
    "5525": "reak",
    "5526": "ream",
    "5527": "ressive",
    "5528": "rigonomet",
    "5529": "ronic",
    "5530": "ronz",
    "5531": "side",
    "5532": "sp",
    "5533": "sur",
    "5534": "sel",
    "5535": "soon",
    "5536": "stead",
    "5537": "stitutes",
    "5538": "string",
    "5539": "te",
    "5540": "tell",
    "5541": "tive",
    "5542": "tr",
    "5543": "tre",
    "5544": "tt",
    "5545": "tu",
    "5546": "tile",
    "5547": "tiles",
    "5548": "uisine",
    "5549": "uls",
    "5550": "urs",
    "5551": "vasive",
    "5552": "vene",
    "5553": "vidence",
    "5554": "wan",
    "5555": "wing",
    "5556": "ying",
    "5557": "yth",
    "5558": "yalty",
    "5559": "ypically",
    "5560": "zed",
    "5561": "ār",
    "5562": "ंह",
    "5563": "इन",
    "5564": "जरा",
    "5565": "डी",
    "5566": "तः",
    "5567": "तमान",
    "5568": "तिह",
    "5569": "तिहास",
    "5570": "द्योगिक",
    "5571": "पीय",
    "5572": "पूर्ण",
    "5573": "फल",
    "5574": "बी",
    "5575": "मह",
    "5576": "मी",
    "5577": "म्ब",
    "5578": "यास",
    "5579": "रु",
    "5580": "रोपीय",
    "5581": "र्थन",
    "5582": "वी",
    "5583": "वीं",
    "5584": "वायु",
    "5585": "शत",
    "5586": "ष्ठ",
    "5587": "ष्ण",
    "5588": "सित",
    "5589": "स्त्र",
    "5590": "हि",
    "5591": "ाई",
    "5592": "ाह",
    "5593": "ांड",
    "5594": "िन्न",
    "5595": "िल्",
    "5596": "िस्",
    "5597": "ोच्च",
    "5598": "ोढ़",
    "5599": "ोसी",
    "5600": "्रीका",
    "5601": "க்கண்ட",
    "5602": "க்குத",
    "5603": "ங்களைக்",
    "5604": "ங்களைப்",
    "5605": "ச்சிய",
    "5606": "ட்ப",
    "5607": "தை",
    "5608": "த்தின",
    "5609": "த்துக்கு",
    "5610": "த்தைப்",
    "5611": "னநாயக",
    "5612": "பகற்ப",
    "5613": "ப்பாட",
    "5614": "ப்பிய",
    "5615": "ப்பிர",
    "5616": "ப்பூ",
    "5617": "ப்படியான",
    "5618": "ப்படுத்தப்பட்ட",
    "5619": "ப்பிரிக்க",
    "5620": "மிட",
    "5621": "ரப்",
    "5622": "ரிக",
    "5623": "ரே",
    "5624": "ரை",
    "5625": "ர்களைக்",
    "5626": "ர்ந்தெடு",
    "5627": "ர்வீக",
    "5628": "றிவு",
    "5629": "ழி",
    "5630": "ழுவ",
    "5631": "ழ்க",
    "5632": "வர்கள்",
    "5633": "வுக",
    "5634": "வர்களாக",
    "5635": "வற்றில்",
    "5636": "ாப்",
    "5637": "ாரி",
    "5638": "ாமல்",
    "5639": "ாரம்",
    "5640": "ாளராக",
    "5641": "ாளர்",
    "5642": "ிப்",
    "5643": "ிழ்",
    "5644": "ித்துவ",
    "5645": "ினும்",
    "5646": "ிப்படுத்த",
    "5647": "ியும்",
    "5648": "ிருக்க",
    "5649": "ுத்த",
    "5650": "ுகின்றன",
    "5651": "ுகின்றனர்",
    "5652": "ுகளாக",
    "5653": "ுதியாக",
    "5654": "ூட்ட",
    "5655": "ெடுத்த",
    "5656": "ேச",
    "5657": "ேரத்தில்",
    "5658": "ைகளின்",
    "5659": "ையல்",
    "5660": "ంజ",
    "5661": "ంకా",
    "5662": "ంకెలు",
    "5663": "ంచిన",
    "5664": "ంటుంది",
    "5665": "ంటున్న",
    "5666": "ంటూ",
    "5667": "ంటో",
    "5668": "ండా",
    "5669": "ండో",
    "5670": "ండ్",
    "5671": "ందింది",
    "5672": "కూ",
    "5673": "కృ",
    "5674": "క్య",
    "5675": "కుల",
    "5676": "క్కను",
    "5677": "గే",
    "5678": "గినది",
    "5679": "చయ",
    "5680": "చయిత",
    "5681": "చ్చే",
    "5682": "జీ",
    "5683": "జ్",
    "5684": "టన్",
    "5685": "టలు",
    "5686": "టా",
    "5687": "ట్ర",
    "5688": "ట్‌",
    "5689": "టీవ",
    "5690": "ట్రో",
    "5691": "ట్లకు",
    "5692": "డమ",
    "5693": "డుతున్న",
    "5694": "డైన",
    "5695": "డివి",
    "5696": "డుకుంటూ",
    "5697": "ఢాకా",
    "5698": "తను",
    "5699": "త్యం",
    "5700": "తరాలు",
    "5701": "తులతో",
    "5702": "త్రి",
    "5703": "త్వంలో",
    "5704": "థాలు",
    "5705": "దావ",
    "5706": "దీ",
    "5707": "దులు",
    "5708": "దరంగ",
    "5709": "దాయంలో",
    "5710": "దిన",
    "5711": "దుగా",
    "5712": "దేశాలు",
    "5713": "ధీన",
    "5714": "నం",
    "5715": "నక",
    "5716": "నలు",
    "5717": "నిక",
    "5718": "నాథ",
    "5719": "న్నీ",
    "5720": "పం",
    "5721": "పరి",
    "5722": "పో",
    "5723": "పాంత",
    "5724": "పాటు",
    "5725": "పాడుకుంటూ",
    "5726": "పావ",
    "5727": "పుకో",
    "5728": "ప్పుకో",
    "5729": "ప్పటికినీ",
    "5730": "బి",
    "5731": "బడ్డీ",
    "5732": "భరత",
    "5733": "భవ",
    "5734": "భూ",
    "5735": "భాష",
    "5736": "భూమ",
    "5737": "మల",
    "5738": "మహ",
    "5739": "మారు",
    "5740": "మించ",
    "5741": "ములు",
    "5742": "మూ",
    "5743": "ముఖ్య",
    "5744": "ముద్రతీ",
    "5745": "మెంట",
    "5746": "మేనని",
    "5747": "యమించ",
    "5748": "యు",
    "5749": "యోగ",
    "5750": "యోజ",
    "5751": "రాజ",
    "5752": "రిగా",
    "5753": "రిస్త",
    "5754": "రేడు",
    "5755": "ర్పు",
    "5756": "ర్లు",
    "5757": "ర్శ",
    "5758": "ర్షణ",
    "5759": "ర్‌ల",
    "5760": "లబ",
    "5761": "లమెంట",
    "5762": "లంక",
    "5763": "లాహ",
    "5764": "లాహో",
    "5765": "లుగా",
    "5766": "లువ",
    "5767": "లేదు",
    "5768": "లోయ",
    "5769": "వల్ల",
    "5770": "వార",
    "5771": "విం",
    "5772": "వుతుంది",
    "5773": "వ్యవస్థ",
    "5774": "వచ్చని",
    "5775": "వాదం",
    "5776": "విత్ర",
    "5777": "శాఖ",
    "5778": "శీ",
    "5779": "శ్ర",
    "5780": "సభ",
    "5781": "సాయ",
    "5782": "సీ",
    "5783": "సే",
    "5784": "స్ర",
    "5785": "స్కరణ",
    "5786": "స్తులు",
    "5787": "స్రాబ్",
    "5788": "స్రాబ్ది",
    "5789": "ాంబ",
    "5790": "ామి",
    "5791": "ాకీ",
    "5792": "ాతం",
    "5793": "ాదు",
    "5794": "ానీ",
    "5795": "ాబాదు",
    "5796": "ార్క్",
    "5797": "ార్త",
    "5798": "ాలే",
    "5799": "ితి",
    "5800": "ిర",
    "5801": "ిళ",
    "5802": "ింగ్",
    "5803": "ికలు",
    "5804": "ిక్‌",
    "5805": "ిస్తున్న",
    "5806": "ీక్ష",
    "5807": "ీకరణ",
    "5808": "ుల్",
    "5809": "ుకొని",
    "5810": "ుతూ",
    "5811": "ులను",
    "5812": "ూనది",
    "5813": "ూపాంత",
    "5814": "ూర్పు",
    "5815": "ెట్రో",
    "5816": "ెర్",
    "5817": "ెస్",
    "5818": "ెలకొ",
    "5819": "ెహ్ర",
    "5820": "ౌద్ధ",
    "5821": "ౌర",
    "5822": "్రై",
    "5823": "్రామ",
    "5824": "‌సభ",
    "5825": "▁)",
    "5826": "▁enc",
    "5827": "▁ide",
    "5828": "▁ro",
    "5829": "▁टे",
    "5830": "▁ஹ",
    "5831": "▁ఓ",
    "5832": "▁థ",
    "5833": "▁ధ",
    "5834": "▁2006",
    "5835": "▁32",
    "5836": "▁53",
    "5837": "▁63",
    "5838": "▁7000",
    "5839": "▁Ac",
    "5840": "▁Achaemen",
    "5841": "▁Bah",
    "5842": "▁Bal",
    "5843": "▁Bihar",
    "5844": "▁Champ",
    "5845": "▁Chand",
    "5846": "▁Chol",
    "5847": "▁Dis",
    "5848": "▁El",
    "5849": "▁Inc",
    "5850": "▁International",
    "5851": "▁Lat",
    "5852": "▁Machine",
    "5853": "▁Marat",
    "5854": "▁Nep",
    "5855": "▁Ni",
    "5856": "▁Out",
    "5857": "▁Over",
    "5858": "▁Re",
    "5859": "▁Republic",
    "5860": "▁Sant",
    "5861": "▁Ter",
    "5862": "▁Tibet",
    "5863": "▁Vis",
    "5864": "▁Wayback",
    "5865": "▁amphi",
    "5866": "▁aut",
    "5867": "▁abs",
    "5868": "▁affirm",
    "5869": "▁agree",
    "5870": "▁anatom",
    "5871": "▁artic",
    "5872": "▁attract",
    "5873": "▁bal",
    "5874": "▁ban",
    "5875": "▁bar",
    "5876": "▁break",
    "5877": "▁bronz",
    "5878": "▁cin",
    "5879": "▁cor",
    "5880": "▁cust",
    "5881": "▁calend",
    "5882": "▁chap",
    "5883": "▁committ",
    "5884": "▁compos",
    "5885": "▁contra",
    "5886": "▁dem",
    "5887": "▁desc",
    "5888": "▁dest",
    "5889": "▁dh",
    "5890": "▁doc",
    "5891": "▁dy",
    "5892": "▁defin",
    "5893": "▁devast",
    "5894": "▁distinct",
    "5895": "▁emb",
    "5896": "▁evol",
    "5897": "▁elect",
    "5898": "▁emphas",
    "5899": "▁exerc",
    "5900": "▁fash",
    "5901": "▁fest",
    "5902": "▁film",
    "5903": "▁flo",
    "5904": "▁flour",
    "5905": "▁geograph",
    "5906": "▁geolog",
    "5907": "▁govern",
    "5908": "▁gro",
    "5909": "▁gradient",
    "5910": "▁innov",
    "5911": "▁initi",
    "5912": "▁lab",
    "5913": "▁ling",
    "5914": "▁like",
    "5915": "▁mand",
    "5916": "▁manufact",
    "5917": "▁marry",
    "5918": "▁medic",
    "5919": "▁neighbour",
    "5920": "▁obstruc",
    "5921": "▁pass",
    "5922": "▁pet",
    "5923": "▁ple",
    "5924": "▁port",
    "5925": "▁pot",
    "5926": "▁patron",
    "5927": "▁persist",
    "5928": "▁proj",
    "5929": "▁promin",
    "5930": "▁rati",
    "5931": "▁rece",
    "5932": "▁relief",
    "5933": "▁rest",
    "5934": "▁refl",
    "5935": "▁regist",
    "5936": "▁report",
    "5937": "▁represent",
    "5938": "▁she",
    "5939": "▁siz",
    "5940": "▁suc",
    "5941": "▁sw",
    "5942": "▁scen",
    "5943": "▁separat",
    "5944": "▁southwest",
    "5945": "▁stif",
    "5946": "▁stri",
    "5947": "▁tandoor",
    "5948": "▁tun",
    "5949": "▁techniqu",
    "5950": "▁vary",
    "5951": "▁volcan",
    "5952": "▁wet",
    "5953": "▁अग",
    "5954": "▁अब",
    "5955": "▁अस",
    "5956": "▁अंग्रेज़ी",
    "5957": "▁अधिकार",
    "5958": "▁अप्रैल",
    "5959": "▁अफ्रीका",
    "5960": "▁अभी",
    "5961": "▁अमरी",
    "5962": "▁अर्थव्यवस्था",
    "5963": "▁आन्द",
    "5964": "▁आया",
    "5965": "▁आदि",
    "5966": "▁इसकी",
    "5967": "▁उद्योग",
    "5968": "▁उत्पाद",
    "5969": "▁ऋतु",
    "5970": "▁करता",
    "5971": "▁केवल",
    "5972": "▁जाना",
    "5973": "▁जै",
    "5974": "▁जबकि",
    "5975": "▁जलवायु",
    "5976": "▁जलोढ़",
    "5977": "▁तो",
    "5978": "▁दृष्ट",
    "5979": "▁निय",
    "5980": "▁पड़ोसी",
    "5981": "▁प्रयास",
    "5982": "▁प्रतिशत",
    "5983": "▁बनी",
    "5984": "▁बै",
    "5985": "▁बनाने",
    "5986": "▁भाजपा",
    "5987": "▁महा",
    "5988": "▁मो",
    "5989": "▁माना",
    "5990": "▁मिला",
    "5991": "▁यूरोपीय",
    "5992": "▁राजनीतिक",
    "5993": "▁ले",
    "5994": "▁लाख",
    "5995": "▁वर्ण",
    "5996": "▁वर्तमान",
    "5997": "▁विवाद",
    "5998": "▁विभिन्न",
    "5999": "▁व्यापार",
    "6000": "▁शिक",
    "6001": "▁श्री",
    "6002": "▁सी",
    "6003": "▁सु",
    "6004": "▁सू",
    "6005": "▁समर्थन",
    "6006": "▁समाप्त",
    "6007": "▁सर्वोच्च",
    "6008": "▁स्थापना",
    "6009": "▁हिन्दू",
    "6010": "▁होते",
    "6011": "▁१९६",
    "6012": "▁२०",
    "6013": "▁அண்",
    "6014": "▁அந்த",
    "6015": "▁அருக",
    "6016": "▁அவர்கள",
    "6017": "▁அடர்த்த",
    "6018": "▁அந்நேரத்தில்",
    "6019": "▁அரசின்",
    "6020": "▁அரசு",
    "6021": "▁அளவுக்கு",
    "6022": "▁ஆப்பிரிக்க",
    "6023": "▁ஆர",
    "6024": "▁ஆள",
    "6025": "▁ஆகியவற்றை",
    "6026": "▁ஆதிக்க",
    "6027": "▁இன்ற",
    "6028": "▁இராச்சிய",
    "6029": "▁இலட்சம்",
    "6030": "▁இவ்வாறு",
    "6031": "▁உச்ச",
    "6032": "▁எந்த",
    "6033": "▁எண்ணிக்கைய",
    "6034": "▁எதிர்",
    "6035": "▁எனினும்",
    "6036": "▁ஏற்ப",
    "6037": "▁ஏவுக",
    "6038": "▁ஒன்றிணை",
    "6039": "▁கங்க",
    "6040": "▁கடு",
    "6041": "▁கத",
    "6042": "▁கிட்ட",
    "6043": "▁கைய",
    "6044": "▁கல்வியறிவு",
    "6045": "▁காரணமானது",
    "6046": "▁கிண்ண",
    "6047": "▁குறுக",
    "6048": "▁குழந்த",
    "6049": "▁கொண்டிருந்த",
    "6050": "▁சக",
    "6051": "▁சமீபத்திய",
    "6052": "▁சிந்து",
    "6053": "▁செய்யப்பட்ட",
    "6054": "▁தக்க",
    "6055": "▁தட்ட",
    "6056": "▁தந்த",
    "6057": "▁தய",
    "6058": "▁தவிர",
    "6059": "▁திட்ட",
    "6060": "▁தமிழ்",
    "6061": "▁தலைவர",
    "6062": "▁திருமண",
    "6063": "▁தீபகற்ப",
    "6064": "▁துணைக்",
    "6065": "▁துணைக்கண்ட",
    "6066": "▁துறையானது",
    "6067": "▁தேர்ந்தெடு",
    "6068": "▁தேர்தலில்",
    "6069": "▁தொகைக்",
    "6070": "▁தொடர்ப",
    "6071": "▁நி",
    "6072": "▁நிர",
    "6073": "▁நே",
    "6074": "▁நோ",
    "6075": "▁நடுவண்",
    "6076": "▁நாடக",
    "6077": "▁நாடாக",
    "6078": "▁நிலையில்",
    "6079": "▁நீர்",
    "6080": "▁நேரத்தில்",
    "6081": "▁பள்ள",
    "6082": "▁பகுதியில்",
    "6083": "▁பகுதிகளில்",
    "6084": "▁பஞ்சாப",
    "6085": "▁பரவிய",
    "6086": "▁பாண",
    "6087": "▁பூர்வீக",
    "6088": "▁பேரரசு",
    "6089": "▁மண",
    "6090": "▁மந்திர",
    "6091": "▁மறை",
    "6092": "▁முடிவ",
    "6093": "▁முகலாயப்",
    "6094": "▁மூன்றாவது",
    "6095": "▁வறு",
    "6096": "▁வாய்",
    "6097": "▁வீ",
    "6098": "▁வகுத்தது",
    "6099": "▁வரலாற்ற",
    "6100": "▁வருகிறது",
    "6101": "▁வளரும்",
    "6102": "▁வழக்க",
    "6103": "▁விச",
    "6104": "▁விட",
    "6105": "▁விட்ட",
    "6106": "▁விளையாட்டு",
    "6107": "▁అణ",
    "6108": "▁అన్ని",
    "6109": "▁అప్ప",
    "6110": "▁ఆసియా",
    "6111": "▁ఆఫ్ఘనిస్తాన్",
    "6112": "▁ఇండో",
    "6113": "▁ఇక్క",
    "6114": "▁ఇటీవ",
    "6115": "▁ఇతరదేశ",
    "6116": "▁ఇవిక",
    "6117": "▁ఉపయోగ",
    "6118": "▁ఎన్నుకు",
    "6119": "▁ఏక",
    "6120": "▁ఐక్య",
    "6121": "▁ఒలంప",
    "6122": "▁కబడ్డీ",
    "6123": "▁కలు",
    "6124": "▁కృ",
    "6125": "▁క్రి",
    "6126": "▁కాపాడుకుంటూ",
    "6127": "▁కాలే",
    "6128": "▁కూడుకొని",
    "6129": "▁గంగ",
    "6130": "▁గమన",
    "6131": "▁గోదావ",
    "6132": "▁చదరంగ",
    "6133": "▁చవి",
    "6134": "▁చిరు",
    "6135": "▁చెప్పుకో",
    "6136": "▁జో",
    "6137": "▁టైటి",
    "6138": "▁తత్వ",
    "6139": "▁తర్వ",
    "6140": "▁తూర్పు",
    "6141": "▁తె",
    "6142": "▁తే",
    "6143": "▁తమిళ",
    "6144": "▁దాట",
    "6145": "▁నాయక",
    "6146": "▁నె",
    "6147": "▁నెలకొ",
    "6148": "▁నిడివి",
    "6149": "▁నియమించ",
    "6150": "▁న్యాయవ్యవస్థ",
    "6151": "▁పర్వ",
    "6152": "▁పల్ల",
    "6153": "▁పవిత్ర",
    "6154": "▁ప్ల",
    "6155": "▁పతాక",
    "6156": "▁పరీక్ష",
    "6157": "▁పార్లమెంట",
    "6158": "▁పాలనలో",
    "6159": "▁పీఠభూమ",
    "6160": "▁పురుషుల",
    "6161": "▁పూర్వ",
    "6162": "▁ప్రత్య",
    "6163": "▁ప్రయోజ",
    "6164": "▁ప్రతిప",
    "6165": "▁ప్రారంభించ",
    "6166": "▁బౌద్ధ",
    "6167": "▁బంగ్లాదేశ్‌",
    "6168": "▁బ్రిటీ",
    "6169": "▁భక్తి",
    "6170": "▁భాగ",
    "6171": "▁మర",
    "6172": "▁మాన",
    "6173": "▁మహిళ",
    "6174": "▁మొగలు",
    "6175": "▁రకాలు",
    "6176": "▁రచయిత",
    "6177": "▁రి",
    "6178": "▁రూప",
    "6179": "▁రూపాంత",
    "6180": "▁రెండో",
    "6181": "▁రైల్వేశాఖ",
    "6182": "▁లా",
    "6183": "▁లె",
    "6184": "▁లోక్‌సభ",
    "6185": "▁వం",
    "6186": "▁వాద",
    "6187": "▁వ్య",
    "6188": "▁వ్యవ",
    "6189": "▁వాహ",
    "6190": "▁విధ",
    "6191": "▁విమాన",
    "6192": "▁విలువ",
    "6193": "▁విశ్వ",
    "6194": "▁విస్తీర్ణ",
    "6195": "▁వెల్ల",
    "6196": "▁వెబ్",
    "6197": "▁వేద",
    "6198": "▁వ్యాపార",
    "6199": "▁శి",
    "6200": "▁సముద్రతీ",
    "6201": "▁సిక్",
    "6202": "▁సంస్కరణ",
    "6203": "▁సంగీత",
    "6204": "▁సంవత్సర",
    "6205": "▁సభ్య",
    "6206": "▁సమాజ",
    "6207": "▁సహస్రాబ్ది",
    "6208": "▁సామ్రాజ్య",
    "6209": "▁సింధూనది",
    "6210": "▁హాకీ",
    "6211": "▁హిందూస్త",
    "6212": "▁హైదర",
    "6213": "22",
    "6214": "29",
    "6215": "2001",
    "6216": "2009",
    "6217": "85",
    "6218": "93",
    "6219": "Congress",
    "6220": "Gang",
    "6221": "Gangetic",
    "6222": "Prol",
    "6223": "Prolif",
    "6224": "Proliferation",
    "6225": "Zor",
    "6226": "Zoro",
    "6227": "Zoroastri",
    "6228": "Zoroastrianism",
    "6229": "ahar",
    "6230": "air",
    "6231": "aver",
    "6232": "abha",
    "6233": "ackb",
    "6234": "ackets",
    "6235": "ackbuc",
    "6236": "ackbuck",
    "6237": "adwe",
    "6238": "adweep",
    "6239": "agana",
    "6240": "aharl",
    "6241": "aharlal",
    "6242": "ailand",
    "6243": "airs",
    "6244": "ajpay",
    "6245": "ajority",
    "6246": "ajpayee",
    "6247": "akshadweep",
    "6248": "akshagana",
    "6249": "alf",
    "6250": "amed",
    "6251": "ammu",
    "6252": "aning",
    "6253": "anagara",
    "6254": "andar",
    "6255": "andardis",
    "6256": "andardised",
    "6257": "antially",
    "6258": "aput",
    "6259": "aputra",
    "6260": "arger",
    "6261": "arrow",
    "6262": "arents",
    "6263": "arnatic",
    "6264": "ase",
    "6265": "asions",
    "6266": "assical",
    "6267": "assin",
    "6268": "assinated",
    "6269": "aterial",
    "6270": "attle",
    "6271": "atts",
    "6272": "atedly",
    "6273": "aterials",
    "6274": "atherers",
    "6275": "aticians",
    "6276": "avated",
    "6277": "aves",
    "6278": "averi",
    "6279": "avoury",
    "6280": "awaharlal",
    "6281": "awatts",
    "6282": "ayanagara",
    "6283": "bably",
    "6284": "bai",
    "6285": "bellion",
    "6286": "body",
    "6287": "co",
    "6288": "common",
    "6289": "centage",
    "6290": "centur",
    "6291": "century",
    "6292": "cript",
    "6293": "cto",
    "6294": "ctober",
    "6295": "del",
    "6296": "dus",
    "6297": "diment",
    "6298": "diverse",
    "6299": "diction",
    "6300": "dicts",
    "6301": "duce",
    "6302": "ealth",
    "6303": "eatedly",
    "6304": "edic",
    "6305": "eously",
    "6306": "econ",
    "6307": "economic",
    "6308": "efly",
    "6309": "elig",
    "6310": "elfare",
    "6311": "eligion",
    "6312": "ends",
    "6313": "eneral",
    "6314": "ength",
    "6315": "ential",
    "6316": "ercontinent",
    "6317": "eror",
    "6318": "erala",
    "6319": "ercul",
    "6320": "erculos",
    "6321": "erculosis",
    "6322": "ereal",
    "6323": "essential",
    "6324": "etah",
    "6325": "eticide",
    "6326": "everal",
    "6327": "ext",
    "6328": "fort",
    "6329": "formed",
    "6330": "fortable",
    "6331": "gatherers",
    "6332": "gency",
    "6333": "gin",
    "6334": "grow",
    "6335": "gadiverse",
    "6336": "ganiz",
    "6337": "ganization",
    "6338": "ginnings",
    "6339": "growing",
    "6340": "hand",
    "6341": "hau",
    "6342": "ho",
    "6343": "house",
    "6344": "hark",
    "6345": "harkhand",
    "6346": "hereas",
    "6347": "hest",
    "6348": "hess",
    "6349": "ily",
    "6350": "ianity",
    "6351": "iduous",
    "6352": "igawatts",
    "6353": "ilar",
    "6354": "ilding",
    "6355": "imultan",
    "6356": "imultaneously",
    "6357": "inces",
    "6358": "inth",
    "6359": "includ",
    "6360": "including",
    "6361": "isans",
    "6362": "isdiction",
    "6363": "istory",
    "6364": "itiz",
    "6365": "itizens",
    "6366": "iva",
    "6367": "janta",
    "6368": "jayanagara",
    "6369": "kn",
    "6370": "knit",
    "6371": "legates",
    "6372": "leges",
    "6373": "limate",
    "6374": "lowed",
    "6375": "majority",
    "6376": "mns",
    "6377": "molog",
    "6378": "mework",
    "6379": "mendments",
    "6380": "mergency",
    "6381": "missions",
    "6382": "mology",
    "6383": "oeticide",
    "6384": "ores",
    "6385": "ove",
    "6386": "ovi",
    "6387": "oints",
    "6388": "olent",
    "6389": "ollowing",
    "6390": "olved",
    "6391": "olitics",
    "6392": "ommonwe",
    "6393": "ommonwealth",
    "6394": "onse",
    "6395": "ondw",
    "6396": "ondwana",
    "6397": "orial",
    "6398": "ormation",
    "6399": "ortheast",
    "6400": "osi",
    "6401": "otech",
    "6402": "otsp",
    "6403": "otspots",
    "6404": "ottom",
    "6405": "ountries",
    "6406": "ouses",
    "6407": "oviet",
    "6408": "pidly",
    "6409": "ption",
    "6410": "pendent",
    "6411": "puts",
    "6412": "rdu",
    "6413": "rganization",
    "6414": "rising",
    "6415": "reathing",
    "6416": "reenhouse",
    "6417": "remely",
    "6418": "resolved",
    "6419": "riors",
    "6420": "rist",
    "6421": "ristianity",
    "6422": "rought",
    "6423": "set",
    "6424": "scale",
    "6425": "sease",
    "6426": "shy",
    "6427": "stantially",
    "6428": "sty",
    "6429": "style",
    "6430": "tary",
    "6431": "tified",
    "6432": "tlement",
    "6433": "tymology",
    "6434": "uberculosis",
    "6435": "udy",
    "6436": "ulk",
    "6437": "umbai",
    "6438": "unter",
    "6439": "ups",
    "6440": "urisdiction",
    "6441": "ventually",
    "6442": "violence",
    "6443": "violent",
    "6444": "western",
    "6445": "year",
    "6446": "ंजा",
    "6447": "ंत्रिक",
    "6448": "ंबे",
    "6449": "क्",
    "6450": "क्षर",
    "6451": "चना",
    "6452": "तम",
    "6453": "त्या",
    "6454": "थी",
    "6455": "दार",
    "6456": "दारी",
    "6457": "द्योगिकी",
    "6458": "धार",
    "6459": "धानी",
    "6460": "ध्यम",
    "6461": "नत",
    "6462": "नै",
    "6463": "नेमा",
    "6464": "नैतिक",
    "6465": "न्ध",
    "6466": "पि",
    "6467": "पेक्ष",
    "6468": "भाषा",
    "6469": "भाग",
    "6470": "महाद्वीप",
    "6471": "यन",
    "6472": "र्तग",
    "6473": "लिम",
    "6474": "ल्त",
    "6475": "ल्तनत",
    "6476": "वर्ष",
    "6477": "वास",
    "6478": "वादी",
    "6479": "सि",
    "6480": "सून",
    "6481": "स्लिम",
    "6482": "हुँच",
    "6483": "ाट",
    "6484": "ाजिक",
    "6485": "ादा",
    "6486": "ास्त",
    "6487": "िख",
    "6488": "िरा",
    "6489": "ियां",
    "6490": "िल्ली",
    "6491": "िसी",
    "6492": "ीर",
    "6493": "ुआ",
    "6494": "ुष",
    "6495": "ृतिक",
    "6496": "ेट",
    "6497": "ेल",
    "6498": "ेरिका",
    "6499": "ोटे",
    "6500": "ोव",
    "6501": "ौद्योगिकी",
    "6502": "ौह",
    "6503": "्ञ",
    "6504": "्‍",
    "6505": "्टा",
    "6506": "्यादा",
    "6507": "्यात",
    "6508": "५०",
    "6509": "உம்",
    "6510": "குத",
    "6511": "களில்",
    "6512": "களை",
    "6513": "க்காட்சி",
    "6514": "க்குக்",
    "6515": "ங்களையும்",
    "6516": "சரா",
    "6517": "சாம",
    "6518": "சுலாமிய",
    "6519": "ட்",
    "6520": "டுத்தர",
    "6521": "டைந்தது",
    "6522": "ண்டிய",
    "6523": "ண்டு",
    "6524": "தன்",
    "6525": "தால்",
    "6526": "தில்லை",
    "6527": "திப்",
    "6528": "துக்கப்பட்ட",
    "6529": "த்தன",
    "6530": "த்தீ",
    "6531": "த்திற்க",
    "6532": "ன்க",
    "6533": "ன்ம",
    "6534": "ன்கிழ",
    "6535": "ன்றாக",
    "6536": "பட்ச",
    "6537": "பூ",
    "6538": "பெ",
    "6539": "ப்பரப்ப",
    "6540": "ப்பானது",
    "6541": "ப்படலாம்",
    "6542": "ப்படுவதற்கு",
    "6543": "ப்புச்",
    "6544": "ப்பூர்வ",
    "6545": "மக்க",
    "6546": "மர்",
    "6547": "மாகக்",
    "6548": "மாகத்",
    "6549": "மாகும்",
    "6550": "முறை",
    "6551": "மையில்",
    "6552": "யற்",
    "6553": "யும்",
    "6554": "ரசீக",
    "6555": "ரிச",
    "6556": "ருக்குப்",
    "6557": "ருப்ப",
    "6558": "ற்பகுத",
    "6559": "லைவன",
    "6560": "ல்வாய",
    "6561": "ளர்ச்ச",
    "6562": "ழை",
    "6563": "வல்",
    "6564": "வ்",
    "6565": "வுப்",
    "6566": "ாகரிக",
    "6567": "ாட்டை",
    "6568": "ிந்து",
    "6569": "ிப்பு",
    "6570": "ிர்ந்து",
    "6571": "ியுள்ளது",
    "6572": "ிறார்",
    "6573": "ேக",
    "6574": "ொண்ட",
    "6575": "்களில்",
    "6576": "்களை",
    "6577": "▁%",
    "6578": "▁'",
    "6579": "▁Zoroastrianism",
    "6580": "▁essential",
    "6581": "▁ऐ",
    "6582": "▁ढ",
    "6583": "▁६",
    "6584": "▁ய",
    "6585": "▁1000",
    "6586": "▁120",
    "6587": "▁121",
    "6588": "▁140",
    "6589": "▁1500",
    "6590": "▁1848",
    "6591": "▁1949",
    "6592": "▁1957",
    "6593": "▁1966",
    "6594": "▁1972",
    "6595": "▁1981",
    "6596": "▁1988",
    "6597": "▁1989",
    "6598": "▁1995",
    "6599": "▁2019",
    "6600": "▁35",
    "6601": "▁39",
    "6602": "▁361",
    "6603": "▁43",
    "6604": "▁44",
    "6605": "▁45",
    "6606": "▁46",
    "6607": "▁600",
    "6608": "▁65",
    "6609": "▁68",
    "6610": "▁75",
    "6611": "▁93",
    "6612": "▁Agency",
    "6613": "▁Ajanta",
    "6614": "▁Akbar",
    "6615": "▁Alliance",
    "6616": "▁Asians",
    "6617": "▁Between",
    "6618": "▁Biodiversity",
    "6619": "▁Brahmaputra",
    "6620": "▁Carnatic",
    "6621": "▁Caves",
    "6622": "▁Chess",
    "6623": "▁Climate",
    "6624": "▁Commonwealth",
    "6625": "▁Cricket",
    "6626": "▁Culture",
    "6627": "▁Cups",
    "6628": "▁Chhau",
    "6629": "▁Christianity",
    "6630": "▁Classical",
    "6631": "▁Democratic",
    "6632": "▁Emergency",
    "6633": "▁Etymology",
    "6634": "▁Eastern",
    "6635": "▁Economy",
    "6636": "▁Eurasia",
    "6637": "▁Following",
    "6638": "▁Foreign",
    "6639": "▁General",
    "6640": "▁Gondwana",
    "6641": "▁Geography",
    "6642": "▁Gujarat",
    "6643": "▁Health",
    "6644": "▁History",
    "6645": "▁Hindus",
    "6646": "▁Hindustan",
    "6647": "▁Hindustani",
    "6648": "▁II",
    "6649": "▁Islamic",
    "6650": "▁Jammu",
    "6651": "▁Jawaharlal",
    "6652": "▁Jharkhand",
    "6653": "▁June",
    "6654": "▁Kaveri",
    "6655": "▁Kerala",
    "6656": "▁Kosi",
    "6657": "▁Lakshadweep",
    "6658": "▁Lankan",
    "6659": "▁Major",
    "6660": "▁Mumbai",
    "6661": "▁Modi",
    "6662": "▁Muslims",
    "6663": "▁NDA",
    "6664": "▁Northeast",
    "6665": "▁Ocean",
    "6666": "▁October",
    "6667": "▁Old",
    "6668": "▁Organization",
    "6669": "▁Party",
    "6670": "▁Politics",
    "6671": "▁President",
    "6672": "▁Pallavas",
    "6673": "▁Plain",
    "6674": "▁Punjabi",
    "6675": "▁Religion",
    "6676": "▁Rajiv",
    "6677": "▁Rajputs",
    "6678": "▁Sabha",
    "6679": "▁Several",
    "6680": "▁Simultaneously",
    "6681": "▁Some",
    "6682": "▁Soviet",
    "6683": "▁Sultanate",
    "6684": "▁Shastri",
    "6685": "▁Shiva",
    "6686": "▁Sikhs",
    "6687": "▁Still",
    "6688": "▁To",
    "6689": "▁Temple",
    "6690": "▁Thailand",
    "6691": "▁They",
    "6692": "▁UPA",
    "6693": "▁Urdu",
    "6694": "▁Vajpayee",
    "6695": "▁Vedic",
    "6696": "▁Vijayanagara",
    "6697": "▁WHO",
    "6698": "▁Yakshagana",
    "6699": "▁according",
    "6700": "▁amendments",
    "6701": "▁able",
    "6702": "▁above",
    "6703": "▁access",
    "6704": "▁action",
    "6705": "▁additional",
    "6706": "▁advent",
    "6707": "▁adopted",
    "6708": "▁advanced",
    "6709": "▁affairs",
    "6710": "▁against",
    "6711": "▁alliance",
    "6712": "▁any",
    "6713": "▁annual",
    "6714": "▁annually",
    "6715": "▁applied",
    "6716": "▁arisen",
    "6717": "▁archaic",
    "6718": "▁arms",
    "6719": "▁artisans",
    "6720": "▁artistic",
    "6721": "▁artists",
    "6722": "▁assassinated",
    "6723": "▁associated",
    "6724": "▁bonds",
    "6725": "▁bottom",
    "6726": "▁bread",
    "6727": "▁breathing",
    "6728": "▁brought",
    "6729": "▁bulk",
    "6730": "▁beginnings",
    "6731": "▁best",
    "6732": "▁biodiversity",
    "6733": "▁biotech",
    "6734": "▁births",
    "6735": "▁blackbuck",
    "6736": "▁borders",
    "6737": "▁briefly",
    "6738": "▁building",
    "6739": "▁cattle",
    "6740": "▁cereal",
    "6741": "▁citizens",
    "6742": "▁city",
    "6743": "▁countries",
    "6744": "▁cut",
    "6745": "▁carved",
    "6746": "▁centre",
    "6747": "▁chains",
    "6748": "▁child",
    "6749": "▁characteristic",
    "6750": "▁cheetah",
    "6751": "▁civilian",
    "6752": "▁close",
    "6753": "▁cloth",
    "6754": "▁cleared",
    "6755": "▁climatic",
    "6756": "▁cost",
    "6757": "▁coastal",
    "6758": "▁coastline",
    "6759": "▁coasts",
    "6760": "▁colleges",
    "6761": "▁colonial",
    "6762": "▁comfortable",
    "6763": "▁commerce",
    "6764": "▁company",
    "6765": "▁comprising",
    "6766": "▁complex",
    "6767": "▁consumption",
    "6768": "▁contributed",
    "6769": "▁cosine",
    "6770": "▁creating",
    "6771": "▁creativity",
    "6772": "▁data",
    "6773": "▁democracy",
    "6774": "▁democratic",
    "6775": "▁dense",
    "6776": "▁do",
    "6777": "▁domestic",
    "6778": "▁down",
    "6779": "▁drew",
    "6780": "▁dry",
    "6781": "▁due",
    "6782": "▁delegates",
    "6783": "▁dependent",
    "6784": "▁deciduous",
    "6785": "▁decreasing",
    "6786": "▁declared",
    "6787": "▁defeated",
    "6788": "▁did",
    "6789": "▁died",
    "6790": "▁disease",
    "6791": "▁diffused",
    "6792": "▁divorce",
    "6793": "▁dominance",
    "6794": "▁dominion",
    "6795": "▁edicts",
    "6796": "▁either",
    "6797": "▁emissions",
    "6798": "▁eventually",
    "6799": "▁economies",
    "6800": "▁emperor",
    "6801": "▁ending",
    "6802": "▁endemism",
    "6803": "▁ethical",
    "6804": "▁everyday",
    "6805": "▁excavated",
    "6806": "▁expanding",
    "6807": "▁exported",
    "6808": "▁exporter",
    "6809": "▁expansion",
    "6810": "▁expression",
    "6811": "▁extends",
    "6812": "▁extremely",
    "6813": "▁extensively",
    "6814": "▁extinct",
    "6815": "▁fish",
    "6816": "▁foeticide",
    "6817": "▁food",
    "6818": "▁factor",
    "6819": "▁family",
    "6820": "▁farmers",
    "6821": "▁feature",
    "6822": "▁females",
    "6823": "▁figure",
    "6824": "▁flowering",
    "6825": "▁followed",
    "6826": "▁fortified",
    "6827": "▁formally",
    "6828": "▁framework",
    "6829": "▁gained",
    "6830": "▁gigawatts",
    "6831": "▁give",
    "6832": "▁gods",
    "6833": "▁greenhouse",
    "6834": "▁garlic",
    "6835": "▁garment",
    "6836": "▁gender",
    "6837": "▁generally",
    "6838": "▁generated",
    "6839": "▁groups",
    "6840": "▁half",
    "6841": "▁hotspots",
    "6842": "▁house",
    "6843": "▁houses",
    "6844": "▁hubs",
    "6845": "▁hunter",
    "6846": "▁habitat",
    "6847": "▁hereditary",
    "6848": "▁highest",
    "6849": "▁highly",
    "6850": "▁historians",
    "6851": "▁historical",
    "6852": "▁historically",
    "6853": "▁humans",
    "6854": "▁hymns",
    "6855": "▁immediately",
    "6856": "▁imperial",
    "6857": "▁international",
    "6858": "▁income",
    "6859": "▁included",
    "6860": "▁includes",
    "6861": "▁increasing",
    "6862": "▁independent",
    "6863": "▁industrial",
    "6864": "▁information",
    "6865": "▁intervention",
    "6866": "▁involved",
    "6867": "▁involving",
    "6868": "▁isolation",
    "6869": "▁jackets",
    "6870": "▁jurisdiction",
    "6871": "▁kho",
    "6872": "▁kurta",
    "6873": "▁larger",
    "6874": "▁late",
    "6875": "▁length",
    "6876": "▁less",
    "6877": "▁lies",
    "6878": "▁list",
    "6879": "▁live",
    "6880": "▁living",
    "6881": "▁lands",
    "6882": "▁largely",
    "6883": "▁lasted",
    "6884": "▁layer",
    "6885": "▁legislature",
    "6886": "▁levels",
    "6887": "▁liberalisation",
    "6888": "▁limited",
    "6889": "▁literary",
    "6890": "▁literature",
    "6891": "▁males",
    "6892": "▁materials",
    "6893": "▁may",
    "6894": "▁migration",
    "6895": "▁mainly",
    "6896": "▁make",
    "6897": "▁manuscript",
    "6898": "▁marshy",
    "6899": "▁markets",
    "6900": "▁married",
    "6901": "▁mathematicians",
    "6902": "▁meaning",
    "6903": "▁medieval",
    "6904": "▁megadiverse",
    "6905": "▁merchants",
    "6906": "▁model",
    "6907": "▁narrow",
    "6908": "▁next",
    "6909": "▁ninth",
    "6910": "▁nationalist",
    "6911": "▁nominal",
    "6912": "▁nonviolent",
    "6913": "▁notable",
    "6914": "▁numerals",
    "6915": "▁open",
    "6916": "▁own",
    "6917": "▁occasions",
    "6918": "▁occurred",
    "6919": "▁occupation",
    "6920": "▁only",
    "6921": "▁onset",
    "6922": "▁orally",
    "6923": "▁organisation",
    "6924": "▁original",
    "6925": "▁overran",
    "6926": "▁pants",
    "6927": "▁parents",
    "6928": "▁points",
    "6929": "▁portion",
    "6930": "▁push",
    "6931": "▁paintings",
    "6932": "▁partially",
    "6933": "▁parties",
    "6934": "▁particular",
    "6935": "▁peace",
    "6936": "▁percentage",
    "6937": "▁plant",
    "6938": "▁played",
    "6939": "▁policy",
    "6940": "▁pollution",
    "6941": "▁princes",
    "6942": "▁prevent",
    "6943": "▁presence",
    "6944": "▁present",
    "6945": "▁president",
    "6946": "▁probably",
    "6947": "▁produce",
    "6948": "▁produced",
    "6949": "▁producer",
    "6950": "▁ranges",
    "6951": "▁role",
    "6952": "▁rapidly",
    "6953": "▁railways",
    "6954": "▁rebellion",
    "6955": "▁reforms",
    "6956": "▁related",
    "6957": "▁relative",
    "6958": "▁remained",
    "6959": "▁renewable",
    "6960": "▁repeatedly",
    "6961": "▁resources",
    "6962": "▁response",
    "6963": "▁returned",
    "6964": "▁ruled",
    "6965": "▁rulers",
    "6966": "▁ruling",
    "6967": "▁savoury",
    "6968": "▁saw",
    "6969": "▁self",
    "6970": "▁sole",
    "6971": "▁safeguard",
    "6972": "▁scheduled",
    "6973": "▁seats",
    "6974": "▁sediment",
    "6975": "▁sex",
    "6976": "▁series",
    "6977": "▁service",
    "6978": "▁settlement",
    "6979": "▁several",
    "6980": "▁severely",
    "6981": "▁shared",
    "6982": "▁shores",
    "6983": "▁short",
    "6984": "▁shoulder",
    "6985": "▁similar",
    "6986": "▁soon",
    "6987": "▁sports",
    "6988": "▁speakers",
    "6989": "▁spreading",
    "6990": "▁standardised",
    "6991": "▁study",
    "6992": "▁steamed",
    "6993": "▁strongly",
    "6994": "▁substantially",
    "6995": "▁subsequently",
    "6996": "▁supercontinent",
    "6997": "▁supreme",
    "6998": "▁supplanted",
    "6999": "▁survives",
    "7000": "▁systems",
    "7001": "▁ten",
    "7002": "▁tuberculosis",
    "7003": "▁taxes",
    "7004": "▁temples",
    "7005": "▁territorial",
    "7006": "▁thorn",
    "7007": "▁thereafter",
    "7008": "▁therefore",
    "7009": "▁threatened",
    "7010": "▁top",
    "7011": "▁towns",
    "7012": "▁transformed",
    "7013": "▁turned",
    "7014": "▁uncommon",
    "7015": "▁united",
    "7016": "▁unresolved",
    "7017": "▁untouchability",
    "7018": "▁unitary",
    "7019": "▁usually",
    "7020": "▁valley",
    "7021": "▁varna",
    "7022": "▁voted",
    "7023": "▁various",
    "7024": "▁violence",
    "7025": "▁victories",
    "7026": "▁villages",
    "7027": "▁wars",
    "7028": "▁way",
    "7029": "▁welfare",
    "7030": "▁whereas",
    "7031": "▁warriors",
    "7032": "▁what",
    "7033": "▁winds",
    "7034": "▁works",
    "7035": "▁अलावा",
    "7036": "▁अन्तर",
    "7037": "▁अपना",
    "7038": "▁अभिया",
    "7039": "▁अमेरिका",
    "7040": "▁आज",
    "7041": "▁आधार",
    "7042": "▁आन्दोलन",
    "7043": "▁इतिहास",
    "7044": "▁इंडिया",
    "7045": "▁उच्च",
    "7046": "▁उभ",
    "7047": "▁उत्त",
    "7048": "▁उपमहाद्वीप",
    "7049": "▁उसके",
    "7050": "▁एव",
    "7051": "▁किये",
    "7052": "▁कृष",
    "7053": "▁कहते",
    "7054": "▁कोई",
    "7055": "▁गुप्त",
    "7056": "▁घोषणा",
    "7057": "▁चल",
    "7058": "▁चला",
    "7059": "▁छोड़",
    "7060": "▁जहाँ",
    "7061": "▁जून",
    "7062": "▁जनवरी",
    "7063": "▁जिसका",
    "7064": "▁जीत",
    "7065": "▁जीव",
    "7066": "▁तट",
    "7067": "▁दिल्ली",
    "7068": "▁दृष्टि",
    "7069": "▁देखा",
    "7070": "▁नव",
    "7071": "▁नी",
    "7072": "▁नदियाँ",
    "7073": "▁निर्",
    "7074": "▁पंजा",
    "7075": "▁पहुँच",
    "7076": "▁पर्य",
    "7077": "▁पुर्तग",
    "7078": "▁पूर्वी",
    "7079": "▁प्रचल",
    "7080": "▁प्रत्य",
    "7081": "▁प्रशास",
    "7082": "▁प्रौद्योगिकी",
    "7083": "▁फ्र",
    "7084": "▁बंग",
    "7085": "▁बौ",
    "7086": "▁बढ़कर",
    "7087": "▁बनाई",
    "7088": "▁बाहरी",
    "7089": "▁भाषाएँ",
    "7090": "▁भील",
    "7091": "▁भूमि",
    "7092": "▁मंत्र",
    "7093": "▁मूल",
    "7094": "▁मौ",
    "7095": "▁माध्यम",
    "7096": "▁मानसून",
    "7097": "▁मिलियन",
    "7098": "▁रूस",
    "7099": "▁रही",
    "7100": "▁राजधानी",
    "7101": "▁राजनैतिक",
    "7102": "▁लोगों",
    "7103": "▁वा",
    "7104": "▁वीं",
    "7105": "▁वै",
    "7106": "▁विकसित",
    "7107": "▁विस्तार",
    "7108": "▁शांति",
    "7109": "▁शुरुआ",
    "7110": "▁सल्तनत",
    "7111": "▁संगीत",
    "7112": "▁संघर्ष",
    "7113": "▁सरकारें",
    "7114": "▁सामाजिक",
    "7115": "▁सिंह",
    "7116": "▁सिनेमा",
    "7117": "▁हिस्",
    "7118": "▁१८",
    "7119": "▁२०१",
    "7120": "▁அடைந்த",
    "7121": "▁அணிய",
    "7122": "▁அன்ற",
    "7123": "▁அப்ப",
    "7124": "▁அகணிய",
    "7125": "▁அடங்கும்",
    "7126": "▁அதிகப்படியான",
    "7127": "▁அமைந்துள்ளது",
    "7128": "▁அறிக்க",
    "7129": "▁அறியப்பட்ட",
    "7130": "▁ஆக்க",
    "7131": "▁ஆங்கில",
    "7132": "▁ஆட்சி",
    "7133": "▁ஆற்றல்",
    "7134": "▁இக்காலத்தின்",
    "7135": "▁இடத்தையும்",
    "7136": "▁இடம்",
    "7137": "▁இந்தியர்கள",
    "7138": "▁இமயமலை",
    "7139": "▁இயற்ற",
    "7140": "▁உரு",
    "7141": "▁உறவு",
    "7142": "▁உறுத",
    "7143": "▁உற்பத்தி",
    "7144": "▁உற்பத்திய",
    "7145": "▁ஊட",
    "7146": "▁எண்ணெ",
    "7147": "▁எண்ணிக்கையிலான",
    "7148": "▁ஏற்படுத்த",
    "7149": "▁ஏவுகணை",
    "7150": "▁ஐந்த",
    "7151": "▁ஒற்ற",
    "7152": "▁ஒப்பந்த",
    "7153": "▁ஒப்பீட்ட",
    "7154": "▁கருத",
    "7155": "▁காலப்",
    "7156": "▁குசரா",
    "7157": "▁குடி",
    "7158": "▁குப்த",
    "7159": "▁குடியரசுத்",
    "7160": "▁கொள்ள",
    "7161": "▁கோப்பை",
    "7162": "▁சங்க",
    "7163": "▁சார",
    "7164": "▁சீ",
    "7165": "▁சீர",
    "7166": "▁சமையல்",
    "7167": "▁சமயப்",
    "7168": "▁சமயம்",
    "7169": "▁சமவெள",
    "7170": "▁சராசரி",
    "7171": "▁சாதி",
    "7172": "▁சென்ற",
    "7173": "▁சேவைய",
    "7174": "▁சொல்ல",
    "7175": "▁தக",
    "7176": "▁தர",
    "7177": "▁தாண்ட",
    "7178": "▁திக",
    "7179": "▁தனியாக",
    "7180": "▁தவிர்த்த",
    "7181": "▁தாக்கம்",
    "7182": "▁தென்கிழ",
    "7183": "▁தெற்காசியாவ",
    "7184": "▁தொடர்கள",
    "7185": "▁தொடுக",
    "7186": "▁தொலைக்காட்சி",
    "7187": "▁நடுத்தர",
    "7188": "▁நு",
    "7189": "▁நுக",
    "7190": "▁நடுக்",
    "7191": "▁நாட்டுப்புற",
    "7192": "▁நிலப்பரப்ப",
    "7193": "▁நிலைக்கு",
    "7194": "▁நெருக்க",
    "7195": "▁பண",
    "7196": "▁பணிய",
    "7197": "▁பதி",
    "7198": "▁பகிர்ந்து",
    "7199": "▁பண்பாடு",
    "7200": "▁பண்பாட்டு",
    "7201": "▁பயன்படுத்தப்படுகிறது",
    "7202": "▁பரப்ப",
    "7203": "▁பரவலாக",
    "7204": "▁பல்வகை",
    "7205": "▁பாணியானது",
    "7206": "▁பாரசீக",
    "7207": "▁பாலைவன",
    "7208": "▁பாக்கித்தான்",
    "7209": "▁பாரம்பரியமாக",
    "7210": "▁பிற்பகுத",
    "7211": "▁பின்னர்",
    "7212": "▁பிரதி",
    "7213": "▁பிரி",
    "7214": "▁பிரபலமான",
    "7215": "▁புல",
    "7216": "▁புவியியல்",
    "7217": "▁பெருங்கட",
    "7218": "▁பெரும்பான்மைய",
    "7219": "▁பொதுவான",
    "7220": "▁மட்ட",
    "7221": "▁மருந்து",
    "7222": "▁மக்களின்",
    "7223": "▁மரப",
    "7224": "▁மீது",
    "7225": "▁முயற்",
    "7226": "▁முழுவ",
    "7227": "▁மூலம்",
    "7228": "▁மேல",
    "7229": "▁மேலும்",
    "7230": "▁ரீதியாக",
    "7231": "▁வய",
    "7232": "▁வாக",
    "7233": "▁வடமே",
    "7234": "▁வலிமையான",
    "7235": "▁வளர்ந்து",
    "7236": "▁வளர்ச்சிய",
    "7237": "▁வழியாக",
    "7238": "▁வித",
    "7239": "▁விளை",
    "7240": "▁வெட்ட",
    "7241": "▁வென்றுள்ளது",
    "7242": "07",
    "7243": "094",
    "7244": "11",
    "7245": "196",
    "7246": "199",
    "7247": "1991",
    "7248": "2010",
    "7249": "2013",
    "7250": "264",
    "7251": "380",
    "7252": "39",
    "7253": "308",
    "7254": "44",
    "7255": "423",
    "7256": "428",
    "7257": "54",
    "7258": "60",
    "7259": "601",
    "7260": "63",
    "7261": "65",
    "7262": "663",
    "7263": "731",
    "7264": "82",
    "7265": "900",
    "7266": "Aust",
    "7267": "Austral",
    "7268": "Australian",
    "7269": "PI",
    "7270": "aːn",
    "7271": "aːɾ",
    "7272": "aːɾə",
    "7273": "aːɾət",
    "7274": "bʱ",
    "7275": "bʱaːɾət",
    "7276": "casts",
    "7277": "ctory",
    "7278": "ikime",
    "7279": "ikimedia",
    "7280": "irectory",
    "7281": "las",
    "7282": "ndʊ",
    "7283": "ndʊˈ",
    "7284": "ndʊˈst",
    "7285": "ndʊˈstaːn",
    "7286": "omm",
    "7287": "site",
    "7288": "ters",
    "7289": "utures",
    "7290": "velopment",
    "7291": "ɦɪ",
    "7292": "ɦɪndʊˈstaːn",
    "7293": "ˈbʱaːɾət",
    "7294": "ία",
    "7295": "ός",
    "7296": "ंका",
    "7297": "ंट",
    "7298": "ंत",
    "7299": "ंत्रण",
    "7300": "ंदिरा",
    "7301": "ंधु",
    "7302": "क्ट",
    "7303": "कालीन",
    "7304": "क्षण",
    "7305": "चार",
    "7306": "चे",
    "7307": "च्",
    "7308": "च्छ",
    "7309": "जट",
    "7310": "टक",
    "7311": "टल",
    "7312": "टिबंध",
    "7313": "टिबंधीय",
    "7314": "णाली",
    "7315": "ण्डल",
    "7316": "त्न",
    "7317": "नेक",
    "7318": "पान",
    "7319": "पात",
    "7320": "पूर्व",
    "7321": "प्रिय",
    "7322": "बो",
    "7323": "भु",
    "7324": "म्न",
    "7325": "यक",
    "7326": "ये",
    "7327": "रह",
    "7328": "रि",
    "7329": "रोध",
    "7330": "लंका",
    "7331": "लीवि",
    "7332": "वे",
    "7333": "वंश",
    "7334": "शाली",
    "7335": "शेष",
    "7336": "श्म",
    "7337": "श्मीर",
    "7338": "ष्क",
    "7339": "सत",
    "7340": "सू",
    "7341": "स्कृतिक",
    "7342": "स्थान",
    "7343": "स्वरूप",
    "7344": "हायक",
    "7345": "ाओं",
    "7346": "ात",
    "7347": "ांस",
    "7348": "ानी",
    "7349": "ामस्वरूप",
    "7350": "ालर",
    "7351": "ाषी",
    "7352": "ास्तव",
    "7353": "िप",
    "7354": "िश",
    "7355": "िणामस्वरूप",
    "7356": "िमण्डल",
    "7357": "ियत",
    "7358": "ीकरण",
    "7359": "ीक्षण",
    "7360": "ुट",
    "7361": "ुष्क",
    "7362": "ुलना",
    "7363": "ूत",
    "7364": "ृत्य",
    "7365": "ेक्षा",
    "7366": "ेज",
    "7367": "ॉकी",
    "7368": "ोवियत",
    "7369": "ोहन",
    "7370": "ौसेना",
    "7371": "ौर्य",
    "7372": "्ञान",
    "7373": "्रिय",
    "7374": "्लाम",
    "7375": "०००",
    "7376": "४०",
    "7377": "४७",
    "7378": "இந்திய",
    "7379": "களுக்கு",
    "7380": "க்கப்படுக",
    "7381": "க்கோ",
    "7382": "ங்களைச்",
    "7383": "சிசி",
    "7384": "சியா",
    "7385": "சுப",
    "7386": "சுகிரு",
    "7387": "சுகிருத",
    "7388": "ஞர்கள்",
    "7389": "டிக்க",
    "7390": "டித்து",
    "7391": "டுருவ",
    "7392": "டைப்ப",
    "7393": "ண்டை",
    "7394": "தா",
    "7395": "தியில்",
    "7396": "தைப்",
    "7397": "தியாளராக",
    "7398": "தும்",
    "7399": "த்தட்ட",
    "7400": "த்துவம்",
    "7401": "த்தைத்",
    "7402": "நக",
    "7403": "நா",
    "7404": "நுட்ப",
    "7405": "ந்நில",
    "7406": "ந்தன",
    "7407": "ந்தர",
    "7408": "னநாயகக்",
    "7409": "ன்னாட்டு",
    "7410": "ன்னை",
    "7411": "புத்திர",
    "7412": "ப்பாக",
    "7413": "ப்படை",
    "7414": "ப்பட்டு",
    "7415": "ப்புப்",
    "7416": "மான்",
    "7417": "மிக்க",
    "7418": "மின்",
    "7419": "முடைய",
    "7420": "முள்ள",
    "7421": "முறைய",
    "7422": "மைப்பு",
    "7423": "மையானது",
    "7424": "மையுடைய",
    "7425": "யல்",
    "7426": "யில்",
    "7427": "ரப",
    "7428": "ரில்",
    "7429": "ருக்கு",
    "7430": "றும்",
    "7431": "ற்றி",
    "7432": "லக",
    "7433": "லானது",
    "7434": "ல்லாத",
    "7435": "ல்லி",
    "7436": "வையின்",
    "7437": "வையில்",
    "7438": "வ்வியல்",
    "7439": "ாற",
    "7440": "ாக்கி",
    "7441": "ாடுகள",
    "7442": "ாளர்களைக்",
    "7443": "ாவுக்கு",
    "7444": "ிக்கப்பட்டது",
    "7445": "ித்து",
    "7446": "ித்துவமான",
    "7447": "ினை",
    "7448": "ியத",
    "7449": "ியாள",
    "7450": "ிருத்த",
    "7451": "ிருப்ப",
    "7452": "ிறித்த",
    "7453": "ீடு",
    "7454": "ுக்காக",
    "7455": "ுடனான",
    "7456": "ுடனும்",
    "7457": "ுவதற்கு",
    "7458": "ேக்க",
    "7459": "ைப்ப",
    "7460": "ையா",
    "7461": "ொப்ப",
    "7462": "ௌரிய",
    "7463": "்தி",
    "7464": "்திருத்த",
    "7465": "Ἰνδία",
    "7466": "Ἰνδός",
    "7467": "▁[",
    "7468": "▁झ",
    "7469": "▁३",
    "7470": "▁८",
    "7471": "▁142",
    "7472": "▁1206",
    "7473": "▁1300",
    "7474": "▁1525",
    "7475": "▁172",
    "7476": "▁1765",
    "7477": "▁1820",
    "7478": "▁1885",
    "7479": "▁1891",
    "7480": "▁1901",
    "7481": "▁1911",
    "7482": "▁1921",
    "7483": "▁1928",
    "7484": "▁1948",
    "7485": "▁1987",
    "7486": "▁2030",
    "7487": "▁2005",
    "7488": "▁2016",
    "7489": "▁72",
    "7490": "▁79",
    "7491": "▁80",
    "7492": "▁800",
    "7493": "▁81",
    "7494": "▁900",
    "7495": "▁940",
    "7496": "▁97",
    "7497": "▁Atlas",
    "7498": "▁Directory",
    "7499": "▁Development",
    "7500": "▁Futures",
    "7501": "▁Forecasts",
    "7502": "▁Key",
    "7503": "▁News",
    "7504": "▁Official",
    "7505": "▁SI",
    "7506": "▁Web",
    "7507": "▁Wikimedia",
    "7508": "▁crow",
    "7509": "▁website",
    "7510": "▁अति",
    "7511": "▁अनेक",
    "7512": "▁अश",
    "7513": "▁अमरीकी",
    "7514": "▁अवशेष",
    "7515": "▁आप",
    "7516": "▁आम",
    "7517": "▁आय",
    "7518": "▁आस",
    "7519": "▁आगमन",
    "7520": "▁आयात",
    "7521": "▁इंदिरा",
    "7522": "▁इसका",
    "7523": "▁इसमें",
    "7524": "▁इसे",
    "7525": "▁इस्लाम",
    "7526": "▁उन्हें",
    "7527": "▁उष्ण",
    "7528": "▁उसे",
    "7529": "▁उत्",
    "7530": "▁उत्तरी",
    "7531": "▁उनकी",
    "7532": "▁उनके",
    "7533": "▁उपयोग",
    "7534": "▁ऊँची",
    "7535": "▁कश्मीर",
    "7536": "▁किए",
    "7537": "▁किसी",
    "7538": "▁करती",
    "7539": "▁करते",
    "7540": "▁कार्यकाल",
    "7541": "▁कार्यपालिका",
    "7542": "▁कृषि",
    "7543": "▁क्रम",
    "7544": "▁गुजरा",
    "7545": "▁ची",
    "7546": "▁छोटे",
    "7547": "▁जमा",
    "7548": "▁ज़",
    "7549": "▁जाति",
    "7550": "▁जिन्हें",
    "7551": "▁जिनमें",
    "7552": "▁जीवन",
    "7553": "▁जैसे",
    "7554": "▁टेलीवि",
    "7555": "▁डालर",
    "7556": "▁तनाव",
    "7557": "▁तरह",
    "7558": "▁तीन",
    "7559": "▁तुलना",
    "7560": "▁दर्",
    "7561": "▁दिव",
    "7562": "▁दी",
    "7563": "▁नम",
    "7564": "▁नौसेना",
    "7565": "▁नागरिक",
    "7566": "▁निम्न",
    "7567": "▁नेहर",
    "7568": "▁पी",
    "7569": "▁पंजाब",
    "7570": "▁परिणामस्वरूप",
    "7571": "▁परीक्षण",
    "7572": "▁परंपरागत",
    "7573": "▁पर्यटन",
    "7574": "▁पश्चिमी",
    "7575": "▁पाया",
    "7576": "▁पुरुष",
    "7577": "▁पूरा",
    "7578": "▁पूरे",
    "7579": "▁प्रणाली",
    "7580": "▁प्रदान",
    "7581": "▁प्रत्येक",
    "7582": "▁फैली",
    "7583": "▁फ्रांस",
    "7584": "▁बजट",
    "7585": "▁बदल",
    "7586": "▁बह",
    "7587": "▁बे",
    "7588": "▁बढ़ती",
    "7589": "▁बौद्ध",
    "7590": "▁भर",
    "7591": "▁भागी",
    "7592": "▁भाषाएं",
    "7593": "▁मी",
    "7594": "▁मौर्य",
    "7595": "▁मंत्रिमण्डल",
    "7596": "▁मुस्लिम",
    "7597": "▁मैदानी",
    "7598": "▁यहाँ",
    "7599": "▁रख",
    "7600": "▁राजवंश",
    "7601": "▁राज्यसभा",
    "7602": "▁लंबे",
    "7603": "▁लड़ा",
    "7604": "▁लेकर",
    "7605": "▁लोकप्रिय",
    "7606": "▁वाली",
    "7607": "▁वास्तव",
    "7608": "▁विरोध",
    "7609": "▁विभाज",
    "7610": "▁विशेष",
    "7611": "▁शक्त",
    "7612": "▁शक्ति",
    "7613": "▁शहर",
    "7614": "▁शहरी",
    "7615": "▁शिक्ष",
    "7616": "▁शुरुआत",
    "7617": "▁श्रीलंका",
    "7618": "▁सफल",
    "7619": "▁सश",
    "7620": "▁सहायक",
    "7621": "▁सोवियत",
    "7622": "▁संघीय",
    "7623": "▁संबंधों",
    "7624": "▁सक्रिय",
    "7625": "▁सदस्य",
    "7626": "▁सदस्यों",
    "7627": "▁सभ्यता",
    "7628": "▁समझ",
    "7629": "▁समृद्ध",
    "7630": "▁सां",
    "7631": "▁सामरिक",
    "7632": "▁सिंधु",
    "7633": "▁हर",
    "7634": "▁हस्त",
    "7635": "▁हॉकी",
    "7636": "▁हिन्दु",
    "7637": "▁होना",
    "7638": "▁१०",
    "7639": "▁१५",
    "7640": "▁२४",
    "7641": "▁२००४",
    "7642": "▁அடு",
    "7643": "▁அன",
    "7644": "▁அயல்",
    "7645": "▁அவற்றின்",
    "7646": "▁அடையாள",
    "7647": "▁அதிகாரப்பூர்வ",
    "7648": "▁அந்தமான்",
    "7649": "▁அமைத",
    "7650": "▁அமைத்தது",
    "7651": "▁அமைச்சர",
    "7652": "▁அரசாங்கம்",
    "7653": "▁அருகிய",
    "7654": "▁அழிக்க",
    "7655": "▁அழைக்க",
    "7656": "▁அவர்கள்",
    "7657": "▁ஆக்கிய",
    "7658": "▁ஆண்களுக்கு",
    "7659": "▁ஆண்கள்",
    "7660": "▁ஆட்சியாள",
    "7661": "▁இந்நில",
    "7662": "▁இணையத்த",
    "7663": "▁இதே",
    "7664": "▁இதைத்",
    "7665": "▁இந்தோ",
    "7666": "▁இந்தியர்கள்",
    "7667": "▁இமயமல",
    "7668": "▁இறுதியாக",
    "7669": "▁இறையாண்",
    "7670": "▁இவர்",
    "7671": "▁உண்",
    "7672": "▁உரி",
    "7673": "▁உட்க",
    "7674": "▁உருவாக்கப்பட்ட",
    "7675": "▁உருவாக்கியது",
    "7676": "▁உறுதிப்படுத்த",
    "7677": "▁உறுப்பினர்கள",
    "7678": "▁ஊடுருவ",
    "7679": "▁ஊடக",
    "7680": "▁எல்லை",
    "7681": "▁எண்ணெய்",
    "7682": "▁ஐசிசி",
    "7683": "▁ஐந்து",
    "7684": "▁ஐரோவ",
    "7685": "▁ஒடி",
    "7686": "▁ஒத்து",
    "7687": "▁ஒப்பீட்டளவில்",
    "7688": "▁கல்ல",
    "7689": "▁கிட",
    "7690": "▁கிறித்த",
    "7691": "▁கைவ",
    "7692": "▁கட்சியாக",
    "7693": "▁கணக்கெடுப்பின்",
    "7694": "▁கருதுக",
    "7695": "▁கால்",
    "7696": "▁காங்கிரச",
    "7697": "▁காடுகள்",
    "7698": "▁காணப்படுகிறது",
    "7699": "▁காலமானது",
    "7700": "▁கிட்டத்தட்ட",
    "7701": "▁கிரேக்க",
    "7702": "▁கிழக்கே",
    "7703": "▁குடியிருப்ப",
    "7704": "▁குறிப்பிட்ட",
    "7705": "▁குறுகிய",
    "7706": "▁குறைந்த",
    "7707": "▁கூட்டணி",
    "7708": "▁கையொப்ப",
    "7709": "▁சப்ப",
    "7710": "▁சதுர",
    "7711": "▁சமசுகிருத",
    "7712": "▁சமைக்கப்பட்ட",
    "7713": "▁சீர்திருத்த",
    "7714": "▁சுற்றி",
    "7715": "▁சென்னை",
    "7716": "▁செல்வ",
    "7717": "▁செவ்வியல்",
    "7718": "▁செலவீன",
    "7719": "▁சேவையாற்ற",
    "7720": "▁சோத",
    "7721": "▁டெ",
    "7722": "▁தற்க",
    "7723": "▁தலைய",
    "7724": "▁தானிய",
    "7725": "▁திச",
    "7726": "▁தூ",
    "7727": "▁தக்காண",
    "7728": "▁தனித்துவமான",
    "7729": "▁தாக்குத",
    "7730": "▁திரை",
    "7731": "▁திறன",
    "7732": "▁தெற்கே",
    "7733": "▁தொடக்கத்தில்",
    "7734": "▁தொடுகற",
    "7735": "▁தொழில்நுட்ப",
    "7736": "▁நன்றாக",
    "7737": "▁நாகரிக",
    "7738": "▁நிய",
    "7739": "▁நடனம்",
    "7740": "▁நடைபெ",
    "7741": "▁நாடுகளின்",
    "7742": "▁நிலையான",
    "7743": "▁நிலையை",
    "7744": "▁நீதிமன்ற",
    "7745": "▁நீள",
    "7746": "▁நுகர்வ",
    "7747": "▁நூல்கள",
    "7748": "▁நேருவ",
    "7749": "▁நோக்கி",
    "7750": "▁பன்னாட்டு",
    "7751": "▁புட",
    "7752": "▁பகுதிகள்",
    "7753": "▁பகுதியாக",
    "7754": "▁பண்டைக்",
    "7755": "▁பதவிய",
    "7756": "▁பரத",
    "7757": "▁பரந்த",
    "7758": "▁பரவலான",
    "7759": "▁பரவியது",
    "7760": "▁பரிமாற",
    "7761": "▁பழக்க",
    "7762": "▁பாக்கித்தான",
    "7763": "▁பாதுகாக்க",
    "7764": "▁பாதுகாப்புச்",
    "7765": "▁பாலின",
    "7766": "▁பாலூட்ட",
    "7767": "▁பிற்பகுதியில்",
    "7768": "▁புத்த",
    "7769": "▁புதுப்ப",
    "7770": "▁புவித்",
    "7771": "▁பெரும்பான்மை",
    "7772": "▁பெரும்பாலும்",
    "7773": "▁பெற்றுள்ளது",
    "7774": "▁போக்கு",
    "7775": "▁போர்",
    "7776": "▁போல",
    "7777": "▁போட்டிகளில்",
    "7778": "▁பௌத்தம்",
    "7779": "▁மகள",
    "7780": "▁மண்ட",
    "7781": "▁மரு",
    "7782": "▁மல",
    "7783": "▁மாவ",
    "7784": "▁மௌரிய",
    "7785": "▁மாற",
    "7786": "▁மிகக்",
    "7787": "▁மிகவும்",
    "7788": "▁முத்திர",
    "7789": "▁முடிந்தது",
    "7790": "▁முழுவதும்",
    "7791": "▁மேற்கே",
    "7792": "▁மேற்கொண்ட",
    "7793": "▁மொழி",
    "7794": "▁வடி",
    "7795": "▁வாட்ட",
    "7796": "▁வீர",
    "7797": "▁வகை",
    "7798": "▁வகைகள",
    "7799": "▁வடிவங்கள்",
    "7800": "▁வர்க்கத்தின",
    "7801": "▁வறுமை",
    "7802": "▁விட்டு",
    "7803": "▁வெளி",
    "7804": "▁வெள்ள",
    "7805": "▁வெளியிட",
    "7806": "▁வேண்ட",
    "7807": "▁வேலைப்பாட",
    "7808": "▁வைக்கப்பட்ட",
    "7809": "05",
    "7810": "12",
    "7811": "1900",
    "7812": "193",
    "7813": "197",
    "7814": "1967",
    "7815": "1975",
    "7816": "1992",
    "7817": "210",
    "7818": "235",
    "7819": "2014",
    "7820": "204",
    "7821": "232",
    "7822": "263",
    "7823": "300",
    "7824": "33",
    "7825": "351",
    "7826": "359",
    "7827": "405",
    "7828": "4059",
    "7829": "421",
    "7830": "461",
    "7831": "52",
    "7832": "562",
    "7833": "562359",
    "7834": "627",
    "7835": "700",
    "7836": "74059",
    "7837": "87",
    "7838": "96",
    "7839": "900461",
    "7840": "AL",
    "7841": "Al",
    "7842": "Aph",
    "7843": "Ara",
    "7844": "Align",
    "7845": "Aligned",
    "7846": "Aphor",
    "7847": "Aphorism",
    "7848": "Aphorisms",
    "7849": "Arab",
    "7850": "Arabic",
    "7851": "Article",
    "7852": "Articles",
    "7853": "BJP",
    "7854": "Ban",
    "7855": "Bhangra",
    "7856": "Bhār",
    "7857": "Bhārat",
    "7858": "CN",
    "7859": "CEE",
    "7860": "Dem",
    "7861": "Eight",
    "7862": "GDP",
    "7863": "Green",
    "7864": "ISBN",
    "7865": "Isl",
    "7866": "Indian",
    "7867": "Islam",
    "7868": "Islamic",
    "7869": "Kad",
    "7870": "Kadai",
    "7871": "Map",
    "7872": "Min",
    "7873": "Muslim",
    "7874": "Minim",
    "7875": "Minimum",
    "7876": "NA",
    "7877": "NDA",
    "7878": "Pakistan",
    "7879": "Pars",
    "7880": "Pol",
    "7881": "Pubs",
    "7882": "PIN",
    "7883": "PPP",
    "7884": "Parsis",
    "7885": "Polo",
    "7886": "Stre",
    "7887": "Street",
    "7888": "StreetMap",
    "7889": "Test",
    "7890": "UCN",
    "7891": "UPA",
    "7892": "US",
    "7893": "WHO",
    "7894": "adi",
    "7895": "adic",
    "7896": "aff",
    "7897": "aid",
    "7898": "aism",
    "7899": "aiv",
    "7900": "ao",
    "7901": "aos",
    "7902": "aud",
    "7903": "augh",
    "7904": "aus",
    "7905": "az",
    "7906": "aṅ",
    "7907": "abatic",
    "7908": "abilitated",
    "7909": "abin",
    "7910": "abled",
    "7911": "aboration",
    "7912": "aby",
    "7913": "abaddi",
    "7914": "abhata",
    "7915": "abinet",
    "7916": "abla",
    "7917": "abling",
    "7918": "abyl",
    "7919": "abylon",
    "7920": "abylonians",
    "7921": "acc",
    "7922": "aches",
    "7923": "aci",
    "7924": "acified",
    "7925": "acilitated",
    "7926": "acity",
    "7927": "acri",
    "7928": "action",
    "7929": "accines",
    "7930": "aching",
    "7931": "achings",
    "7932": "achis",
    "7933": "achment",
    "7934": "achisi",
    "7935": "aciers",
    "7936": "acrif",
    "7937": "acrifices",
    "7938": "actional",
    "7939": "actionalism",
    "7940": "adas",
    "7941": "aden",
    "7942": "adh",
    "7943": "ado",
    "7944": "adrup",
    "7945": "adu",
    "7946": "adur",
    "7947": "adv",
    "7948": "adasis",
    "7949": "adhav",
    "7950": "adhava",
    "7951": "adira",
    "7952": "adirach",
    "7953": "adirachta",
    "7954": "adrupled",
    "7955": "advant",
    "7956": "advantag",
    "7957": "advantaged",
    "7958": "aflo",
    "7959": "affection",
    "7960": "afloor",
    "7961": "aging",
    "7962": "agon",
    "7963": "agore",
    "7964": "agos",
    "7965": "agpur",
    "7966": "agupta",
    "7967": "ageable",
    "7968": "agement",
    "7969": "agonists",
    "7970": "agorean",
    "7971": "ahism",
    "7972": "aily",
    "7973": "aivers",
    "7974": "ailing",
    "7975": "aining",
    "7976": "ainted",
    "7977": "ainsuk",
    "7978": "ainsukh",
    "7979": "aivite",
    "7980": "aja",
    "7981": "akening",
    "7982": "aker",
    "7983": "akhi",
    "7984": "aking",
    "7985": "akti",
    "7986": "akhig",
    "7987": "akhsh",
    "7988": "akhigar",
    "7989": "akhigarhi",
    "7990": "akhshali",
    "7991": "alam",
    "7992": "alc",
    "7993": "alised",
    "7994": "alite",
    "7995": "alk",
    "7996": "alm",
    "7997": "aln",
    "7998": "alo",
    "7999": "alue",
    "8000": "alcut",
    "8001": "alcutta",
    "8002": "alkies",
    "8003": "alleng",
    "8004": "alling",
    "8005": "allis",
    "8006": "alls",
    "8007": "allel",
    "8008": "allenges",
    "8009": "alms",
    "8010": "alnut",
    "8011": "alnutrit",
    "8012": "alnutrition",
    "8013": "although",
    "8014": "althy",
    "8015": "alwar",
    "8016": "amahism",
    "8017": "amanu",
    "8018": "amas",
    "8019": "amb",
    "8020": "amese",
    "8021": "ami",
    "8022": "amom",
    "8023": "among",
    "8024": "amstr",
    "8025": "amtre",
    "8026": "amun",
    "8027": "amanuj",
    "8028": "amanujan",
    "8029": "ambodi",
    "8030": "ambodia",
    "8031": "amihi",
    "8032": "amihira",
    "8033": "amma",
    "8034": "amples",
    "8035": "amps",
    "8036": "amsar",
    "8037": "amstrung",
    "8038": "amuna",
    "8039": "anada",
    "8040": "anamahism",
    "8041": "anar",
    "8042": "anct",
    "8043": "ancy",
    "8044": "andi",
    "8045": "ane",
    "8046": "anent",
    "8047": "anied",
    "8048": "anim",
    "8049": "anistan",
    "8050": "anj",
    "8051": "anked",
    "8052": "anks",
    "8053": "anm",
    "8054": "anw",
    "8055": "anadi",
    "8056": "anagari",
    "8057": "anarish",
    "8058": "anarishv",
    "8059": "anarishvara",
    "8060": "ancake",
    "8061": "ancing",
    "8062": "anchat",
    "8063": "anchayat",
    "8064": "anchi",
    "8065": "anchatant",
    "8066": "anchatantra",
    "8067": "anctu",
    "8068": "anctuaries",
    "8069": "anda",
    "8070": "ander",
    "8071": "andm",
    "8072": "andise",
    "8073": "andmast",
    "8074": "andmasters",
    "8075": "andson",
    "8076": "andyas",
    "8077": "angam",
    "8078": "angent",
    "8079": "angeet",
    "8080": "anipur",
    "8081": "animously",
    "8082": "anipuri",
    "8083": "anjav",
    "8084": "anjavur",
    "8085": "ankar",
    "8086": "ankari",
    "8087": "anking",
    "8088": "anmo",
    "8089": "anmohan",
    "8090": "annada",
    "8091": "anning",
    "8092": "antic",
    "8093": "antle",
    "8094": "antly",
    "8095": "anticide",
    "8096": "anweri",
    "8097": "anweriw",
    "8098": "anweriwala",
    "8099": "apan",
    "8100": "aped",
    "8101": "aper",
    "8102": "api",
    "8103": "apital",
    "8104": "apon",
    "8105": "apti",
    "8106": "apiens",
    "8107": "appa",
    "8108": "appes",
    "8109": "araja",
    "8110": "aran",
    "8111": "arappa",
    "8112": "arated",
    "8113": "arati",
    "8114": "aration",
    "8115": "arh",
    "8116": "arian",
    "8117": "arj",
    "8118": "arla",
    "8119": "arles",
    "8120": "arm",
    "8121": "arp",
    "8122": "arri",
    "8123": "arsh",
    "8124": "arsha",
    "8125": "arter",
    "8126": "arv",
    "8127": "arā",
    "8128": "arasim",
    "8129": "arasw",
    "8130": "arasimh",
    "8131": "arasimha",
    "8132": "araswati",
    "8133": "arba",
    "8134": "arbans",
    "8135": "arcation",
    "8136": "arche",
    "8137": "archees",
    "8138": "archeesi",
    "8139": "ardamom",
    "8140": "arded",
    "8141": "arel",
    "8142": "arett",
    "8143": "arendra",
    "8144": "arettes",
    "8145": "arians",
    "8146": "aripp",
    "8147": "arippayat",
    "8148": "arippayattu",
    "8149": "arji",
    "8150": "arless",
    "8151": "armada",
    "8152": "arnas",
    "8153": "arnatak",
    "8154": "arnath",
    "8155": "arnaism",
    "8156": "arnataka",
    "8157": "arriage",
    "8158": "arther",
    "8159": "artial",
    "8160": "arting",
    "8161": "arvati",
    "8162": "arāh",
    "8163": "arāhamihira",
    "8164": "asa",
    "8165": "asants",
    "8166": "asaraswati",
    "8167": "ascent",
    "8168": "ases",
    "8169": "asing",
    "8170": "asl",
    "8171": "asy",
    "8172": "ashk",
    "8173": "ashup",
    "8174": "ashkent",
    "8175": "ashupati",
    "8176": "aslil",
    "8177": "aslila",
    "8178": "asslands",
    "8179": "associ",
    "8180": "associate",
    "8181": "astal",
    "8182": "astes",
    "8183": "asties",
    "8184": "astime",
    "8185": "asting",
    "8186": "atabatic",
    "8187": "ataraja",
    "8188": "aten",
    "8189": "aters",
    "8190": "atical",
    "8191": "atics",
    "8192": "atis",
    "8193": "atist",
    "8194": "atma",
    "8195": "ator",
    "8196": "ators",
    "8197": "atpur",
    "8198": "atur",
    "8199": "aty",
    "8200": "ateg",
    "8201": "ategic",
    "8202": "athan",
    "8203": "athes",
    "8204": "athematics",
    "8205": "atiya",
    "8206": "atistically",
    "8207": "atpura",
    "8208": "atriya",
    "8209": "aturaṅ",
    "8210": "aturaṅga",
    "8211": "atyam",
    "8212": "audh",
    "8213": "audhary",
    "8214": "aught",
    "8215": "ause",
    "8216": "avari",
    "8217": "avarsha",
    "8218": "avati",
    "8219": "avened",
    "8220": "avor",
    "8221": "avour",
    "8222": "avr",
    "8223": "avalry",
    "8224": "avily",
    "8225": "avoured",
    "8226": "avratri",
    "8227": "away",
    "8228": "awed",
    "8229": "awnings",
    "8230": "axalite",
    "8231": "ayalam",
    "8232": "ayments",
    "8233": "aysia",
    "8234": "azz",
    "8235": "ba",
    "8236": "bade",
    "8237": "bally",
    "8238": "banded",
    "8239": "based",
    "8240": "bate",
    "8241": "bec",
    "8242": "bh",
    "8243": "bians",
    "8244": "bility",
    "8245": "bined",
    "8246": "bled",
    "8247": "bon",
    "8248": "borne",
    "8249": "bout",
    "8250": "bra",
    "8251": "breath",
    "8252": "bro",
    "8253": "by",
    "8254": "backs",
    "8255": "because",
    "8256": "beration",
    "8257": "bhār",
    "8258": "bhārata",
    "8259": "brok",
    "8260": "broken",
    "8261": "ca",
    "8262": "caste",
    "8263": "chedul",
    "8264": "cise",
    "8265": "cked",
    "8266": "claiming",
    "8267": "clo",
    "8268": "col",
    "8269": "colog",
    "8270": "cook",
    "8271": "cret",
    "8272": "cul",
    "8273": "culture",
    "8274": "curren",
    "8275": "cep",
    "8276": "cept",
    "8277": "ceanic",
    "8278": "cedent",
    "8279": "cedented",
    "8280": "ceeded",
    "8281": "ceeding",
    "8282": "ceptions",
    "8283": "cessf",
    "8284": "cessful",
    "8285": "chasing",
    "8286": "chie",
    "8287": "ching",
    "8288": "chol",
    "8289": "chedule",
    "8290": "chievement",
    "8291": "cholars",
    "8292": "ciously",
    "8293": "clof",
    "8294": "clofen",
    "8295": "clofenac",
    "8296": "colonial",
    "8297": "cologically",
    "8298": "constitution",
    "8299": "cont",
    "8300": "constitutional",
    "8301": "content",
    "8302": "cooked",
    "8303": "covering",
    "8304": "covery",
    "8305": "cretic",
    "8306": "crimination",
    "8307": "cription",
    "8308": "criptions",
    "8309": "cripts",
    "8310": "culus",
    "8311": "current",
    "8312": "currently",
    "8313": "da",
    "8314": "danda",
    "8315": "dasi",
    "8316": "dates",
    "8317": "def",
    "8318": "den",
    "8319": "dhi",
    "8320": "dministr",
    "8321": "dro",
    "8322": "drop",
    "8323": "dden",
    "8324": "ddled",
    "8325": "defined",
    "8326": "dentified",
    "8327": "derabad",
    "8328": "derately",
    "8329": "dering",
    "8330": "derived",
    "8331": "derness",
    "8332": "description",
    "8333": "desh",
    "8334": "design",
    "8335": "designated",
    "8336": "dhanarishvara",
    "8337": "dhy",
    "8338": "dhyā",
    "8339": "dhyāy",
    "8340": "dhyāyī",
    "8341": "dial",
    "8342": "diers",
    "8343": "dily",
    "8344": "disha",
    "8345": "dit",
    "8346": "diture",
    "8347": "dica",
    "8348": "dical",
    "8349": "dici",
    "8350": "diciary",
    "8351": "discriminatory",
    "8352": "disp",
    "8353": "disputed",
    "8354": "ditation",
    "8355": "ditioning",
    "8356": "divasi",
    "8357": "dives",
    "8358": "divide",
    "8359": "divine",
    "8360": "dministrative",
    "8361": "downt",
    "8362": "downtro",
    "8363": "downtrodden",
    "8364": "drog",
    "8365": "drograph",
    "8366": "drographic",
    "8367": "dual",
    "8368": "due",
    "8369": "ducation",
    "8370": "ducing",
    "8371": "duct",
    "8372": "dustries",
    "8373": "eace",
    "8374": "eans",
    "8375": "easy",
    "8376": "eavor",
    "8377": "eed",
    "8378": "een",
    "8379": "eep",
    "8380": "eing",
    "8381": "eking",
    "8382": "eud",
    "8383": "eum",
    "8384": "eur",
    "8385": "eadily",
    "8386": "eaking",
    "8387": "earned",
    "8388": "eastw",
    "8389": "eastward",
    "8390": "eatite",
    "8391": "ebellion",
    "8392": "ebu",
    "8393": "ece",
    "8394": "ecific",
    "8395": "ecog",
    "8396": "ects",
    "8397": "echnolog",
    "8398": "echnological",
    "8399": "ecogni",
    "8400": "ecognized",
    "8401": "ectancy",
    "8402": "ecting",
    "8403": "ecton",
    "8404": "ectionist",
    "8405": "ectonic",
    "8406": "eda",
    "8407": "edabad",
    "8408": "edals",
    "8409": "edom",
    "8410": "eddings",
    "8411": "eddome",
    "8412": "eeping",
    "8413": "efer",
    "8414": "efied",
    "8415": "efin",
    "8416": "efore",
    "8417": "eft",
    "8418": "eferences",
    "8419": "efinite",
    "8420": "efinitely",
    "8421": "ehrg",
    "8422": "ehrgarh",
    "8423": "elagos",
    "8424": "elected",
    "8425": "elo",
    "8426": "elt",
    "8427": "elu",
    "8428": "ellate",
    "8429": "ellen",
    "8430": "ellenistic",
    "8431": "elodic",
    "8432": "elugu",
    "8433": "ema",
    "8434": "emale",
    "8435": "embers",
    "8436": "emin",
    "8437": "ems",
    "8438": "eminaries",
    "8439": "empor",
    "8440": "emporary",
    "8441": "enditure",
    "8442": "enn",
    "8443": "encies",
    "8444": "ended",
    "8445": "ending",
    "8446": "engine",
    "8447": "engineering",
    "8448": "ennial",
    "8449": "ensity",
    "8450": "ensl",
    "8451": "enslaving",
    "8452": "ental",
    "8453": "enth",
    "8454": "entils",
    "8455": "ention",
    "8456": "entments",
    "8457": "entred",
    "8458": "entry",
    "8459": "ents",
    "8460": "entioned",
    "8461": "entralisation",
    "8462": "eper",
    "8463": "ept",
    "8464": "epul",
    "8465": "eptember",
    "8466": "equate",
    "8467": "erable",
    "8468": "erance",
    "8469": "erate",
    "8470": "erations",
    "8471": "eratures",
    "8472": "ergy",
    "8473": "eria",
    "8474": "ero",
    "8475": "erous",
    "8476": "erve",
    "8477": "erving",
    "8478": "erience",
    "8479": "erior",
    "8480": "ervation",
    "8481": "ervative",
    "8482": "esans",
    "8483": "eserves",
    "8484": "eset",
    "8485": "escence",
    "8486": "essed",
    "8487": "ession",
    "8488": "essionals",
    "8489": "ests",
    "8490": "etail",
    "8491": "eties",
    "8492": "etnam",
    "8493": "etry",
    "8494": "eterm",
    "8495": "eterren",
    "8496": "etermined",
    "8497": "eterrence",
    "8498": "ethnic",
    "8499": "ethyan",
    "8500": "ettes",
    "8501": "ettico",
    "8502": "etticoat",
    "8503": "eudal",
    "8504": "eurial",
    "8505": "ewed",
    "8506": "exe",
    "8507": "existing",
    "8508": "exp",
    "8509": "exts",
    "8510": "expressed",
    "8511": "fall",
    "8512": "fessionals",
    "8513": "fety",
    "8514": "five",
    "8515": "foli",
    "8516": "force",
    "8517": "ford",
    "8518": "fted",
    "8519": "fts",
    "8520": "fastest",
    "8521": "ferred",
    "8522": "ffalo",
    "8523": "ffed",
    "8524": "ffs",
    "8525": "flats",
    "8526": "flung",
    "8527": "folio",
    "8528": "forest",
    "8529": "forested",
    "8530": "forming",
    "8531": "gala",
    "8532": "gation",
    "8533": "gative",
    "8534": "gence",
    "8535": "gencies",
    "8536": "gidly",
    "8537": "gment",
    "8538": "gredi",
    "8539": "greg",
    "8540": "gressive",
    "8541": "ground",
    "8542": "gust",
    "8543": "gebra",
    "8544": "geograph",
    "8545": "geny",
    "8546": "generally",
    "8547": "generational",
    "8548": "geographic",
    "8549": "gested",
    "8550": "ghanistan",
    "8551": "ght",
    "8552": "glom",
    "8553": "glomerations",
    "8554": "gmentation",
    "8555": "gredients",
    "8556": "gregation",
    "8557": "habilitated",
    "8558": "haps",
    "8559": "hgala",
    "8560": "hic",
    "8561": "hich",
    "8562": "hili",
    "8563": "hl",
    "8564": "hol",
    "8565": "hood",
    "8566": "hor",
    "8567": "hous",
    "8568": "hyth",
    "8569": "hâ",
    "8570": "harial",
    "8571": "hask",
    "8572": "haskara",
    "8573": "hem",
    "8574": "hether",
    "8575": "hewing",
    "8576": "headed",
    "8577": "hemical",
    "8578": "henn",
    "8579": "hens",
    "8580": "hennai",
    "8581": "hensive",
    "8582": "heras",
    "8583": "hering",
    "8584": "herry",
    "8585": "herwan",
    "8586": "herent",
    "8587": "herents",
    "8588": "herwanis",
    "8589": "hicle",
    "8590": "hilipp",
    "8591": "hilippines",
    "8592": "hlw",
    "8593": "hlwani",
    "8594": "hmedabad",
    "8595": "holavira",
    "8596": "horse",
    "8597": "housie",
    "8598": "hythm",
    "8599": "hythmic",
    "8600": "hâl",
    "8601": "iander",
    "8602": "iatic",
    "8603": "iation",
    "8604": "iature",
    "8605": "iberation",
    "8606": "iece",
    "8607": "ief",
    "8608": "ience",
    "8609": "iri",
    "8610": "iver",
    "8611": "ivers",
    "8612": "iversity",
    "8613": "ibli",
    "8614": "ibr",
    "8615": "ibliograph",
    "8616": "ibliography",
    "8617": "ibraries",
    "8618": "iced",
    "8619": "iches",
    "8620": "icially",
    "8621": "iction",
    "8622": "icus",
    "8623": "icken",
    "8624": "ickening",
    "8625": "iconic",
    "8626": "ictionary",
    "8627": "idate",
    "8628": "ided",
    "8629": "idered",
    "8630": "iders",
    "8631": "idge",
    "8632": "idli",
    "8633": "ideline",
    "8634": "idelines",
    "8635": "identity",
    "8636": "ield",
    "8637": "iferous",
    "8638": "ifically",
    "8639": "iform",
    "8640": "ift",
    "8641": "igai",
    "8642": "igarettes",
    "8643": "igated",
    "8644": "igence",
    "8645": "igin",
    "8646": "ighat",
    "8647": "ighten",
    "8648": "ighth",
    "8649": "ights",
    "8650": "ighty",
    "8651": "ightly",
    "8652": "ightenment",
    "8653": "ignificant",
    "8654": "igrating",
    "8655": "iii",
    "8656": "ika",
    "8657": "ikankari",
    "8658": "ilaf",
    "8659": "ilderness",
    "8660": "iline",
    "8661": "iling",
    "8662": "illeg",
    "8663": "ilineal",
    "8664": "ilingual",
    "8665": "illance",
    "8666": "illar",
    "8667": "illi",
    "8668": "illing",
    "8669": "illegal",
    "8670": "ims",
    "8671": "inade",
    "8672": "inal",
    "8673": "inate",
    "8674": "inations",
    "8675": "incial",
    "8676": "indhi",
    "8677": "infall",
    "8678": "ini",
    "8679": "iniv",
    "8680": "inked",
    "8681": "inks",
    "8682": "income",
    "8683": "inctions",
    "8684": "incely",
    "8685": "indhu",
    "8686": "indhya",
    "8687": "ineages",
    "8688": "inely",
    "8689": "inga",
    "8690": "inger",
    "8691": "ingled",
    "8692": "ingdom",
    "8693": "inisters",
    "8694": "inivasa",
    "8695": "insp",
    "8696": "inspire",
    "8697": "inspired",
    "8698": "ipation",
    "8699": "ipelagos",
    "8700": "iquely",
    "8701": "iquit",
    "8702": "iquitous",
    "8703": "irls",
    "8704": "iron",
    "8705": "irep",
    "8706": "irety",
    "8707": "irepower",
    "8708": "ironmental",
    "8709": "irtually",
    "8710": "isakhi",
    "8711": "isational",
    "8712": "isis",
    "8713": "isively",
    "8714": "isks",
    "8715": "ishing",
    "8716": "ishment",
    "8717": "ishn",
    "8718": "ishya",
    "8719": "ishna",
    "8720": "isional",
    "8721": "issing",
    "8722": "istance",
    "8723": "istently",
    "8724": "istics",
    "8725": "itage",
    "8726": "itar",
    "8727": "itated",
    "8728": "itched",
    "8729": "itime",
    "8730": "itoch",
    "8731": "its",
    "8732": "itter",
    "8733": "ittle",
    "8734": "itual",
    "8735": "iterally",
    "8736": "ithic",
    "8737": "ithili",
    "8738": "ithm",
    "8739": "ithmetic",
    "8740": "itochond",
    "8741": "itochondrial",
    "8742": "itudes",
    "8743": "ivot",
    "8744": "ivalent",
    "8745": "iversities",
    "8746": "ivotal",
    "8747": "ixture",
    "8748": "izon",
    "8749": "izont",
    "8750": "izontally",
    "8751": "jamas",
    "8752": "join",
    "8753": "jour",
    "8754": "jured",
    "8755": "jecting",
    "8756": "joining",
    "8757": "journing",
    "8758": "kani",
    "8759": "kata",
    "8760": "ke",
    "8761": "khar",
    "8762": "kim",
    "8763": "kirt",
    "8764": "known",
    "8765": "ksha",
    "8766": "kut",
    "8767": "kuttu",
    "8768": "lace",
    "8769": "laced",
    "8770": "laciers",
    "8771": "laden",
    "8772": "laps",
    "8773": "laration",
    "8774": "lasting",
    "8775": "lated",
    "8776": "lating",
    "8777": "lerance",
    "8778": "lid",
    "8779": "ligated",
    "8780": "lightenment",
    "8781": "linked",
    "8782": "lit",
    "8783": "literally",
    "8784": "lor",
    "8785": "lped",
    "8786": "lta",
    "8787": "leavened",
    "8788": "leeing",
    "8789": "lemented",
    "8790": "leph",
    "8791": "ley",
    "8792": "legraph",
    "8793": "lephanta",
    "8794": "lian",
    "8795": "lier",
    "8796": "liers",
    "8797": "liffs",
    "8798": "lihood",
    "8799": "lived",
    "8800": "licated",
    "8801": "lora",
    "8802": "luv",
    "8803": "lusive",
    "8804": "lusively",
    "8805": "luvial",
    "8806": "lying",
    "8807": "lymp",
    "8808": "lywo",
    "8809": "lympics",
    "8810": "lywood",
    "8811": "manent",
    "8812": "mass",
    "8813": "matical",
    "8814": "men",
    "8815": "mense",
    "8816": "millennium",
    "8817": "million",
    "8818": "mmatical",
    "8819": "mmediately",
    "8820": "monds",
    "8821": "mop",
    "8822": "most",
    "8823": "mrit",
    "8824": "mun",
    "8825": "mā",
    "8826": "maravati",
    "8827": "mark",
    "8828": "market",
    "8829": "mbitions",
    "8830": "mbol",
    "8831": "mbrac",
    "8832": "mbracing",
    "8833": "mended",
    "8834": "merge",
    "8835": "meric",
    "8836": "mini",
    "8837": "minst",
    "8838": "minister",
    "8839": "minster",
    "8840": "missioning",
    "8841": "mits",
    "8842": "mittances",
    "8843": "mittently",
    "8844": "monary",
    "8845": "mons",
    "8846": "mopolit",
    "8847": "mopolitan",
    "8848": "mpires",
    "8849": "mportant",
    "8850": "mrits",
    "8851": "mritsar",
    "8852": "munities",
    "8853": "māya",
    "8854": "māyaṇ",
    "8855": "māyaṇa",
    "8856": "nas",
    "8857": "nasties",
    "8858": "national",
    "8859": "natyam",
    "8860": "ncretic",
    "8861": "nees",
    "8862": "nerable",
    "8863": "ners",
    "8864": "nine",
    "8865": "nions",
    "8866": "not",
    "8867": "namic",
    "8868": "namon",
    "8869": "nicity",
    "8870": "nologue",
    "8871": "notably",
    "8872": "oals",
    "8873": "oastal",
    "8874": "oetry",
    "8875": "official",
    "8876": "ogeographic",
    "8877": "oice",
    "8878": "oist",
    "8879": "oogeographic",
    "8880": "ooth",
    "8881": "ov",
    "8882": "ox",
    "8883": "ocations",
    "8884": "ock",
    "8885": "ockey",
    "8886": "ocused",
    "8887": "ochistan",
    "8888": "ociety",
    "8889": "oda",
    "8890": "odated",
    "8891": "odavari",
    "8892": "oding",
    "8893": "odo",
    "8894": "odies",
    "8895": "odilian",
    "8896": "odiment",
    "8897": "ogri",
    "8898": "ogur",
    "8899": "ogurt",
    "8900": "ointment",
    "8901": "oken",
    "8902": "oking",
    "8903": "oldiers",
    "8904": "olished",
    "8905": "olithic",
    "8906": "olkata",
    "8907": "olls",
    "8908": "ollywood",
    "8909": "olon",
    "8910": "olor",
    "8911": "olph",
    "8912": "olute",
    "8913": "olution",
    "8914": "olden",
    "8915": "olding",
    "8916": "olidified",
    "8917": "olonisation",
    "8918": "olorado",
    "8919": "olphin",
    "8920": "omadic",
    "8921": "oman",
    "8922": "omes",
    "8923": "ommended",
    "8924": "omo",
    "8925": "omot",
    "8926": "omy",
    "8927": "omestication",
    "8928": "ominion",
    "8929": "ommodated",
    "8930": "omotive",
    "8931": "ompanied",
    "8932": "ompassing",
    "8933": "omsmen",
    "8934": "ongest",
    "8935": "onia",
    "8936": "onkani",
    "8937": "onomy",
    "8938": "onour",
    "8939": "ony",
    "8940": "ongol",
    "8941": "onsible",
    "8942": "onsors",
    "8943": "onsorship",
    "8944": "onyi",
    "8945": "ooded",
    "8946": "oothly",
    "8947": "opped",
    "8948": "opy",
    "8949": "orally",
    "8950": "orarji",
    "8951": "organisation",
    "8952": "organised",
    "8953": "origin",
    "8954": "orities",
    "8955": "orizontally",
    "8956": "ordinate",
    "8957": "ords",
    "8958": "orem",
    "8959": "ortality",
    "8960": "ortional",
    "8961": "ortionately",
    "8962": "orytell",
    "8963": "orytelling",
    "8964": "osome",
    "8965": "ossessed",
    "8966": "ossils",
    "8967": "ota",
    "8968": "ote",
    "8969": "otes",
    "8970": "othes",
    "8971": "oti",
    "8972": "otta",
    "8973": "othing",
    "8974": "otton",
    "8975": "oubled",
    "8976": "oughly",
    "8977": "oult",
    "8978": "oultry",
    "8979": "ounced",
    "8980": "ouncil",
    "8981": "ounder",
    "8982": "ounger",
    "8983": "ounts",
    "8984": "ounded",
    "8985": "ountain",
    "8986": "ounting",
    "8987": "ourly",
    "8988": "ours",
    "8989": "ourse",
    "8990": "ousand",
    "8991": "ousands",
    "8992": "ousers",
    "8993": "outcastes",
    "8994": "ovPubs",
    "8995": "overnor",
    "8996": "owards",
    "8997": "owda",
    "8998": "owers",
    "8999": "owned",
    "9000": "owners",
    "9001": "oxide",
    "9002": "panding",
    "9003": "pared",
    "9004": "party",
    "9005": "pastoral",
    "9006": "pect",
    "9007": "peration",
    "9008": "pics",
    "9009": "place",
    "9010": "plus",
    "9011": "ports",
    "9012": "position",
    "9013": "posts",
    "9014": "pr",
    "9015": "pre",
    "9016": "pren",
    "9017": "present",
    "9018": "president",
    "9019": "pure",
    "9020": "payers",
    "9021": "penStreetMap",
    "9022": "pending",
    "9023": "phies",
    "9024": "picuous",
    "9025": "pping",
    "9026": "ppointed",
    "9027": "prise",
    "9028": "precedented",
    "9029": "preneurial",
    "9030": "producing",
    "9031": "prostitutes",
    "9032": "quefied",
    "9033": "quest",
    "9034": "rance",
    "9035": "ranged",
    "9036": "rich",
    "9037": "rilineal",
    "9038": "rinivasa",
    "9039": "rion",
    "9040": "rishna",
    "9041": "roup",
    "9042": "ruc",
    "9043": "rul",
    "9044": "rum",
    "9045": "rune",
    "9046": "rade",
    "9047": "radesh",
    "9048": "raditional",
    "9049": "radually",
    "9050": "rafts",
    "9051": "rain",
    "9052": "raits",
    "9053": "rapped",
    "9054": "rastruc",
    "9055": "ray",
    "9056": "racotta",
    "9057": "ranis",
    "9058": "rastructure",
    "9059": "reate",
    "9060": "reedom",
    "9061": "rees",
    "9062": "rehensive",
    "9063": "reland",
    "9064": "related",
    "9065": "rely",
    "9066": "remental",
    "9067": "repreneurial",
    "9068": "rest",
    "9069": "reamble",
    "9070": "reasingly",
    "9071": "reatment",
    "9072": "redible",
    "9073": "reex",
    "9074": "reexisting",
    "9075": "regul",
    "9076": "regular",
    "9077": "regulated",
    "9078": "regularities",
    "9079": "renched",
    "9080": "rescent",
    "9081": "retaker",
    "9082": "retching",
    "9083": "riad",
    "9084": "riddled",
    "9085": "ried",
    "9086": "riff",
    "9087": "right",
    "9088": "rimary",
    "9089": "rived",
    "9090": "river",
    "9091": "riya",
    "9092": "ribes",
    "9093": "ribution",
    "9094": "ributaries",
    "9095": "ricity",
    "9096": "rict",
    "9097": "rictions",
    "9098": "rigation",
    "9099": "rigonometric",
    "9100": "rigonometry",
    "9101": "riti",
    "9102": "ritically",
    "9103": "ritory",
    "9104": "roachment",
    "9105": "rogeny",
    "9106": "roidered",
    "9107": "rophies",
    "9108": "ropped",
    "9109": "ropping",
    "9110": "rochemical",
    "9111": "roclaiming",
    "9112": "rocodilian",
    "9113": "roleum",
    "9114": "romosome",
    "9115": "ronounced",
    "9116": "ronicling",
    "9117": "roportionately",
    "9118": "roughout",
    "9119": "roughts",
    "9120": "rounds",
    "9121": "rown",
    "9122": "ruction",
    "9123": "rule",
    "9124": "rumped",
    "9125": "runei",
    "9126": "ruptive",
    "9127": "ryabhata",
    "9128": "scriptions",
    "9129": "servation",
    "9130": "served",
    "9131": "serving",
    "9132": "settled",
    "9133": "ship",
    "9134": "sia",
    "9135": "sided",
    "9136": "sine",
    "9137": "skirt",
    "9138": "solidified",
    "9139": "such",
    "9140": "scheduled",
    "9141": "schewing",
    "9142": "scuring",
    "9143": "selective",
    "9144": "self",
    "9145": "sequently",
    "9146": "shaped",
    "9147": "shatriya",
    "9148": "slide",
    "9149": "sliding",
    "9150": "soons",
    "9151": "speaking",
    "9152": "specific",
    "9153": "stances",
    "9154": "stics",
    "9155": "sting",
    "9156": "stment",
    "9157": "stream",
    "9158": "stru",
    "9159": "stringent",
    "9160": "struments",
    "9161": "surge",
    "9162": "surgencies",
    "9163": "tane",
    "9164": "tas",
    "9165": "tection",
    "9166": "ties",
    "9167": "tivity",
    "9168": "tling",
    "9169": "to",
    "9170": "traditional",
    "9171": "treated",
    "9172": "tropical",
    "9173": "teenth",
    "9174": "telligence",
    "9175": "terculture",
    "9176": "tered",
    "9177": "teries",
    "9178": "term",
    "9179": "tery",
    "9180": "ternately",
    "9181": "thnologue",
    "9182": "thority",
    "9183": "tier",
    "9184": "touchables",
    "9185": "tras",
    "9186": "trine",
    "9187": "ttar",
    "9188": "tymons",
    "9189": "udiciary",
    "9190": "uettes",
    "9191": "uffed",
    "9192": "ugust",
    "9193": "uidelines",
    "9194": "uistic",
    "9195": "ument",
    "9196": "uthority",
    "9197": "ux",
    "9198": "ubiquitous",
    "9199": "ucherry",
    "9200": "ucked",
    "9201": "ucture",
    "9202": "udaism",
    "9203": "udflats",
    "9204": "udra",
    "9205": "uducherry",
    "9206": "uisines",
    "9207": "ukkuttu",
    "9208": "ukmini",
    "9209": "ula",
    "9210": "ulaic",
    "9211": "ulating",
    "9212": "ulation",
    "9213": "ulba",
    "9214": "ulgation",
    "9215": "ull",
    "9216": "ully",
    "9217": "ulmonary",
    "9218": "ulnerable",
    "9219": "ulses",
    "9220": "ulsing",
    "9221": "ultilingual",
    "9222": "umin",
    "9223": "unctions",
    "9224": "untouchables",
    "9225": "undale",
    "9226": "undarbans",
    "9227": "undred",
    "9228": "upas",
    "9229": "upees",
    "9230": "uptas",
    "9231": "uppliers",
    "9232": "urable",
    "9233": "urally",
    "9234": "urchasing",
    "9235": "urden",
    "9236": "urgence",
    "9237": "uriant",
    "9238": "uru",
    "9239": "uralistic",
    "9240": "ursions",
    "9241": "ursue",
    "9242": "urtailed",
    "9243": "usic",
    "9244": "uspending",
    "9245": "ussia",
    "9246": "ustained",
    "9247": "ustard",
    "9248": "ustice",
    "9249": "utan",
    "9250": "utch",
    "9251": "uture",
    "9252": "uteed",
    "9253": "uxuriant",
    "9254": "vailing",
    "9255": "vallis",
    "9256": "vals",
    "9257": "vanagari",
    "9258": "vate",
    "9259": "vironmental",
    "9260": "visational",
    "9261": "validate",
    "9262": "valli",
    "9263": "veals",
    "9264": "veillance",
    "9265": "vements",
    "9266": "vestment",
    "9267": "venge",
    "9268": "venth",
    "9269": "veraging",
    "9270": "verbal",
    "9271": "versely",
    "9272": "view",
    "9273": "vious",
    "9274": "vidual",
    "9275": "volution",
    "9276": "wanted",
    "9277": "went",
    "9278": "were",
    "9279": "where",
    "9280": "which",
    "9281": "wice",
    "9282": "wide",
    "9283": "with",
    "9284": "wstring",
    "9285": "wanathan",
    "9286": "weapon",
    "9287": "worker",
    "9288": "xford",
    "9289": "xicon",
    "9290": "yani",
    "9291": "yderabad",
    "9292": "yed",
    "9293": "yjamas",
    "9294": "yond",
    "9295": "ystics",
    "9296": "ype",
    "9297": "ypical",
    "9298": "ythagorean",
    "9299": "zadirachta",
    "9300": "Ön",
    "9301": "ābhārata",
    "9302": "ādhyāyī",
    "9303": "āmāyaṇa",
    "9304": "āṇ",
    "9305": "āṇini",
    "9306": "Śulba",
    "9307": "ūtras",
    "9308": "ंजन",
    "9309": "ंती",
    "9310": "ंथी",
    "9311": "ंबर",
    "9312": "ंश",
    "9313": "ंस",
    "9314": "ंतरिक",
    "9315": "ंदोलन",
    "9316": "कट",
    "9317": "काज",
    "9318": "काश",
    "9319": "कारी",
    "9320": "क्टू",
    "9321": "क्टूबर",
    "9322": "क्षरता",
    "9323": "खन",
    "9324": "गढ़",
    "9325": "गति",
    "9326": "गी",
    "9327": "गोल",
    "9328": "ग्र",
    "9329": "चा",
    "9330": "चित",
    "9331": "जों",
    "9332": "झे",
    "9333": "टना",
    "9334": "ठक",
    "9335": "ठा",
    "9336": "ठार",
    "9337": "ठित",
    "9338": "डिया",
    "9339": "डु",
    "9340": "ड़ियाँ",
    "9341": "तन",
    "9342": "तपु",
    "9343": "त्म",
    "9344": "त्व",
    "9345": "तपुड़ा",
    "9346": "तांत्रिक",
    "9347": "त्ति",
    "9348": "थान",
    "9349": "दाय",
    "9350": "दिक",
    "9351": "दों",
    "9352": "द्वीप",
    "9353": "दीव",
    "9354": "द्यपि",
    "9355": "द्रोह",
    "9356": "धीरे",
    "9357": "नियों",
    "9358": "नेट",
    "9359": "न्दी",
    "9360": "न्हों",
    "9361": "न्होंने",
    "9362": "पंथी",
    "9363": "पश्चिम",
    "9364": "पास",
    "9365": "परेश",
    "9366": "परेशन",
    "9367": "बूत",
    "9368": "भर",
    "9369": "मु",
    "9370": "मोहन",
    "9371": "यपालिका",
    "9372": "यर",
    "9373": "रान",
    "9374": "राई",
    "9375": "रिकी",
    "9376": "र्मण",
    "9377": "लिस",
    "9378": "ल्",
    "9379": "वत",
    "9380": "वेश",
    "9381": "व्य",
    "9382": "सों",
    "9383": "हारी",
    "9384": "हित",
    "9385": "हिन्दी",
    "9386": "हित्य",
    "9387": "ाइन",
    "9388": "ाटी",
    "9389": "ांडर",
    "9390": "ागर",
    "9391": "ातार",
    "9392": "ामिल",
    "9393": "ारख",
    "9394": "ारे",
    "9395": "ार्द",
    "9396": "ालदीव",
    "9397": "ालय",
    "9398": "ासागर",
    "9399": "िएशन",
    "9400": "ियर",
    "9401": "ियस",
    "9402": "ियो",
    "9403": "िरपेक्ष",
    "9404": "िवार",
    "9405": "िश्र",
    "9406": "ीक",
    "9407": "ीव",
    "9408": "ीपी",
    "9409": "ुक",
    "9410": "ूर्ण",
    "9411": "ूह",
    "9412": "ूल्य",
    "9413": "ृद्धि",
    "9414": "ेड",
    "9415": "ेव",
    "9416": "ेंद्र",
    "9417": "ैर",
    "9418": "ैनिक",
    "9419": "ोने",
    "9420": "ोवा",
    "9421": "ोस",
    "9422": "ोंड",
    "9423": "ौहार्द",
    "9424": "्टाफ",
    "9425": "्रम",
    "9426": "५२",
    "9427": "८५",
    "9428": "ஆரிய",
    "9429": "இசுலாமிய",
    "9430": "இலிருந்து",
    "9431": "கட்ட",
    "9432": "கம்",
    "9433": "கார",
    "9434": "கிழ",
    "9435": "களால்",
    "9436": "களைக்",
    "9437": "கிழக்கு",
    "9438": "க்கலை",
    "9439": "க்கவோ",
    "9440": "க்கான",
    "9441": "க்கின்றன",
    "9442": "க்கப்படுகின்றனர்",
    "9443": "க்கப்பட்டனர்",
    "9444": "க்கப்பட்டுள்ளன",
    "9445": "ங்கிய",
    "9446": "ங்கீக",
    "9447": "ங்களான",
    "9448": "ங்களுக்கும்",
    "9449": "ங்களையுடைய",
    "9450": "சன",
    "9451": "சாய",
    "9452": "சார",
    "9453": "சுவ",
    "9454": "சிப்",
    "9455": "ச்சின",
    "9456": "ஞ்சத",
    "9457": "ஞ்சதார",
    "9458": "ஞ்சதாரோ",
    "9459": "டங்க",
    "9460": "டிக",
    "9461": "ட்சணை",
    "9462": "ட்டச்ச",
    "9463": "ட்டம்",
    "9464": "ட்டியை",
    "9465": "ட்டுக்கு",
    "9466": "ட்பட்ட",
    "9467": "ணிகள்",
    "9468": "ண்டா",
    "9469": "தட்சணை",
    "9470": "தம்",
    "9471": "தூர",
    "9472": "தேச",
    "9473": "தைத்",
    "9474": "தற்காக",
    "9475": "தற்குக்",
    "9476": "தாகவும்",
    "9477": "தியள",
    "9478": "த்திற்கான",
    "9479": "த்திற்குள்",
    "9480": "த்தீவ",
    "9481": "நீ",
    "9482": "நகரப்",
    "9483": "நீதிமன்ற",
    "9484": "ந்தா",
    "9485": "ந்த்",
    "9486": "னின்",
    "9487": "னே",
    "9488": "ன்னும்",
    "9489": "பாடு",
    "9490": "பி",
    "9491": "பூம",
    "9492": "ப்பம்ச",
    "9493": "ப்பில்",
    "9494": "ப்புகள்",
    "9495": "ப்படாத",
    "9496": "ப்படியாக",
    "9497": "ப்படுவதில்லை",
    "9498": "மக",
    "9499": "மீ",
    "9500": "மீட்ட",
    "9501": "மாகப்",
    "9502": "மாகவும்",
    "9503": "மீட்டர்கள்",
    "9504": "மையும்",
    "9505": "மையைக்",
    "9506": "ரையும்",
    "9507": "ரச்",
    "9508": "ர்ப்ப",
    "9509": "ர்களும்",
    "9510": "ர்க்கப்படுகிறது",
    "9511": "ர்ந்துள்ளது",
    "9512": "ர்பா",
    "9513": "ர்வக",
    "9514": "றுக்க",
    "9515": "றுத்த",
    "9516": "ற்கடி",
    "9517": "ற்குக்",
    "9518": "லவ",
    "9519": "லு",
    "9520": "லுவ",
    "9521": "லவாய",
    "9522": "ல்களில்",
    "9523": "ல்லிய",
    "9524": "ல்வாய்கள்",
    "9525": "ளித",
    "9526": "ளர்ச்சி",
    "9527": "ளிப",
    "9528": "ழிப்படை",
    "9529": "ழுத்து",
    "9530": "ழ்ந்தது",
    "9531": "ழ்வ",
    "9532": "வதற்கு",
[...]
